{"<|endoftext|>":0,"!":1,"\"":2,"#":3,"$":4,"%":5,"&":6,"'":7,"(":8,")":9,"*":10,"+":11,",":12,"-":13,".":14,"/":15,"0":16,"1":17,"2":18,"3":19,"4":20,"5":21,"6":22,"7":23,"8":24,"9":25,":":26,";":27,"<":28,"=":29,">":30,"?":31,"@":32,"A":33,"B":34,"C":35,"D":36,"E":37,"F":38,"G":39,"H":40,"I":41,"J":42,"K":43,"L":44,"M":45,"N":46,"O":47,"P":48,"Q":49,"R":50,"S":51,"T":52,"U":53,"V":54,"W":55,"X":56,"Y":57,"Z":58,"[":59,"\\":60,"]":61,"^":62,"_":63,"`":64,"a":65,"b":66,"c":67,"d":68,"e":69,"f":70,"g":71,"h":72,"i":73,"j":74,"k":75,"l":76,"m":77,"n":78,"o":79,"p":80,"q":81,"r":82,"s":83,"t":84,"u":85,"v":86,"w":87,"x":88,"y":89,"z":90,"{":91,"|":92,"}":93,"~":94,"¡":95,"¢":96,"£":97,"¤":98,"¥":99,"¦":100,"§":101,"¨":102,"©":103,"ª":104,"«":105,"¬":106,"®":107,"¯":108,"°":109,"±":110,"²":111,"³":112,"´":113,"µ":114,"¶":115,"·":116,"¸":117,"¹":118,"º":119,"»":120,"¼":121,"½":122,"¾":123,"¿":124,"À":125,"Á":126,"Â":127,"Ã":128,"Ä":129,"Å":130,"Æ":131,"Ç":132,"È":133,"É":134,"Ê":135,"Ë":136,"Ì":137,"Í":138,"Î":139,"Ï":140,"Ð":141,"Ñ":142,"Ò":143,"Ó":144,"Ô":145,"Õ":146,"Ö":147,"×":148,"Ø":149,"Ù":150,"Ú":151,"Û":152,"Ü":153,"Ý":154,"Þ":155,"ß":156,"à":157,"á":158,"â":159,"ã":160,"ä":161,"å":162,"æ":163,"ç":164,"è":165,"é":166,"ê":167,"ë":168,"ì":169,"í":170,"î":171,"ï":172,"ð":173,"ñ":174,"ò":175,"ó":176,"ô":177,"õ":178,"ö":179,"÷":180,"ø":181,"ù":182,"ú":183,"û":184,"ü":185,"ý":186,"þ":187,"ÿ":188,"Ā":189,"ā":190,"Ă":191,"ă":192,"Ą":193,"ą":194,"Ć":195,"ć":196,"Ĉ":197,"ĉ":198,"Ċ":199,"ċ":200,"Č":201,"č":202,"Ď":203,"ď":204,"Đ":205,"đ":206,"Ē":207,"ē":208,"Ĕ":209,"ĕ":210,"Ė":211,"ė":212,"Ę":213,"ę":214,"Ě":215,"ě":216,"Ĝ":217,"ĝ":218,"Ğ":219,"ğ":220,"Ġ":221,"ġ":222,"Ģ":223,"ģ":224,"Ĥ":225,"ĥ":226,"Ħ":227,"ħ":228,"Ĩ":229,"ĩ":230,"Ī":231,"ī":232,"Ĭ":233,"ĭ":234,"Į":235,"į":236,"İ":237,"ı":238,"Ĳ":239,"ĳ":240,"Ĵ":241,"ĵ":242,"Ķ":243,"ķ":244,"ĸ":245,"Ĺ":246,"ĺ":247,"Ļ":248,"ļ":249,"Ľ":250,"ľ":251,"Ŀ":252,"ŀ":253,"Ł":254,"ł":255,"Ń":256,"Ġt":257,"in":258,"Ġa":259,"re":260,"on":261,"he":262,"ti":263,"Ġs":264,"te":265,"Ġthe":266,"al":267,"Ġo":268,"Ġc":269,"en":270,"Ġin":271,"or":272,"Ġp":273,"Ġw":274,"Ġan":275,"es":276,"er":277,"Ġof":278,"tion":279,"ed":280,"Ġm":281,"ro":282,"Ġd":283,"is":284,"Ġf":285,"an":286,"Ġand":287,"it":288,"ing":289,"Ġb":290,"ic":291,"Ġ(":292,"as":293,"ar":294,"Ġre":295,"at":296,"Ġe":297,"ĠĠ":298,"le":299,"Ġto":300,"Ġn":301,"ate":302,"ent":303,"ation":304,"el":305,"us":306,"ec":307,"ul":308,"Ġth":309,"ur":310,"im":311,"ac":312,"ly":313,"om":314,"ere":315,"ig":316,"Ġh":317,"ve":318,"ĠT":319,"ter":320,"Ġl":321,"ith":322,"âĢ":323,"res":324,"un":325,"Ġcon":326,"et":327,"Ġwith":328,"ol":329,"os":330,"id":331,"ce":332,"ĠĊ":333,"Ġ)":334,"Ġg":335,"if":336,"Ġst":337,"am":338,"ow":339,"ot":340,"ĠA":341,"Ġfor":342,"tic":343,"Ġas":344,"ts":345,"Ġal":346,"Ġv":347,"Ġex":348,"il":349,"ra":350,"ated":351,"Ġthat":352,"ted":353,"Ġpro":354,"oc":355,"od":356,"ĠS":357,"ĠC":358,"ity":359,"Ġis":360,"ion":361,"uc":362,"ri":363,"ut":364,"Ġwere":365,"Ġne":366,"Ġwas":367,"Ġon":368,"Ġbe":369,"Ġac":370,"ud":371,"Ġde":372,"ĠI":373,"ĠP":374,"se":375,"ati":376,"ver":377,"um":378,"ag":379,"Ġ).":380,"ĠThe":381,"ĠM":382,"ys":383,"ment":384,"up":385,"Ġres":386,"her":387,"ir":388,"og":389,"ab":390,"Ġby":391,"Ġcom":392,"ell":393,"Ġ1":394,"##":395,"ĠF":396,"red":397,"tiv":398,"tr":399,"qu":400,"Ġare":401,"ess":402,"rom":403,"Ġr":404,"op":405,"ff":406,"ant":407,"Ġat":408,"Ġor":409,"ain":410,"Ġexp":411,"Ġim":412,"âĢī":413,"ical":414,"Ġdis":415,"Ġus":416,"ĠĊĠĠ":417,"ress":418,"ons":419,"ign":420,"ip":421,"ĠD":422,"Ġcomp":423,"iz":424,"ay":425,"Ġsh":426,"orm":427,"ub":428,"Ġch":429,"ine":430,"ad":431,"Ġper":432,"Ġwh":433,"ore":434,"igh":435,"ten":436,"Ġfrom":437,"ure":438,"Ġle":439,"Ġse":440,"Ġinc":441,"di":442,"Ġsp":443,"tive":444,"Âł":445,").":446,"ĠH":447,"etw":448,"Ġcor":449,"und":450,"ĠR":451,"ĠN":452,"ific":453,"vel":454,"Ġstud":455,"ĠB":456,"tro":457,"ap":458,"iff":459,"ents":460,"Ġwe":461,".,":462,"rain":463,"ies":464,"eren":465,"ction":466,"ĠE":467,"ory":468,"00":469,"Ġsign":470,"Ġ2":471,"Ġet":472,"ous":473,"Ġ;":474,"ĠIn":475,"Ġdiff":476,"por":477,"ations":478,"ase":479,"ug":480,"vi":481,"Ġneur":482,"Ġme":483,"st":484,"th":485,"ch":486,"Ġpar":487,"ffec":488,"duc":489,"Ġcell":490,"Ġad":491,"pl":492,"ĠG":493,"Ġ,":494,"ib":495,"Ġ0":496,"ĠW":497,"yp":498,"est":499,"ther":500,"form":501,"ence":502,"ran":503,"),":504,"tim":505,"Ġmod":506,"ding":507,"Ġnot":508,"Ġdifferen":509,"Ġpre":510,"ph":511,"een":512,"Ġco":513,"etween":514,"Ġshow":515,"Ġthis":516,"ge":517,"Ġbetween":518,"ual":519,"ich":520,"Ġen":521,"ved":522,"ance":523,"Ġactiv":524,"Ġsub":525,"Ġreg":526,"Ġ=":527,"Ġass":528,"Ġmic":529,"ers":530,"ĠL":531,"Ġgen":532,"Ġresp":533,"tions":534,"Ġpos":535,"ased":536,"vid":537,"ors":538,"ach":539,"unction":540,"jec":541,"yn":542,"lec":543,"Ġeffec":544,"Ġanal":545,"Ġwhich":546,"Ġgro":547,"Ġinter":548,"pt":549,"Ġpati":550,"ting":551,"Ġcl":552,"ally":553,"Ġbrain":554,"de":555,"olog":556,"oci":557,"Ġrec":558,"ave":559,"ĠĊĊ":560,"Ġhe":561,"age":562,"ren":563,"ight":564,"Ġ3":565,"Ġsignific":566,"ke":567,"ĠO":568,"ens":569,"Ġap":570,"and":571,"Ġob":572,"ression":573,"ia":574,"act":575,"uro":576,"Ġwhe":577,"Ġ[":578,"ple":579,"ata":580,"Ġsc":581,"ular":582,"Ġab":583,"ue":584,"als":585,"Ġsignificant":586,"Ġgroup":587,"low":588,"ari":589,"âĢĵ":590,"Ġhave":591,"Ġincre":592,"Ġit":593,"pro":594,"trol":595,"Ġstudy":596,"ative":597,"Ġfunction":598,"so":599,"Ġpatients":600,"ong":601,"Ġpo":602,"ulation":603,"em":604,"Ġpl":605,"ath":606,"Ġusing":607,"Ġcons":608,"Ġcells":609,"Ġresul":610,"Ġrel":611,"Ġtim":612,"rans":613,"end":614,"ang":615,"Ġalso":616,"able":617,"Ġanalys":618,"ĠTh":619,"ary":620,"rib":621,"Ġneuro":622,"Ġcontrol":623,"Ġdi":624,"ral":625,"enc":626,"Ġun":627,"ates":628,"cess":629,"Ġno":630,"Ġcan":631,"Ġdur":632,"Ġtrans":633,"Ġmodel":634,"to":635,"tical":636,"fter":637,"Ġthese":638,"Ġstim":639,"Ġpres":640,"tem":641,"Ġdata":642,"ord":643,"Ġneurons":644,"all":645,"uld":646,"oth":647,"ni":648,"Ġfo":649,"Ġ5":650,"rel":651,"ility":652,"ating":653,"Ġused":654,"ork":655,"Ġ]":656,"dition":657,"ard":658,"Ġlevel":659,"ely":660,"Ġro":661,"lud":662,"ial":663,"Ġph":664,"ures":665,"ugh":666,"wo":667,"Ġeach":668,"Ġmice":669,"Ġperform":670,"Ġam":671,"ied":672,"ions":673,"Ġmay":674,"tif":675,"tain":676,"###":677,"Ġpartic":678,"Ġ4":679,"Ġstudies":680,"ros":681,"ome":682,"ven":683,"Ġdec":684,"Ġ),":685,"ill":686,"ame":687,"Ġbeen":688,"Ġtime":689,"Ġmo":690,"Ġinf":691,"Ġinv":692,"tal":693,"Ġduring":694,"ile":695,"Ġhas":696,"ech":697,"duced":698,"Ġafter":699,"Ġmet":700,"ha":701,"Ġassoci":702,"ct":703,"ser":704,"val":705,"Ġtwo":706,"ron":707,"ĠV":708,"Ġbut":709,"Ġstr":710,"min":711,"Ġvari":712,"ized":713,"ants":714,"Ġrep":715,"ared":716,"Ġactivity":717,"Ġexper":718,"Ġspec":719,"Ġanalysis":720,"Ġall":721,"Ġboth":722,"ces":723,"uch":724,"tial":725,"Ġmore":726,"Ġund":727,"ask":728,"Ġother":729,"Ġtre":730,"ose":731,"Ġk":732,"Ġ.":733,"ak":734,"ite":735,"Ġind":736,"Ġacc":737,"Ġprote":738,"havi":739,"ĠÎ":740,"Ġthan":741,"ever":742,"ond":743,"ive":744,"Ġsyn":745,"ep":746,"ĠWe":747,"ĠU":748,"ms":749,"ear":750,"port":751,"ast":752,"ack":753,"Ġinclud":754,"ree":755,"Ġresults":756,"ological":757,"hib":758,"ĠThis":759,"Ġunder":760,"ass":761,"lu":762,"ost":763,"mo":764,"Ġprocess":765,"Ġobser":766,"Ġdifferent":767,"Ġtheir":768,"The":769,"Ġbl":770,"Ġmeas":771,"Ġexpression":772,"tex":773,"arg":774,"Ġover":775,"ogni":776,"trib":777,"ollow":778,"ber":779,"Ġval":780,"Ġsup":781,"ugg":782,"NA":783,"gen":784,"Ġbehavi":785,"out":786,"Ġsim":787,"Ġsugg":788,"Ġar":789,"Ġhigh":790,"cept":791,"âĢĻ":792,"Ġmem":793,"Ġdes":794,"Ġour":795,"âĢĲ":796,"Ġpath":797,"per":798,"Ġfin":799,"Ġtest":800,"Ġindic":801,"Ġparticip":802,"tern":803,"aus":804,"Ġdep":805,"Ġfound":806,"velop":807,"tribu":808,"Ġtask":809,"ystem":810,"Ġfollow":811,"pec":812,"Ġnum":813,"Ġstimul":814,"owever":815,"onal":816,"ide":817,"Ġeffect":818,"Ġag":819,"ox":820,"Ġqu":821,"ist":822,"ew":823,"Ġeffects":824,"Ġ].":825,"iti":826,"edi":827,"ft":828,"Ġprotein":829,"tivity":830,"ult":831,"ases":832,"ition":833,"ace":834,"atment":835,"ark":836,"onse":837,"Ġout":838,"ĠK":839,"ues":840,"ann":841,"ability":842,"Ġone":843,"ym":844,"atory":845,"nec":846,"Ġcompared":847,"iss":848,"cl":849,"Ġlow":850,"otor":851,"ross":852,"Ġexperim":853,"Ġloc":854,"ll":855,"hed":856,"Ġsuch":857,"Ġanti":858,"vious":859,"ĠâĢ":860,"Ġhyp":861,"tin":862,"Ġsystem":863,"Ġy":864,"etwork":865,"Ġfir":866,"Ġdevelop":867,"Ġimp":868,"hes":869,"Ġlevels":870,"ays":871,"one":872,"lic":873,"Ġ6":874,"Ġdef":875,"iden":876,"Ġchang":877,"urther":878,"01":879,"fore":880,"ale":881,"mun":882,"Ġvis":883,"Ġdem":884,"quenc":885,"Ġcorrel":886,"Ġdise":887,"tes":888,"ization":889,"Ġcogni":890,"Ġiden":891,"Ġresponse":892,"divid":893,"Ġ<":894,"Ġthere":895,"Ġsec":896,"Ġassociated":897,"Ġincreased":898,"ail":899,"amp":900,"Ġgl":901,"Ġtri":902,"ype":903,"Ġpoten":904,"ric":905,"dividual":906,"Ġsubjec":907,"Ġtreatment":908,"Ġnetwork":909,"Ġinto":910,"Ġra":911,"Ġ10":912,"Ġconnec":913,"der":914,"Ġpr":915,"ans":916,"Ġimag":917,"uct":918,"Ġgener":919,"Ġfact":920,"Ġappro":921,"ne":922,"Ġnon":923,"ater":924,"Ġobserved":925,"Ġsens":926,"Ġonly":927,"urren":928,"ments":929,"are":930,"amm":931,"Ġbehavior":932,"Ġrat":933,"Ġso":934,"Ġcould":935,"ormal":936,"Ġinhib":937,"Â±":938,"Ġexam":939,"Ġchanges":940,"hod":941,"hen":942,"Ġshowed":943,"Ġnumber":944,"its":945,"Ġman":946,"own":947,"ock":948,"Ġtr":949,"Ġwhen":950,"echan":951,"Ġfe":952,"Ġshown":953,"ise":954,"Ġindividual":955,"inical":956,"Ġprevious":957,"ilar":958,"Ġrepor":959,"RI":960,"Ġrepres":961,"sy":962,"Ġcortex":963,"old":964,"Ġsignificantly":965,"yl":966,"Ġpred":967,"Ġwithin":968,"Ġinte":969,"Ġage":970,"Ġop":971,"Ġmechan":972,"dep":973,"ior":974,"Ġmat":975,"Ġmul":976,"poc":977,"ined":978,"cy":979,"Ġmicro":980,"ĠHowever":981,"endent":982,"Ġcomple":983,"Ġwell":984,"cent":985,"ning":986,"Ġidentif":987,"dings":988,"ould":989,"air":990,"Ġsam":991,"âĢĿ":992,"Ġperformed":993,"tent":994,"Ġpost":995,"Ġcognitive":996,"Ġparticipants":997,"Ġgene":998,"ange":999,"Ġins":1000,"Ġanim":1001,"ired":1002,"Ġcol":1003,"Ġup":1004,"Ġregions":1005,"inal":1006,"action":1007,"les":1008,"ob":1009,"ize":1010,"ulated":1011,"par":1012,"Ġhig":1013,"ild":1014,"itive":1015,"Ġdifferences":1016,"ters":1017,"Ġconf":1018,"cc":1019,"Ġsur":1020,"Ġprovid":1021,"Ġli":1022,"ced":1023,"Ġsynap":1024,"esti":1025,"ateral":1026,"Ġactivation":1027,"Ġsignal":1028,"Ġmin":1029,"ology":1030,"Ġrespons":1031,"05":1032,"ough":1033,"Ġfunctional":1034,"ix":1035,"ĠâĢľ":1036,"erg":1037,"Ġdecre":1038,"Ġhad":1039,"Ġfirst":1040,"Ġ7":1041,"Ġits":1042,"ented":1043,"ood":1044,"onstr":1045,"duction":1046,"Ġref":1047,"rough":1048,"Ġdisease":1049,"ward":1050,"ippoc":1051,"Ġfre":1052,"ippocamp":1053,"Ġtem":1054,"ered":1055,"reg":1056,"Fig":1057,"Ġinform":1058,"Ġvisual":1059,"ores":1060,"Ġ-":1061,"ĠFor":1062,"pos":1063,"Ġassess":1064,"oun":1065,"vo":1066,"Ġpresent":1067,"Ġhum":1068,"Ġbi":1069,"Ġmean":1070,"tively":1071,"vers":1072,"Ġrecept":1073,"Ġwhere":1074,"ĠThese":1075,"Ġma":1076,"hem":1077,"Ġmechanis":1078,"ici":1079,"Ġmon":1080,"ible":1081,"Ġcompar":1082,"ĠAD":1083,"atic":1084,"10":1085,"Ġgroups":1086,"Ġinvol":1087,"Ġelec":1088,"arget":1089,"Ġclinical":1090,"ature":1091,"Ġaut":1092,"Ġbas":1093,"rect":1094,"ogen":1095,"Ġpat":1096,"urrent":1097,"Ġsuggest":1098,"Ġmotor":1099,"gl":1100,"Ġaddition":1101,"Ġmain":1102,"Ġmemory":1103,"Ġpredic":1104,"âĪ":1105,"Ġthrough":1106,"dependent":1107,"Ġmulti":1108,"Ġacross":1109,"Ġhigher":1110,"ereb":1111,"Ġvol":1112,"Ġhippocamp":1113,"estig":1114,"ĠAn":1115,"usion":1116,"ving":1117,"Ġem":1118,"Ġthree":1119,"ental":1120,"atis":1121,"Ġreported":1122,"Ġstruct":1123,"Ġcal":1124,"Ġmost":1125,"ĠSt":1126,"li":1127,"Ġmethod":1128,"agn":1129,"Ġsimilar":1130,"ucle":1131,"Ġinvestig":1132,"ines":1133,"acter":1134,"tained":1135,"Ġsame":1136,"arch":1137,"ities":1138,"In":1139,"ured":1140,"osis":1141,"over":1142,"Ġrole":1143,"Ġtarget":1144,"Ġ9":1145,"Ġes":1146,"ĠĊĠĠĊ":1147,"trac":1148,"Ġdete":1149,"itud":1150,"Ġspecific":1151,"Ġkn":1152,"Ġform":1153,"alth":1154,"Ġexpl":1155,"Ġneural":1156,"plic":1157,"Ġdemonstr":1158,"Ġpattern":1159,"ry":1160,"Ġdesc":1161,"ution":1162,"Ġlong":1163,"Ġleft":1164,"Ġear":1165,"Ġdisc":1166,"Ġstimulation":1167,"Ġ8":1168,"Ġdid":1169,"Ġaffec":1170,"Ġincluding":1171,"Ġthey":1172,"Ġresponses":1173,"rap":1174,"Ġser":1175,"Ġright":1176,"ited":1177,"Ġocc":1178,"Cs":1179,"ural":1180,"els":1181,"Ġsym":1182,"sc":1183,"Ġincrease":1184,"Ġcontr":1185,"raph":1186,"Ġimport":1187,"Ġdevelopment":1188,"Ġchar":1189,"Ġexc":1190,"Ġlear":1191,"Ġrepresent":1192,"Ġdo":1193,"Ġpotential":1194,"ically":1195,"Ġneuronal":1196,"Ġwhile":1197,"mon":1198,"Ġdeter":1199,"Ġinformation":1200,"PS":1201,"Ġprim":1202,"Ġprob":1203,"Ġdisord":1204,"CA":1205,"lamm":1206,"Ġcy":1207,"ause":1208,"Ġcondition":1209,"ptom":1210,"Ġcortical":1211,"EG":1212,"Ġrem":1213,"oph":1214,"Ġcereb":1215,"quency":1216,"Î²":1217,"Ġimmun":1218,"âĪĴ":1219,"Ġset":1220,"ption":1221,"Ġposs":1222,"sych":1223,"ex":1224,"Ġrespec":1225,"SD":1226,"ort":1227,"tens":1228,"ears":1229,"Ġax":1230,"Ġfindings":1231,"isk":1232,"Ġevid":1233,"Ġuse":1234,"Ġperformance":1235,"Ġthen":1236,"ind":1237,"ĠFig":1238,"Ġnormal":1239,"ination":1240,"Ġfollowing":1241,"Ġrese":1242,"ĠAl":1243,"ins":1244,"Ġend":1245,"iel":1246,"gr":1247,"Ġtrain":1248,"Ġcalc":1249,"Ġi":1250,"Ġmedi":1251,"Ġep":1252,"Ġsubjects":1253,"Ġcurrent":1254,"Ġfurther":1255,"ness":1256,"ked":1257,"Ġcharacter":1258,"Ġol":1259,"way":1260,"ouse":1261,"ditions":1262,"Ġwho":1263,"ressed":1264,"ĠAs":1265,"ĠTo":1266,"Ġline":1267,"Ġmodels":1268,"Ġconsis":1269,"ÃĹ":1270,"ording":1271,"ingle":1272,"ĠÂ±":1273,"Ġhuman":1274,"poral":1275,"Ġconditions":1276,"Ġtes":1277,"Ġmus":1278,"Ġbased":1279,"ield":1280,"Ġlim":1281,"Ġatten":1282,"cted":1283,"irc":1284,"ute":1285,"Ġver":1286,"RNA":1287,"Ġthose":1288,"Ġvi":1289,"ody":1290,"Ġrele":1291,"itory":1292,"ves":1293,"tit":1294,"Ġwhether":1295,"Ġsome":1296,"rontal":1297,"vement":1298,"Ġgre":1299,"Ġdescrib":1300,"our":1301,"xim":1302,"related":1303,"Ġrats":1304,"20":1305,"Ġreve":1306,"Ġclass":1307,"Ġsever":1308,"Ġtrials":1309,"king":1310,"AP":1311,"Ġapp":1312,"arge":1313,"ypes":1314,"Ġimpro":1315,"Ġconsid":1316,"Ġreduced":1317,"FC":1318,"Ġregion":1319,"view":1320,"tered":1321,"valu":1322,"Ġvalues":1323,"led":1324,"ĠCon":1325,"amic":1326,"Ġmut":1327,"Ġaver":1328,"Ġsingle":1329,"set":1330,"ults":1331,"Ġhealth":1332,"Ġelectro":1333,"Ġrequ":1334,"Ġsymptom":1335,"Ġprocessing":1336,"Ġsm":1337,"entral":1338,"Ġconnectivity":1339,"'s":1340,"spec":1341,"Ġlearning":1342,"ived":1343,"Ġpoin":1344,"Ġanimals":1345,"ysi":1346,"MS":1347,"Ġimportant":1348,"ane":1349,"ently":1350,"Ġany":1351,"hip":1352,"cri":1353,"Ġevidence":1354,"ice":1355,"ĠPD":1356,"Ġwork":1357,"ĠThere":1358,"cle":1359,"Ġcontrols":1360,"Ġcontribu":1361,"Ġpop":1362,"yr":1363,"001":1364,"&#":1365,"ffici":1366,"Ġnucle":1367,"Ġreveal":1368,"Ġdel":1369,"Ġbec":1370,"Ġtotal":1371,"istic":1372,"ful":1373,"Ġperi":1374,"Ġmed":1375,"Ġcirc":1376,"Ġstimuli":1377,"terior":1378,"though":1379,"Ġsmall":1380,"Ġfrequency":1381,"Ġev":1382,"Ġsugges":1383,"Ġevalu":1384,"Ġ20":1385,"12":1386,"Ġwould":1387,"Ġdr":1388,"Ġvs":1389,"Ġgenes":1390,"Ġampl":1391,"Ġdistribu":1392,"ocial":1393,"AB":1394,"tional":1395,"Ġtra":1396,"Ġvolum":1397,"Ġmultiple":1398,"ately":1399,"Ġresearch":1400,"Ġcri":1401,"ef":1402,"Ġdifference":1403,"olution":1404,"ta":1405,"ateg":1406,"Ġrelated":1407,"ither":1408,"Ġter":1409,"Ġlower":1410,"Ġstress":1411,"Â°":1412,"Ġselec":1413,"vely":1414,"Ġdue":1415,"Ġrate":1416,"Ġlead":1417,"Ġanaly":1418,"Ġanalyses":1419,"Ġsecond":1420,"Ġstatis":1421,"Ġmouse":1422,"Ġstimulus":1423,"Ġsynaptic":1424,"Ġmicrogl":1425,"oss":1426,"Ġrisk":1427,"Ġmeasure":1428,"Ġneg":1429,"Ġpe":1430,"ĠÎ¼":1431,"Ġrelations":1432,"fer":1433,"Ġtiss":1434,"Ġremain":1435,"Ġspati":1436,"ek":1437,"50":1438,"rection":1439,"ĠJ":1440,"Ġearly":1441,"put":1442,"ĠSc":1443,"han":1444,"Ġbehavioral":1445,"com":1446,"Ġcomplex":1447,"FP":1448,"eline":1449,"oid":1450,"Ġtemporal":1451,"resp":1452,"leep":1453,"zed":1454,"andard":1455,"con":1456,"line":1457,"Ġmechanisms":1458,"Ġmark":1459,"CI":1460,"eration":1461,"Ġidentified":1462,"Ġcar":1463,"ject":1464,"ulate":1465,"OV":1466,"ish":1467,"iven":1468,"iet":1469,"PA":1470,"Ġbefore":1471,"ication":1472,"Ġcomparis":1473,"000":1474,"SA":1475,"ational":1476,"Ġfactors":1477,"Ġrespectively":1478,"Ġj":1479,"Ġrelationship":1480,"ages":1481,"Ġareas":1482,"Ġner":1483,"gth":1484,"Ġarea":1485,"Ġperiod":1486,"Ġimaging":1487,"Ġdys":1488,"Ġste":1489,"uce":1490,"EM":1491,"Ġreceptor":1492,"Ġsampl":1493,"BS":1494,"CS":1495,"Ġdescribed":1496,"Ġwill":1497,"Ġblock":1498,"Ġtherap":1499,"ĠIt":1500,"Ġincluded":1501,"Ġestim":1502,"Ġmight":1503,"stan":1504,"Ġplas":1505,"ales":1506,"resh":1507,"itude":1508,"ĠEx":1509,"Ġcompon":1510,"Ġclus":1511,"Ġinjec":1512,"Ġlocal":1513,"ĠRes":1514,"Ġcomb":1515,"ĠCh":1516,"amine":1517,"Ġchild":1518,"err":1519,"round":1520,"Ġtraining":1521,"Ġstrong":1522,"Ġparame":1523,"Ġ12":1524,"ade":1525,"ĠĠĠ":1526,"Ġsize":1527,"Ġwithout":1528,"induced":1529,"ĠCA":1530,"Ġexperiments":1531,"Ġabs":1532,"ust":1533,"ma":1534,"Ġpain":1535,"ergic":1536,"Ġhem":1537,"och":1538,"Ġconduc":1539,"rest":1540,"medi":1541,"Ġdiagn":1542,"Ġchann":1543,"jur":1544,"Ġpreviously":1545,"Ġpresented":1546,"Ġcap":1547,"Ġchange":1548,"Ġdirect":1549,"ĠâĢĵ":1550,"Ġcorrelation":1551,"Ġcontrast":1552,"Ġimages":1553,"ograph":1554,"ĠFurther":1555,"man":1556,"Ġgra":1557,"Ġstate":1558,"acy":1559,"Ġinflu":1560,"Ġsleep":1561,"orph":1562,"ound":1563,"istr":1564,"Ġcaus":1565,"Ġsample":1566,"ĠIm":1567,"osph":1568,"Ġlab":1569,"ified":1570,"atures":1571,"elf":1572,"tre":1573,"RP":1574,"Ġstandard":1575,"Ġinvolved":1576,"Ġpsych":1577,"Ġpositive":1578,"Ġdom":1579,"Ġeither":1580,"based":1581,"Ġhypot":1582,"Ġoccur":1583,"Ġexpos":1584,"asc":1585,"Ġsocial":1586,"Ġquan":1587,"gan":1588,"Ġphase":1589,"ĠAll":1590,"MRI":1591,"Ġz":1592,"ĠNe":1593,"Ġrevealed":1594,"ect":1595,"ium":1596,"Ġloss":1597,"Ġflu":1598,"inf":1599,"AT":1600,"ger":1601,"Ġrepe":1602,"Ġsymptoms":1603,"Ġantib":1604,"plement":1605,"mit":1606,"Ġnew":1607,"Ġmeasured":1608,"atal":1609,"Ġfac":1610,"Ġif":1611,"Ġphen":1612,"Ġdecreased":1613,"ties":1614,"Ġindividuals":1615,"Ġobtained":1616,"Ġimpair":1617,"Ġastro":1618,"11":1619,"Ġinteraction":1620,"Ġhow":1621,"taining":1622,"reshold":1623,"Ġpossible":1624,"aired":1625,"Ġ30":1626,"au":1627,"Ġallow":1628,"Ġmemb":1629,"Ġexcit":1630,"Ġbar":1631,"tially":1632,"ian":1633,"Ġparticular":1634,"Ġmap":1635,"ower":1636,"jury":1637,"centr":1638,"Ġlarg":1639,"Ġspatial":1640,"Ġfr":1641,"Ġstro":1642,"Ġprog":1643,"Ġseveral":1644,"NS":1645,"ital":1646,"ished":1647,"Ġbet":1648,"DA":1649,"Ġreview":1650,"ily":1651,"uit":1652,"Ġhypothes":1653,"Ġlarge":1654,"NF":1655,"ull":1656,"Ġcommon":1657,"Ġvalue":1658,"Ġaverage":1659,"ected":1660,"ie":1661,"Ġprocesses":1662,"Ġdisorders":1663,"ynamic":1664,"Ġless":1665,"Ġneed":1666,"iron":1667,"Ġdist":1668,"erence":1669,"Ġconcentr":1670,"ĠĊĊĊ":1671,"Ġfem":1672,"Ġaccur":1673,"ysiological":1674,"ĠâĪĴ":1675,"tra":1676,"CC":1677,"Ġfib":1678,"Ġtype":1679,"Ġrece":1680,"Ġlik":1681,"Ġmeasures":1682,"Ġfactor":1683,"Ġhippocampus":1684,"Ġsite":1685,"ĠCS":1686,"Ġemo":1687,"Ġdemonstrated":1688,"Ġspe":1689,"Ġprimary":1690,"ience":1691,"Ġpatient":1692,"Ġscores":1693,"lammatory":1694,"ov":1695,"vail":1696,"sequ":1697,"of":1698,"Ġconsistent":1699,"Ġstroke":1700,"Ġles":1701,"vant":1702,"Ġhealthy":1703,"Ġfield":1704,"Ġproteins":1705,"CR":1706,"Ġabout":1707,"Ġpref":1708,"rial":1709,"Ġvers":1710,"Ġfeatures":1711,"Ġbaseline":1712,"Ġtissue":1713,"Ġmolec":1714,"key":1715,"Ġexpressed":1716,"Ġfour":1717,"ĠCa":1718,"Ġfoc":1719,"uss":1720,"Ġcle":1721,"Ġshould":1722,"Ġsess":1723,"Ġacqu":1724,"Ġsignaling":1725,"We":1726,"Ġdetermin":1727,"Ġdesign":1728,"Ġastrocy":1729,"lex":1730,"Ġrecord":1731,"Ġms":1732,"ling":1733,"Ġcorresp":1734,"ification":1735,"Ġnegative":1736,"Ġyears":1737,"Ġdrug":1738,"ove":1739,"####":1740,"ĠAN":1741,"Ġdays":1742,"Ġred":1743,"lying":1744,"Ġapproach":1745,"Ġvolume":1746,"til":1747,"las":1748,"aneous":1749,"Ġindicate":1750,"Ġonset":1751,"ision":1752,"ency":1753,"Ġpart":1754,"atively":1755,"Ġinjury":1756,"pre":1757,"Ġindependent":1758,"ĠMore":1759,"AD":1760,"Ġsensory":1761,"andom":1762,"Ġorder":1763,"jor":1764,"Ġvia":1765,"ded":1766,"tero":1767,"Ġlay":1768,"art":1769,"Ġanalyzed":1770,"ĠThus":1771,"hy":1772,"Ġrelative":1773,"Ġgeneral":1774,"ĠIL":1775,"Ġsepar":1776,"ator":1777,"ick":1778,"ule":1779,"ism":1780,"Ġpopulation":1781,"Ġday":1782,"ynap":1783,"Ġexperimental":1784,"Ġprovide":1785,"cer":1786,"plied":1787,"ner":1788,"RS":1789,"Ġblood":1790,"vere":1791,"ABA":1792,"Ġbin":1793,"abol":1794,"Ġsamples":1795,"Ġthreshold":1796,"CT":1797,"Ġhand":1798,"ĠEEG":1799,"ĠCom":1800,"25":1801,"Ġhippocampal":1802,"ellular":1803,"Ġexample":1804,"ĠÎ±":1805,"see":1806,"Ġele":1807,"Ġrange":1808,"Ġmicroglia":1809,"Ġpower":1810,"Ġpatterns":1811,"Ġbecause":1812,"rior":1813,"Ġreceptors":1814,"other":1815,"Ġreflec":1816,"Ġlate":1817,"row":1818,"Ġerr":1819,"more":1820,"15":1821,"Ġmajor":1822,"Ġinhibition":1823,"ĠAP":1824,"amin":1825,"ĠÃĹ":1826,"Ġspi":1827,"co":1828,"Ġintegr":1829,"me":1830,"Ġmembran":1831,"Ġneuron":1832,"yg":1833,"ways":1834,"ality":1835,"Ġaud":1836,"Ġtrial":1837,"MP":1838,"av":1839,"ulations":1840,"13":1841,"Ġscore":1842,"OVA":1843,"itor":1844,"Ġ*":1845,"Ġrandom":1846,"Ġfl":1847,"utam":1848,"Ġgenetic":1849,"ĠRe":1850,"Ġmatter":1851,"Ġresult":1852,"Ġknown":1853,"Ġabove":1854,"Ġnetworks":1855,"ĠAd":1856,"toc":1857,"ĠZ":1858,"Ġcult":1859,"Ġamong":1860,"like":1861,"Ġsignals":1862,"ĠFigure":1863,"olar":1864,"Ġparameters":1865,"Ġlight":1866,"Ġlikely":1867,"ĠQ":1868,"ĠOur":1869,"14":1870,"Ġattention":1871,"irm":1872,"asing":1873,"Ġconducted":1874,"specific":1875,"yel":1876,"Ġmid":1877,"Ġdistribution":1878,"TP":1879,"oding":1880,"alys":1881,"Ġel":1882,"Ġgreater":1883,"rim":1884,"ocy":1885,"Ġavail":1886,"ire":1887,"term":1888,"Ġ15":1889,"Ġpresence":1890,"Ġtranscri":1891,"ilateral":1892,"Ġintens":1893,"Ġ24":1894,"Ġstri":1895,"Ġchildren":1896,"Ġequ":1897,"Ġdispl":1898,"log":1899,"ored":1900,"Ġhyper":1901,"ince":1902,"II":1903,"ilep":1904,"ynaptic":1905,"ĠMRI":1906,"Ġbel":1907,"Ġhead":1908,"Ġlin":1909,"viron":1910,"Ġamplitude":1911,"Ġanimal":1912,"ses":1913,"Ġ100":1914,"Ġsuper":1915,"Ġcentral":1916,"otype":1917,"Ġcases":1918,"Figure":1919,"Ġ50":1920,"Ġconsidered":1921,"Ġtech":1922,"reen":1923,"19":1924,"Ġcontex":1925,"Ġinduced":1926,"Ġreward":1927,"ĠGABA":1928,"Ġauth":1929,"Ġenc":1930,"Ġhist":1931,"Ġweek":1932,"AS":1933,"Ġmany":1934,"ission":1935,"Ġdefic":1936,"Ġproper":1937,"uts":1938,"iv":1939,"cor":1940,"Ġcalculated":1941,"Ġox":1942,"Ġgiven":1943,"Ġassociation":1944,"ĠRO":1945,"que":1946,"aren":1947,"Ġadmin":1948,"Ġphosph":1949,"roup":1950,"Ġdynamic":1951,"Ġfunctions":1952,"Ġtasks":1953,"Ġmethods":1954,"ably":1955,"Ġdat":1956,"endri":1957,"Ġcoun":1958,"Ġalter":1959,"here":1960,"ĠY":1961,"roph":1962,"Ġconfirm":1963,"Ġrati":1964,"cence":1965,"Ġpathway":1966,"Ġbody":1967,"Ġeven":1968,"ĠMS":1969,"onding":1970,"Ġfrontal":1971,"ronic":1972,"inc":1973,"Ġfollowed":1974,"ether":1975,"Ġrecorded":1976,"Ġprior":1977,"Ġsuggesting":1978,"Ġindicated":1979,"Ġexhib":1980,"normal":1981,"posed":1982,"Ġdeg":1983,"Ġdop":1984,"Ġtypes":1985,"face":1986,"ount":1987,"aging":1988,"des":1989,"Ġdomain":1990,"isp":1991,"ĠNo":1992,"Ġdens":1993,"30":1994,"actions":1995,"Ġthus":1996,"Ġinterest":1997,"Ġapplied":1998,"Ġmetabol":1999,"Ġdet":2000,"Ġpeak":2001,"Ġtested":2002,"the":2003,"esis":2004,"Î±":2005,"Ġmit":2006,"fficient":2007,"tis":2008,"Ġlo":2009,"ables":2010,"ixed":2011,"ĠPro":2012,"Ġself":2013,"Ġwhereas":2014,"Ġorgan":2015,"uff":2016,"ax":2017,"ĠAÎ²":2018,"Ġcerebell":2019,"ping":2020,"function":2021,"Ġduration":2022,"ths":2023,"Ġcross":2024,"Ġexperiment":2025,"Ġsex":2026,"ĠData":2027,"Ġfam":2028,"Ġadult":2029,"we":2030,"Ġproced":2031,"ĠFurthermore":2032,"itivity":2033,"Ġextrac":2034,"Ġdown":2035,"Ġassessed":2036,"istration":2037,"To":2038,"Ġdepression":2039,"come":2040,"pression":2041,"Ġcase":2042,"ife":2043,"Ġtimes":2044,"ressing":2045,"erc":2046,"Ġenviron":2047,"uture":2048,"vation":2049,"Ġmovement":2050,"Ġshows":2051,"odies":2052,"Ġidentify":2053,"Ġseiz":2054,"nal":2055,"Ġpers":2056,"Ġmechanism":2057,"ware":2058,"Ġfil":2059,"ĠCD":2060,"Ġfocus":2061,"Ġseg":2062,"Ġdefined":2063,"Ġtests":2064,"Ġtop":2065,"Ġprof":2066,"ually":2067,"ics":2068,"LS":2069,"Ġagain":2070,"Ġneurop":2071,"rected":2072,"Ġstain":2073,"aking":2074,"Ġdendri":2075,"18":2076,"ilit":2077,"Ġsum":2078,"Ġdors":2079,"Ġinput":2080,"Ġmembrane":2081,"Ġed":2082,"tically":2083,"Ġsequ":2084,"Ġhowever":2085,"Ġauditory":2086,"Ġreduction":2087,"Ġnovel":2088,"ĠTherefore":2089,"Ġprec":2090,"ayed":2091,"Ġcharacteristic":2092,"Ġmorph":2093,"arm":2094,"Ġaccording":2095,"ĠHz":2096,"Ġwhite":2097,"Ġrecent":2098,"type":2099,"ĠOn":2100,"Ġaction":2101,"Ġepilep":2102,"back":2103,"17":2104,"Ġleast":2105,"Ġsuc":2106,"Ġpoint":2107,"Ġneurode":2108,"Ġcontext":2109,"Ġexamined":2110,"ris":2111,"erative":2112,"plementary":2113,"ĠMoreover":2114,"ĠWh":2115,"ST":2116,"Ġexposure":2117,"Ġcorrelated":2118,"ticity":2119,"Ġey":2120,"Ġimage":2121,"Ġdecrease":2122,"Ġbeing":2123,"Ġshowing":2124,"Ġmm":2125,"lished":2126,"ochond":2127,"Ġremo":2128,"ĠANOVA":2129,"16":2130,"tics":2131,"oin":2132,"ection":2133,"Ġavailable":2134,"Ġadap":2135,"Ġdam":2136,"ressive":2137,"lection":2138,"Ġdistin":2139,"Ġauthors":2140,"Ġability":2141,"Ġill":2142,"Ġlateral":2143,"Î¼":2144,"Ġfeed":2145,"Ġchronic":2146,"BI":2147,"Ġnec":2148,"Ġstep":2149,"Ġcluster":2150,"uring":2151,"ĠAfter":2152,"Ġgyr":2153,"atom":2154,"Ġanx":2155,"Ġsupport":2156,"ascular":2157,"truc":2158,"Ġdirection":2159,"onic":2160,"40":2161,"</":2162,"Ġenhan":2163,"ength":2164,"test":2165,"verse":2166,"%)":2167,"ocal":2168,"Ġcerebral":2169,"Ġ],":2170,"inally":2171,"Ġadj":2172,"Ġinvestigated":2173,"ĠSN":2174,"iety":2175,"aged":2176,"Ġdetected":2177,"OR":2178,"ET":2179,"Ġclear":2180,"Ġpub":2181,"alysis":2182,"Ġwhole":2183,"lation":2184,"Ġques":2185,"Ġpoly":2186,"Ġperce":2187,"Ġcontin":2188,"Ġgyrus":2189,"Ġslic":2190,"rop":2191,"Ġspinal":2192,"Ġcomparison":2193,"tocol":2194,"Ġstructure":2195,"ticip":2196,"bl":2197,"ibility":2198,"Ġstatistical":2199,"Ġpathways":2200,"mine":2201,"100":2202,"overy":2203,"ĠRNA":2204,"Ġrelease":2205,"Ġacid":2206,"eu":2207,"Ġdisorder":2208,"Ġdri":2209,"Ġquantif":2210,"estab":2211,"Ġ&":2212,"Ġsl":2213,"tation":2214,"Ġmaxim":2215,"ode":2216,"cop":2217,"trans":2218,"Ġpair":2219,"Ġrequired":2220,"oles":2221,"Ġincreases":2222,"Ns":2223,"Cl":2224,"Ġadults":2225,"Ġimpairment":2226,"Ġpromo":2227,"Ġfiring":2228,"Ġsuggests":2229,"ĠSD":2230,"ze":2231,"Ġdetermined":2232,"ĠWT":2233,"Ġregul":2234,"Ġread":2235,"Ġunderlying":2236,"Ġeff":2237,"itro":2238,"Ġprovided":2239,"ram":2240,"Ġnerve":2241,"Ġsom":2242,"PFC":2243,"ifically":2244,"Ġdetail":2245,"Ġ+":2246,"Ġstrateg":2247,"ier":2248,"ĠUni":2249,"Ġabnormal":2250,"Ġglutam":2251,"Ġenvironment":2252,"Ġratio":2253,"Ġsee":2254,"âĢĶ":2255,"sp":2256,"Ġdetermine":2257,"TA":2258,"Ġorig":2259,"ĠMet":2260,"Ġaccuracy":2261,"Ġsubject":2262,"fact":2263,"Ġmitochond":2264,"Ġgrow":2265,"Ġsti":2266,"Ġintensity":2267,"clusion":2268,"Ġactive":2269,"Ġabsence":2270,"Ġback":2271,"ĠASD":2272,"ĠmRNA":2273,"lammation":2274,"Ġsuppor":2275,"io":2276,"CD":2277,"Ġacute":2278,"Ġprotocol":2279,"Ġtreated":2280,"Ġcriter":2281,"Ġdensity":2282,"Ġbetter":2283,"Ġpan":2284,"Ġlabel":2285,"âĢ¯":2286,"Ġsal":2287,"ĠResults":2288,"Ġneurolog":2289,"Ġtherefore":2290,"Ġvox":2291,"Ġprojec":2292,"mission":2293,"Ġposition":2294,"ĠAlthough":2295,"Ġastrocytes":2296,"Ġlarger":2297,"Ġ>":2298,"ĠfMRI":2299,"Ġword":2300,"vements":2301,"Ġstructural":2302,"chem":2303,"aced":2304,"ĠX":2305,"Ġvalid":2306,"activ":2307,"ĠDis":2308,"met":2309,"Ġchannels":2310,"ĠAt":2311,"Ġsus":2312,"very":2313,"Ġexplain":2314,"Ġvivo":2315,"ftware":2316,"ipher":2317,"Ġben":2318,"sub":2319,"ĠNM":2320,"Ġnucleus":2321,"Ġanterior":2322,"brain":2323,"Ġband":2324,"ules":2325,"Ġhighly":2326,"Ch":2327,"Ġdeficits":2328,"less":2329,"Ġproperties":2330,"iting":2331,"Ġimplic":2332,"Ġ25":2333,"Ġinde":2334,"Ġsour":2335,"ĠCI":2336,"Ġinjection":2337,"Ġoff":2338,"Ġcur":2339,"Ġvery":2340,"Ġdoes":2341,"hyl":2342,"ĠĠĊ":2343,"Ġplay":2344,"Ġmuscle":2345,"Ġmicros":2346,"Ġadditional":2347,"izing":2348,"ty":2349,"Ġoutcome":2350,"Ġinfluence":2351,"Ġmale":2352,"Ġmade":2353,"Ġanxiety":2354,"22":2355,"Ġtau":2356,"Ġgu":2357,"rup":2358,"Ġcollec":2359,"Ġsections":2360,"ton":2361,"ots":2362,"voked":2363,"Ġsubsequ":2364,"Ġcoh":2365,"Ġevents":2366,"Ġagg":2367,"Ġview":2368,"Ġincreasing":2369,"Ġretin":2370,"ĠHere":2371,"Ġkey":2372,"Ġcorresponding":2373,"Ġaffected":2374,"osp":2375,"upplementary":2376,"Ġcomponents":2377,"uted":2378,"Ġshort":2379,"Ġbinding":2380,"Ġintr":2381,"Ġcho":2382,"Ġinhibitory":2383,"enter":2384,"aset":2385,"Ġvarious":2386,"Ġdysfunction":2387,"Ġlinear":2388,"Ġincub":2389,"ĠInte":2390,"str":2391,"Ġimpact":2392,"Ġsch":2393,"Ġlack":2394,"standing":2395,"acts":2396,"Ġhemisp":2397,"atric":2398,"imens":2399,"Ġplace":2400,"wise":2401,"Ġdifferenti":2402,"resting":2403,"Ġadd":2404,"Ġthem":2405,"scill":2406,"lap":2407,"Ġintrac":2408,"Ġpoints":2409,"Ġinterven":2410,"dal":2411,"Ġapplic":2412,"Ġdistinct":2413,"aken":2414,"80":2415,"Ġhypothesis":2416,"Ġgo":2417,"Ġ14":2418,"Ġder":2419,"vent":2420,"Ġmolecular":2421,"200":2422,"RT":2423,"Ġbrains":2424,"ories":2425,"ĠST":2426,"ene":2427,"ious":2428,"Ġsensitivity":2429,"Ġsuggested":2430,"Ġaffect":2431,"Ġtesting":2432,"Ġslow":2433,"Ġpredict":2434,"comes":2435,");":2436,"Ġpur":2437,"ygdal":2438,"alam":2439,"Ġplasticity":2440,"enti":2441,"Ġsurface":2442,"versity":2443,"Ġerror":2444,"EP":2445,"Ġwid":2446,"Ġinteractions":2447,"urn":2448,"Ġestab":2449,"ordings":2450,"Ġoscill":2451,"Ġlayer":2452,"angu":2453,"Ġhel":2454,"orescence":2455,"ĠÎ²":2456,"Ġobjec":2457,"Ġstill":2458,"lys":2459,"Ġperipher":2460,"Ġindicating":2461,"Ġposterior":2462,"Ġgenerated":2463,"itial":2464,"neur":2465,"Ġhom":2466,"Ġregulation":2467,"Ġmi":2468,"mm":2469,"Ġtyp":2470,"GF":2471,"active":2472,"Ġalong":2473,"Ġdataset":2474,"cep":2475,"ĠPar":2476,"Ġcateg":2477,"Ġsk":2478,"Ġfuture":2479,"Ġneurodegen":2480,"osed":2481,"Ġdiffic":2482,"tric":2483,"ont":2484,"Ġvariables":2485,"uous":2486,"MA":2487,"Ġstren":2488,"Ġdiseases":2489,"Ġaccum":2490,"Ġcomponent":2491,"Ġthough":2492,"ĠDA":2493,"Ġlength":2494,"Ġlob":2495,"Ġinvestigate":2496,"treated":2497,"Ġresulting":2498,"go":2499,"inant":2500,"omet":2501,"Ġcritical":2502,"Ġoutcomes":2503,"Ġsumm":2504,"pha":2505,"ĠCl":2506,"Ġdamage":2507,"Ġrepeated":2508,"Ġ16":2509,"Ġvir":2510,"Ġsequence":2511,"Ġtoward":2512,"Ġalthough":2513,"Ġoften":2514,"ake":2515,"mic":2516,"ES":2517,"Ġsystems":2518,"Ġminim":2519,"ised":2520,"Ġdorsal":2521,"ential":2522,"Ġagainst":2523,"Ġamygdal":2524,"Ġformation":2525,"Ġdirectly":2526,"ĠSim":2527,"ched":2528,"ĠâĢĺ":2529,"Ġregression":2530,"Ġprol":2531,"Ġyoun":2532,"ĠMD":2533,"Ġcord":2534,"Ġartic":2535,"Ġtool":2536,"kg":2537,"dle":2538,"ued":2539,"Ġlife":2540,"Ġsevere":2541,"omen":2542,"atus":2543,"Ġcontaining":2544,"Ġsoftware":2545,"Ġaim":2546,"Ġrecordings":2547,"Ġinitial":2548,"group":2549,"Ġhetero":2550,"Ġsw":2551,"Ġdiagnosis":2552,"Ġrap":2553,"Ġcortic":2554,"Ġemotional":2555,"imer":2556,"Ġret":2557,"Ġantibody":2558,"Ġselected":2559,"SP":2560,"Ġfew":2561,"Rs":2562,"Ġconsider":2563,"Ġseen":2564,"Ġopen":2565,"not":2566,"ĠROI":2567,"43":2568,"anguage":2569,"ĠNeuro":2570,"pan":2571,"Ġcellular":2572,"Ġfemale":2573,"Ġexpected":2574,"Ġnecess":2575,"Ġoverall":2576,"Ġmonths":2577,"oy":2578,"Ġdetection":2579,"Ġphys":2580,"Ġconcentration":2581,"Ġcharacteristics":2582,"Ġactivated":2583,"Ġlaten":2584,"Ġcyt":2585,"ict":2586,"Ġcomparisons":2587,"Ġsession":2588,"Ġprefrontal":2589,"Ġbur":2590,"Ġdepend":2591,"ially":2592,"Ġoptim":2593,"Ġemb":2594,"Ġtechni":2595,"ĠScale":2596,"odes":2597,"Ġprop":2598,"Ġsequenc":2599,"ienc":2600,"ators":2601,"epti":2602,"duces":2603,"Ġparticipant":2604,"Th":2605,"Ġunderstanding":2606,"Ġcriteria":2607,"Ġglob":2608,"Ġproposed":2609,"Ġpercent":2610,"Ġang":2611,"Ġsynapses":2612,"Ġcontribute":2613,"ĠBD":2614,"by":2615,"Ġlesion":2616,"tag":2617,"Ġcarri":2618,"ances":2619,"cell":2620,"Ġside":2621,"Ġmagn":2622,"Ġamygdala":2623,"Ġtherapeu":2624,"ighted":2625,"Ġeye":2626,"Ġexclud":2627,"âī":2628,"Ġspace":2629,"ream":2630,"24":2631,"Ġnoise":2632,"Ġrecording":2633,"Ġinterpre":2634,"ques":2635,"ru":2636,"Ġlines":2637,"phal":2638,"Ġreli":2639,"opath":2640,"ler":2641,"chron":2642,"isition":2643,"Hz":2644,"Ġweeks":2645,"Ġcomplete":2646,"Ġiniti":2647,"NI":2648,"Ġfive":2649,"Ġreal":2650,"Ġaff":2651,"Ġevaluated":2652,"Ġlocation":2653,"ography":2654,"Ġrather":2655,"Ġindicates":2656,"lict":2657,"Ġtog":2658,"Ġlimit":2659,"utive":2660,"Ġrelevant":2661,"clus":2662,"Ġtogether":2663,"rid":2664,"Ġ95":2665,"ird":2666,"Ġsites":2667,"ify":2668,"Ġinflammatory":2669,"95":2670,"LD":2671,"Ġbenef":2672,"Ġepilepsy":2673,"aw":2674,"Ġneurological":2675,"Ġhere":2676,"Ġconnections":2677,"anner":2678,"HT":2679,"Ġstructures":2680,"Ġmyel":2681,"ights":2682,"Ġmotion":2683,"ophren":2684,"cles":2685,"izophren":2686,"puts":2687,"Ġparad":2688,"indow":2689,"Ġsignificance":2690,"atum":2691,"ĠUSA":2692,"Ġadministration":2693,"Ġsu":2694,"ĠHe":2695,"Ġisol":2696,"Ġsolution":2697,"Ġscale":2698,"Ġconst":2699,"Ġchannel":2700,"uffer":2701,"ists":2702,"Ġsuccess":2703,"for":2704,"ground":2705,"LA":2706,"Ġ18":2707,"Ġbehaviors":2708,"hods":2709,"Ġproble":2710,"ld":2711,"uble":2712,"60":2713,"Ġcollected":2714,"%,":2715,"Ġperipheral":2716,"Ġcre":2717,"HD":2718,"ĠDNA":2719,"Ġquestion":2720,"ĠTable":2721,"Ġtranscription":2722,"Ġknow":2723,"acc":2724,"Ġsurvi":2725,"Ġlanguage":2726,"ped":2727,"ĠÎ¼m":2728,"ĠĊĠ":2729,"ient":2730,"PD":2731,"Ġ40":2732,"Ġrates":2733,"Ġlimited":2734,"Ġ**":2735,"Ġantibodies":2736,"omic":2737,"Ġindex":2738,"Ġischem":2739,"Ġrun":2740,"agne":2741,"MT":2742,"ĠWhile":2743,"osom":2744,"Ġimpaired":2745,"21":2746,"iatric":2747,"ogenesis":2748,"SC":2749,"Ġstage":2750,"ĠAddition":2751,"Ġconc":2752,"ges":2753,"Ġach":2754,"Ġunderst":2755,"Ġdopamine":2756,"ĠPre":2757,"Ġdetect":2758,"read":2759,"bo":2760,"icle":2761,"Ġpotenti":2762,"gor":2763,"mediated":2764,"Ġcommun":2765,"ĠStud":2766,"Ġcorrelations":2767,"Ġfeedback":2768,"Ġanatom":2769,"void":2770,"Ġwater":2771,"ĠCSF":2772,"Ġstrength":2773,"Ġtherapy":2774,"rix":2775,"ĠRec":2776,"Ġcare":2777,"izophrenia":2778,"ussion":2779,"27":2780,"Ġlater":2781,"na":2782,"Ġrecovery":2783,"Ġachie":2784,"ĠNa":2785,"Ġphysiological":2786,"ĠOne":2787,"gene":2788,"Ġmovements":2789,"izes":2790,"03":2791,"Ġaltered":2792,"Ġvariability":2793,"Ġfit":2794,"Ġdemonstrate":2795,"tosis":2796,"mented":2797,"Ġu":2798,"Ġdeath":2799,"IP":2800,"Ġtermin":2801,"Ġcorrect":2802,"mb":2803,"Ġdiscrim":2804,"Ġconfirmed":2805,"Ġversus":2806,"ctive":2807,"inson":2808,"gorith":2809,"Ġmig":2810,"Ġ19":2811,"Ġmodulation":2812,"Ġdistance":2813,"ecutive":2814,"ety":2815,"Ġquality":2816,"trum":2817,"hol":2818,"ring":2819,"Ġact":2820,"Ġcharacterized":2821,"Ġ13":2822,"Ġexcitatory":2823,"Ġfacilit":2824,"Ġanother":2825,"sing":2826,"Ġinclude":2827,"MN":2828,"Ġparadig":2829,"ĠSp":2830,"itu":2831,"drom":2832,"Ġalterations":2833,"As":2834,"Ġbiom":2835,"Ġtherapeutic":2836,"ĠmM":2837,"Ġstaining":2838,"Ġscreen":2839,"tok":2840,"Ġcour":2841,"Ġdisrup":2842,"ĠMe":2843,"vated":2844,"perim":2845,"Ġphosphory":2846,"Ġca":2847,"Ġtemper":2848,"Ġimmune":2849,"pite":2850,"Ġassessment":2851,"ips":2852,"23":2853,"alamus":2854,"Ġsince":2855,"Ġod":2856,"ok":2857,"Ġoverlap":2858,"Ġpul":2859,"26":2860,"Ġdiss":2861,"Ġolder":2862,"Ġtrig":2863,"Âµ":2864,"Ġreceived":2865,"ĠWM":2866,"ticipants":2867,"activity":2868,"urb":2869,"Ġable":2870,"irst":2871,"Ġhumans":2872,"bal":2873,"Ġventral":2874,"Ps":2875,"ĠFinally":2876,"aches":2877,"Ġenhanced":2878,"Ġacquisition":2879,"Ġalgorith":2880,"Ġcaused":2881,"Ġdeveloped":2882,"Ġeffective":2883,"Ġsol":2884,"inflammatory":2885,"Ġsubstan":2886,"Ġfeature":2887,"Ġfear":2888,"abil":2889,"ional":2890,"idence":2891,"Ġglutamate":2892,"ĠSC":2893,"Ġweight":2894,"ID":2895,"arily":2896,"af":2897,"AG":2898,"Ġlesions":2899,"regulation":2900,"ognition":2901,"Ġintra":2902,"Ġspike":2903,"Ġwild":2904,"Ġmac":2905,"29":2906,"Ġrelatively":2907,"TR":2908,"Ġreport":2909,"Ġradi":2910,"Ġdynamics":2911,"raw":2912,"allen":2913,"Ġstates":2914,"Ġremains":2915,"Ġshif":2916,"Ġresting":2917,"Ġwindow":2918,"Ġbilateral":2919,"positive":2920,"Ġcohort":2921,"istent":2922,"Ġapproved":2923,"ĠIns":2924,"kn":2925,"Ġgrowth":2926,"Ġcause":2927,"Ġ60":2928,"ducing":2929,"Ġelectr":2930,"ĠCO":2931,"Ġrest":2932,"Ġmicroscop":2933,"rich":2934,"Ġrapid":2935,"Ġschizophrenia":2936,"ĠCNS":2937,"Ġ201":2938,"Ġprocedure":2939,"bit":2940,"oh":2941,"Ġfail":2942,"Ġmitochondrial":2943,"Ġliter":2944,"Ġbelow":2945,"Ġexperience":2946,"ociated":2947,"Ġpathology":2948,"regulated":2949,"ĠRT":2950,"Ġ:":2951,"ER":2952,"Ġmg":2953,"ontaneous":2954,"Ġdevi":2955,"rials":2956,"bor":2957,"Ġaxons":2958,"ledge":2959,"tein":2960,"Ġmedial":2961,"otypes":2962,"yloid":2963,"acti":2964,"agnetic":2965,"Ġcoord":2966,"Ġproduction":2967,"Ġparticularly":2968,"take":2969,"Ġcall":2970,"Ġmarkers":2971,"Ġent":2972,"sup":2973,"Ġseverity":2974,"Ġspeed":2975,"Ġcombined":2976,"ĠAc":2977,"ulating":2978,"den":2979,"oint":2980,"Ġcer":2981,"ĠCB":2982,"rit":2983,"arding":2984,"Ġmen":2985,"Ġobject":2986,"45":2987,"Ġclassification":2988,"Ġfree":2989,"Ġslices":2990,"Ġpropor":2991,"Ġrelationships":2992,"Ġpariet":2993,"Ġcircuit":2994,"Ġpress":2995,"Ġcoup":2996,"ĠMethods":2997,"Ġ11":2998,"ustr":2999,"atter":3000,"Ġglobal":3001,"ĠSP":3002,"Ġrob":3003,"Ġcont":3004,"Ġori":3005,"entia":3006,"Ġdifficult":3007,"Ġoper":3008,"idal":3009,"Ġflow":3010,"Ġevent":3011,"Ġinterneur":3012,"ibr":3013,"Ġfull":3014,"Ġinputs":3015,"Ġmiddle":3016,"ott":3017,"Ġrepresents":3018,"Ġterms":3019,"Ġfinding":3020,"bers":3021,"Ġdose":3022,"Ġcytok":3023,"time":3024,"Ġfemales":3025,"Ġextens":3026,"Ġchallen":3027,"ostic":3028,"Ġolig":3029,"AC":3030,"Ġsessions":3031,"Ġexten":3032,"onist":3033,"Ġalpha":3034,"Ġseem":3035,"Ġplaced":3036,"Ġdecision":3037,"ank":3038,"Ġassum":3039,"70":3040,"Ġaltern":3041,"Ġve":3042,"Ġcomm":3043,"Ġrod":3044,"Ġcalcium":3045,"Ġknock":3046,"Ġ200":3047,"ople":3048,"restingly":3049,"Ġapproxim":3050,"Ġmatrix":3051,"Ġhy":3052,"Ġvitro":3053,"encephal":3054,"ili":3055,"sh":3056,"ray":3057,"Ġtemperature":3058,"Ġbasal":3059,"SS":3060,"âĢ²":3061,"ĠIC":3062,"tific":3063,"bi":3064,"Ġaspec":3065,"ĠSimilar":3066,"Ġphysical":3067,"pecially":3068,"genic":3069,"Ġsubsequent":3070,"Ġinfer":3071,"Ġthick":3072,"Ġsecondary":3073,"ole":3074,"ceptual":3075,"aring":3076,"Ġreas":3077,"Ġgray":3078,"75":3079,"0001":3080,"Ġliterature":3081,"ĠLe":3082,"28":3083,"Ġtargets":3084,"Ġcoe":3085,"Ġvariable":3086,"Ġserum":3087,"Ġbiological":3088,"Ġtum":3089,"Ġbiomark":3090,"Ġavoid":3091,"dro":3092,"Ġcr":3093,"ĠER":3094,"Ġnormalized":3095,"ula":3096,"Ġpredicted":3097,"Ġprobability":3098,"Ġmental":3099,"PC":3100,"Ġprovides":3101,"Ġphot":3102,"Ġfood":3103,"ides":3104,"syn":3105,"Ġperception":3106,"ĠStatis":3107,"Ġitem":3108,"Ġelectrodes":3109,"Ġrespond":3110,"Ġinterval":3111,"Ġfinal":3112,"Ġspeech":3113,"Ġvariance":3114,"level":3115,"othe":3116,"vari":3117,"Ġpopulations":3118,"Ġdegree":3119,"Ġhome":3120,"Ġinflammation":3121,"ogenous":3122,"Ġestimated":3123,"zhe":3124,"Ġincubated":3125,"35":3126,"utis":3127,"ink":3128,"Ġwor":3129,"Ġdendritic":3130,"ĠEach":3131,"ogenic":3132,"Ġparietal":3133,"ĠUniversity":3134,"Ġspontaneous":3135,"Ġnerv":3136,"ulin":3137,"ape":3138,"Ġsection":3139,"Ġspecies":3140,"ĠUn":3141,"zheimer":3142,"ching":3143,"Ġgain":3144,"ochem":3145,"OD":3146,"istered":3147,"ploy":3148,"be":3149,"ĠCor":3150,"truct":3151,"Ġaround":3152,"hyth":3153,"ense":3154,"TD":3155,"Ġtransfer":3156,"ĠPBS":3157,"duce":3158,"Ġseries":3159,"Ġreduce":3160,"cript":3161,"ĠCR":3162,"Ġsound":3163,"Ġhemisphere":3164,"BP":3165,"Ġclusters":3166,"Ġleading":3167,"Ġmutations":3168,"Ġsource":3169,"Ġuni":3170,"Ġspecifically":3171,"odal":3172,"Ġhighl":3173,"Ġframe":3174,"Ġcorrection":3175,"isher":3176,"Ġsegment":3177,"econd":3178,"Ġx":3179,"Ġconcentrations":3180,"armac":3181,"ĠNMDA":3182,"Ġespecially":3183,"az":3184,"Ġknowledge":3185,"ending":3186,"heren":3187,"Ġmeans":3188,"GFP":3189,"Ġnervous":3190,"alamic":3191,"Ġelectrode":3192,"ones":3193,"Ġstriatum":3194,"Ġmales":3195,"Ġmaps":3196,"Ġacquired":3197,"IV":3198,"cohol":3199,"angl":3200,"Ġstatus":3201,"uration":3202,"ensory":3203,"Ġaggreg":3204,"Ġreflect":3205,"Ġstar":3206,"Ġutil":3207,"erate":3208,"troduction":3209,"Ġstudied":3210,"Ġcombination":3211,"Ġimprove":3212,"Ġga":3213,"xt":3214,"Ġsix":3215,"down":3216,"For":3217,"Ġdementia":3218,"ien":3219,"Ġevoked":3220,"gery":3221,"ĠSh":3222,"Ġgluc":3223,"MD":3224,"lo":3225,"physiological":3226,"Ġapplication":3227,"ĠWhen":3228,"Ġimproved":3229,"Ġpeople":3230,"Ġproduced":3231,"Ġarticle":3232,"ĠDisc":3233,"Ġappear":3234,"Ġevery":3235,"tage":3236,"ĠSub":3237,"Ġinfluenc":3238,"Ġrobust":3239,"lab":3240,"Ġrecognition":3241,"ĠAm":3242,"Ġlimb":3243,"Ġbars":3244,"tle":3245,"ĠBe":3246,"state":3247,"Ġphenotype":3248,"Ġlit":3249,"Ġantag":3250,"Ġsuperior":3251,"Ġmaximum":3252,"ĠEn":3253,"AV":3254,"Ġlocated":3255,"ml":3256,"Ġeng":3257,"Ġsynchron":3258,"stim":3259,"Ġmuch":3260,"Ġyoung":3261,"Ġlip":3262,"Ġinternal":3263,"ires":3264,"Ġadoles":3265,"Ġprom":3266,"anc":3267,"Ġvect":3268,"Ġcourse":3269,"OS":3270,"pe":3271,"ogene":3272,"Ġversion":3273,"aterials":3274,"ĠPh":3275,"Ġhelp":3276,"Ġposi":3277,"ocor":3278,"Ġseizures":3279,"Ġcontinuous":3280,"Ġmutant":3281,"Ġaccount":3282,"aces":3283,"ĠII":3284,"Ġlonger":3285,"Ġexperienc":3286,"Ġderived":3287,"hance":3288,"An":3289,"Ġcomput":3290,"Ġpyr":3291,"42":3292,"38":3293,"Ġload":3294,"Ġupon":3295,"Ġexamine":3296,"imin":3297,"FA":3298,"Ġpass":3299,"ĠSA":3300,"ĠDe":3301,"Ġplasma":3302,"Ġcerebellar":3303,"arc":3304,"ĠPT":3305,"Ġfamily":3306,"Ġstages":3307,"Ġexhibited":3308,"pared":3309,"65":3310,"oratory":3311,"ĠFA":3312,"Ġapproaches":3313,"Ġencoding":3314,"Ġsupp":3315,"thes":3316,"IC":3317,"Ġaxonal":3318,"ĠPark":3319,"Ġplot":3320,"Ġhal":3321,"Ġoxid":3322,"Ġthroughout":3323,"rief":3324,"Ġbias":3325,"Ġalle":3326,"rag":3327,"ands":3328,"ture":3329,"ĠSe":3330,"Ġassociations":3331,"Ġorient":3332,"Ġ/":3333,"etal":3334,"Ġvariants":3335,"Ġprediction":3336,"Ġneeded":3337,"Ġelevated":3338,"Ġaccess":3339,"imaging":3340,"Ġlinked":3341,"Ġworking":3342,"Ġsyndrom":3343,"Ġcerebellum":3344,"Ġprogression":3345,"Ġess":3346,"Ġmarker":3347,"ices":3348,"Ġelic":3349,"Ġmedium":3350,"Ġrecently":3351,"ĠWith":3352,"CL":3353,"Ġadv":3354,"xic":3355,"Ġdiscuss":3356,"right":3357,"Ġmicroglial":3358,"Ġseizure":3359,"pri":3360,"ĠExperim":3361,"ats":3362,"ĠAlzheimer":3363,"Ġresid":3364,"Ġreference":3365,"Ġenhance":3366,"Ġvoxel":3367,"Ġcycle":3368,"Ġdiffer":3369,"Ġinduce":3370,"Ġmainly":3371,"Ġdevelopmental":3372,"Ġaging":3373,"factory":3374,"Ġlink":3375,"tib":3376,"ĠInterestingly":3377,"ĠInde":3378,"amma":3379,"Ġresolution":3380,"57":3381,"Ġextent":3382,"ĠCP":3383,"ining":3384,"Ġgangl":3385,"associated":3386,"Ġquantit":3387,"Ġmeasurements":3388,"ĠPV":3389,"ĠALS":3390,"90":3391,"ĠFirst":3392,"Ġpoor":3393,"Ġdeep":3394,"ively":3395,"Ġbeta":3396,"ĠĊĠĠĊĊ":3397,"ĠCT":3398,"Ġexcluded":3399,"Ġstatistically":3400,"Ġkin":3401,"ĠInc":3402,"Ġturn":3403,"Ġfixed":3404,"ĠSpec":3405,"Ġleads":3406,"ographic":3407,"Ġnecessary":3408,"ĠAp":3409,"anning":3410,"ĠPA":3411,"Ġchoice":3412,"ED":3413,"hicle":3414,"oton":3415,"zym":3416,"Ġsmo":3417,"ĠCell":3418,"incip":3419,"hood":3420,"Ġblue":3421,"Ġface":3422,"Ġnear":3423,"aminergic":3424,"orb":3425,"Ġmanus":3426,"Ġpercentage":3427,"BM":3428,"Ġemerg":3429,"Ġwords":3430,"Ġalcohol":3431,")-":3432,"Ġfind":3433,"Ġbal":3434,"Ġbro":3435,"Ġlike":3436,"Ġcue":3437,"Ġpepti":3438,"Ġevaluate":3439,"Ġmagnetic":3440,"Ġamyloid":3441,"Ġobserv":3442,"Ġhistory":3443,"Ġresulted":3444,"ĠParticipants":3445,"ĠHC":3446,"Ġbest":3447,"Ġway":3448,"ĠĊĠĠĠĠ":3449,"HC":3450,"cortical":3451,"Ġâī":3452,"isten":3453,"Ġpathological":3454,"ĠTBI":3455,"wh":3456,"aving":3457,"Ġfluorescence":3458,"ising":3459,"Ġrequire":3460,"Ġdisplayed":3461,"ĠBrain":3462,"Ġparen":3463,"ologies":3464,"Ġenti":3465,"Ġdependent":3466,"Ġrhyth":3467,"Ġrepresentation":3468,"33":3469,"Ġmanuscript":3470,"Ġsubun":3471,"uan":3472,"Ġamount":3473,"ĠCo":3474,"Ġnuclei":3475,"Ġstrongly":3476,"uth":3477,"rie":3478,"Ġprolif":3479,"].":3480,"Ġinst":3481,"Ġcognition":3482,"activation":3483,"Ġcues":3484,"ĠNA":3485,"Ġemploy":3486,"Ġlog":3487,"ulus":3488,"known":3489,"Ġinner":3490,"estern":3491,"Ġneurodegenerative":3492,"Ġestablished":3493,"Ġ17":3494,"Ġintervention":3495,"Ġimpl":3496,"Ġinhibit":3497,"Ġsensor":3498,"NT":3499,"spective":3500,"Ġdecl":3501,"ÂłĠ":3502,"tract":3503,"Ġpanel":3504,"Ġarter":3505,"Ġbuffer":3506,"ergy":3507,"ĠAr":3508,"IS":3509,"Ġregard":3510,"uter":3511,"Ġimmedi":3512,"Ġselection":3513,"uits":3514,"Ġwave":3515,"Ġsmaller":3516,"Ġaxon":3517,"ĠMA":3518,"48":3519,"Ġtransform":3520,"Ġnext":3521,"Ġlast":3522,"ĠSupplementary":3523,"Ġcontain":3524,"antly":3525,"Ġextracellular":3526,"Ġreach":3527,"ĠAnim":3528,"ĠFC":3529,"Ġrevers":3530,"Ġdivid":3531,"Ġcorrespond":3532,"GC":3533,"ottom":3534,"Ġautis":3535,"Ġdifferentiation":3536,"Ġbackground":3537,"Ġoxy":3538,"Ġcomputed":3539,"Ġanest":3540,"ysiology":3541,"Ġexerc":3542,"Ġmediated":3543,"ĠIntroduction":3544,"alle":3545,"Ġsham":3546,"Ġreplic":3547,"Ġautom":3548,"igned":3549,"Ġdelay":3550,"ĠAdditionally":3551,"ĠAnalysis":3552,"Ġtransmission":3553,"Ġactivities":3554,"otyp":3555,"mg":3556,"Ġgly":3557,"Ġoutput":3558,"amidal":3559,"Ġinterneurons":3560,"Ġnumbers":3561,"kin":3562,"Ġillustr":3563,"Ġlatency":3564,"Ġothers":3565,"ospital":3566,"Ġful":3567,"Ġrestric":3568,"Ġlys":3569,"Ġsurvival":3570,"ĠKO":3571,"resent":3572,"ranial":3573,"Ġtrack":3574,"Ġmanip":3575,"Ġlobe":3576,"Ġsaline":3577,"Ġdegen":3578,"uls":3579,"kes":3580,"Ġfrequ":3581,"ii":3582,"Ġparadigm":3583,"ĠThey":3584,"Ġphosphorylation":3585,"Ġbasis":3586,"ĠÏ":3587,"Ġmedian":3588,"Ġalone":3589,"Ġdrugs":3590,"Ġdecline":3591,"ĠDiscussion":3592,"Ġanatomical":3593,"Ġmyelin":3594,"Ġsensitive":3595,"ĠAM":3596,"Ġassay":3597,"icacy":3598,"Ġcapac":3599,"Ġreaction":3600,"Ġinstruc":3601,"Ġtend":3602,"ultaneous":3603,"omotor":3604,"Ġentire":3605,"ĠBi":3606,"ĠUsing":3607,"Ġimprovement":3608,"ĠStatistical":3609,"son":3610,"Ġpotentially":3611,"Ġweak":3612,"ternal":3613,"Ġneut":3614,"xa":3615,"Ġdeveloping":3616,"Ġselective":3617,"Ġrecom":3618,"Ġneuropath":3619,"Al":3620,"gram":3621,"iles":3622,"Ġcent":3623,"36":3624,"Ġattenu":3625,"ĠNF":3626,"Ġda":3627,"Ġsurgery":3628,"Ġinjected":3629,"All":3630,"Ġmonitor":3631,"Ġlas":3632,"rad":3633,"ĠBDNF":3634,"Ġprincip":3635,"Ġolfactory":3636,"ĠCons":3637,"Ġfibers":3638,"rec":3639,"off":3640,"BB":3641,"Ġheterogene":3642,"ĠmiR":3643,"day":3644,"Ġexpressing":3645,"ĠParkinson":3646,"Ġcing":3647,"Ġpharmac":3648,"Ġthickness":3649,"Ġuntil":3650,"Ġsitu":3651,"ĠPer":3652,"MG":3653,"Ġche":3654,"Ġinferior":3655,"derived":3656,"Ġbroad":3657,"fold":3658,"Ġmild":3659,"Ġconver":3660,"Ġcannot":3661,"Ġwhat":3662,"Ġdig":3663,"requency":3664,"Ġgraph":3665,"Ġnat":3666,"Ġvoltage":3667,"Ġintegration":3668,"Ġpsychiatric":3669,"IN":3670,"Ġintracellular":3671,"ings":3672,"Ġhor":3673,"Ġrang":3674,"Ġcarried":3675,"ext":3676,"RG":3677,"Ġclos":3678,"Ġ48":3679,"ĠRep":3680,"itudinal":3681,"Ġremoved":3682,"Ġstrategy":3683,"Ġeffici":3684,"Ġapop":3685,"Ġembry":3686,"Ġproportion":3687,"went":3688,"lier":3689,"67":3690,"KO":3691,"Ġbre":3692,"Ġsuccessful":3693,"Ġextracted":3694,"Ġmutation":3695,"Ġoriginal":3696,"Ġalgorithm":3697,"Ġpairs":3698,"Ġroom":3699,"ope":3700,"Ġstrategies":3701,"Ġtract":3702,"Ġaspects":3703,"Ġtaken":3704,"Ġcenter":3705,"omer":3706,"04":3707,"priate":3708,"Ġessential":3709,"ignific":3710,"ĠAPP":3711,"Ġischemic":3712,"Ġcardi":3713,"ĠMT":3714,"no":3715,"Ġcircuits":3716,"ĠTR":3717,"ĠInstit":3718,"Ġguid":3719,"ĠAb":3720,"Ġposts":3721,"Ġaccumulation":3722,"Ġcorrected":3723,"quencies":3724,"Ġpap":3725,"Ġhalf":3726,"Ġpossibility":3727,"Ġold":3728,"Ġdiffusion":3729,"Ġemotion":3730,"urrents":3731,"Ġdimens":3732,"oral":3733,"Ġfas":3734,"Ġdev":3735,"ĠSch":3736,"Ġpyramidal":3737,"Ġcoordin":3738,"Ġfocused":3739,"Ġtypically":3740,"ĠIndeed":3741,"usted":3742,"Ġenzym":3743,"This":3744,"Ġepis":3745,"ĠBl":3746,"troph":3747,"onance":3748,"ĠPC":3749,"Ġcolor":3750,"Ġyet":3751,"oma":3752,"atin":3753,"ĠAss":3754,"Ġpresentation":3755,"Ġcut":3756,"Ġmy":3757,"Ġtheta":3758,"Ġpressure":3759,"earch":3760,"ĠSE":3761,"ou":3762,"ĠDuring":3763,"ĠĊĠĊĠ":3764,"Ġfilter":3765,"Ġapproximately":3766,"Ġvehicle":3767,"Ġpotentials":3768,"tingu":3769,"Ġexposed":3770,"ĠIf":3771,"Ġfix":3772,"exp":3773,"ophag":3774,"Ġdesigned":3775,"Ġaccom":3776,"TI":3777,"Ġretrie":3778,"Ġevaluation":3779,"Ġmeta":3780,"Ġoscillations":3781,"stream":3782,"Ġsynthes":3783,"igma":3784,"Ġinvolvement":3785,"Ġdomains":3786,"Ġint":3787,"Ġarrow":3788,"SI":3789,"Ġproduce":3790,"PR":3791,"Ġisolated":3792,"Ġcertain":3793,"Ġrs":3794,"ĠLPS":3795,"Ġfrequencies":3796,"Ġsimultaneous":3797,"work":3798,"Ġefficacy":3799,"Ġcultures":3800,"odel":3801,"Ġgran":3802,"Ġglial":3803,"Ġtechniques":3804,"umin":3805,"Ġcore":3806,"Ġinhibitor":3807,"Ġmake":3808,"ĠTD":3809,"mor":3810,"control":3811,"Ġfraction":3812,"PCR":3813,"Wh":3814,"MI":3815,"Ġfron":3816,"Ġir":3817,"Ġimportance":3818,"ours":3819,"tead":3820,"Ġerrors":3821,"Ġglucose":3822,"Ġconflict":3823,"Ġmanner":3824,"Ġdaily":3825,"ĠAcc":3826,"Ġneurotrans":3827,"Ġsyndrome":3828,"Ġsequences":3829,"atients":3830,"Ġadded":3831,"rin":3832,"Ġabnormalities":3833,"Ġdopaminergic":3834,"Ġmigr":3835,"ĠGlu":3836,"],":3837,"PI":3838,"utes":3839,"ria":3840,"Ġbound":3841,"olin":3842,"Ġprevent":3843,"DCS":3844,"Ġvolumes":3845,"Ġreports":3846,"Ġide":3847,"32":3848,"itudes":3849,"Ġexercise":3850,"Ġpreval":3851,"ns":3852,"Ġtechn":3853,"Ġdifferential":3854,"ampl":3855,"ached":3856,"Ġens":3857,"GG":3858,"anced":3859,"Ġcurrents":3860,"Ġfast":3861,"Ġiss":3862,"Ġreason":3863,"prote":3864,"Ġsimple":3865,"Ġscal":3866,"insic":3867,"Ġallowed":3868,"natal":3869,"Ġdisplay":3870,"mental":3871,"ĠBoth":3872,"Ġneuroimaging":3873,"Ġbo":3874,"Ġexplore":3875,"ientific":3876,"Ġimplicated":3877,"Ġseparate":3878,"34":3879,"ĠMed":3880,"Ġoccurs":3881,"BD":3882,"Ġmarked":3883,"ogn":3884,"ifferen":3885,"istry":3886,"Ġinduction":3887,"Ġregarding":3888,"Ġtissues":3889,"IF":3890,"fusion":3891,"app":3892,"orts":3893,"Ġthalamus":3894,"Ġconstruc":3895,"ĠTNF":3896,"ae":3897,"Ġprocedures":3898,"Ġcontent":3899,"Ġvent":3900,"Ġprepar":3901,"ĠMaterials":3902,"ĠCN":3903,"Ġexhibit":3904,"Ġdele":3905,"Ġden":3906,"ĠSEM":3907,"Ġparameter":3908,"Ġves":3909,"order":3910,"Ġenergy":3911,"omy":3912,"Ġovere":3913,"Ġinvolving":3914,"onstruc":3915,"Ġappe":3916,"otic":3917,"aine":3918,"ĠGen":3919,"Glu":3920,"ĠTwo":3921,"Ġmethyl":3922,"ime":3923,"Ġcontrolled":3924,"Ġstable":3925,"Ġdiagnostic":3926,"Ġmixed":3927,"Ġgood":3928,"ĠSV":3929,"ameter":3930,"idation":3931,"Ġrepeti":3932,"imb":3933,"clear":3934,"Ġ21":3935,"plemented":3936,"Ġaveraged":3937,"hens":3938,"IR":3939,"Ġgenerate":3940,"Ġpaired":3941,"ĠGABAergic":3942,"Ġlabeled":3943,"Ġchem":3944,"Ġlayers":3945,"Ġtraum":3946,"Ġaxis":3947,"ĠBy":3948,"inning":3949,"ogram":3950,"99":3951,"Ġobjects":3952,"Ġunique":3953,"ches":3954,"Ġcompare":3955,"hest":3956,"traction":3957,"ON":3958,"Ġthought":3959,"Ġmetabolism":3960,"Ġ90":3961,"erman":3962,"St":3963,"Ġincl":3964,"Ġnor":3965,"OLD":3966,"Ġdeli":3967,"47":3968,"37":3969,"atically":3970,"oplas":3971,"Ġsetting":3972,"Ġlearn":3973,"alateral":3974,"urom":3975,"Ġsubset":3976,"mean":3977,"ĠÎ¼M":3978,"Ġfully":3979,"Ġunclear":3980,"Ġlongitudinal":3981,"Ġatt":3982,"ipital":3983,"Ġculture":3984,"Ġexternal":3985,"Ġgenotype":3986,"athe":3987,"Ġvascular":3988,"Ġmagnitude":3989,"Ġmetabolic":3990,"istance":3991,"ged":3992,"Ġupper":3993,"Ġgamma":3994,"LE":3995,"oses":3996,"Ġtrained":3997,"ognitive":3998,"icial":3999,"cture":4000,"week":4001,"AN":4002,"Ġnam":4003,"Ġcomparing":4004,"ging":4005,"Ġexcitability":4006,"lym":4007,"ĠState":4008,"Ġhoc":4009,"Ġresonance":4010,"Ġdouble":4011,"Ġforms":4012,"Ġunderstand":4013,"Ġ&#":4014,"Ġseman":4015,"Ġunknown":4016,"Ġremained":4017,"tee":4018,"Ġretro":4019,"ĠSince":4020,"rip":4021,"Ġneuropsych":4022,"etric":4023,"Ġips":4024,"version":4025,"ample":4026,"Ġnote":4027,"Ġmetric":4028,"idate":4029,"Ġbalance":4030,"use":4031,"Ġvariation":4032,"Ġke":4033,"Ġplays":4034,"ĠGM":4035,"Ġgeneration":4036,"Ġpool":4037,"otrop":4038,"Ġcauses":4039,"process":4040,"Ġatroph":4041,"Ġobservation":4042,"asp":4043,"Ġblocks":4044,"Ġspecificity":4045,"Ġcm":4046,"Ġrating":4047,"ĠADHD":4048,"Ġmotiv":4049,"Ġbox":4050,"Ġchrom":4051,"Ġconsum":4052,"ĠNote":4053,"ĠIF":4054,"Ġcingulate":4055,"Ġitems":4056,"Ġroles":4057,"ĠDes":4058,"Ġblot":4059,"osition":4060,"ocytes":4061,"termin":4062,"aps":4063,"vals":4064,"Ġsomat":4065,"Ġ22":4066,"Ġtransl":4067,"Ġendogenous":4068,"Ġflex":4069,"ĠGFP":4070,"Ġtreatments":4071,"Ġproduc":4072,"Ġorientation":4073,"DR":4074,"68":4075,"ern":4076,"Ġpublished":4077,"endro":4078,"ĠConf":4079,"Ġasym":4080,"frequency":4081,"zing":4082,"Ġgoal":4083,"Ġbeg":4084,"CP":4085,"Ġhighest":4086,"RNAs":4087,"Ġhypoth":4088,"iform":4089,"lial":4090,"Ġthird":4091,"Ġstem":4092,"Ġkinase":4093,"Ġinfection":4094,"cal":4095,"Ġappropriate":4096,"Ġcovari":4097,"ĠLi":4098,"Î¼m":4099,"39":4100,"Ġvary":4101,"Ġobservations":4102,"Ġorganization":4103,"Ġrepro":4104,"Ġvoxels":4105,"let":4106,"cious":4107,"Ġdil":4108,"Ġpracti":4109,"Ġoccurred":4110,"Ġretinal":4111,"Ġactions":4112,"Ġterm":4113,"2009":4114,"Ġrepresented":4115,"Ġestimate":4116,"LI":4117,"pass":4118,"ecause":4119,"Ġvector":4120,"Ġsecre":4121,"Ġnature":4122,"ocaine":4123,"LR":4124,"ĠÂµ":4125,"Ġcompens":4126,"Ġuseful":4127,"ruit":4128,"Ġodor":4129,"ĠĊĊĠ":4130,"LC":4131,"ĠPr":4132,"Ġunits":4133,"Ġnumer":4134,"Ġled":4135,"ĠHD":4136,"Ġappears":4137,"Ġsearch":4138,"oring":4139,"Ġpublic":4140,"Ġcontralateral":4141,"Ġnatural":4142,"ĠPS":4143,"Ġcontribution":4144,"ids":4145,"Ġfore":4146,"Ġfiber":4147,"Ġtun":4148,"Ġlocalization":4149,"Ġcapacity":4150,"itch":4151,"Ġexecutive":4152,"Ġgender":4153,"Ġdistributed":4154,"Ġparalle":4155,"Ġrepresentations":4156,"temporal":4157,"Ġmorphology":4158,"Ġwomen":4159,"Ġmajority":4160,"hanol":4161,"clusions":4162,"Ġconditioning":4163,"Ġpostsynaptic":4164,"Ġatrophy":4165,"ĠpH":4166,"Ġtumor":4167,"asis":4168,"Ġstart":4169,"Ġconstant":4170,"Ġcytokines":4171,"Ġeduc":4172,"ominant":4173,"urs":4174,"Ġconsent":4175,"Ġvel":4176,"rend":4177,"Ġsufficient":4178,"uman":4179,"Ġproliferation":4180,"Ġcaud":4181,"Ġquantified":4182,"rose":4183,"Ġfig":4184,"mM":4185,"Ġmoderate":4186,"Ġtraject":4187,"immun":4188,"agement":4189,"Ġearlier":4190,"Ġprojections":4191,"Ġsil":4192,"Ġinterf":4193,"Ca":4194,"semb":4195,"Ġ37":4196,"02":4197,"ĠNot":4198,"Ġonto":4199,"ĠSecond":4200,"Co":4201,"Ġadministered":4202,"tification":4203,"Ġexplained":4204,"genesis":4205,"Ġoverex":4206,"Ġrequires":4207,"Ġgradi":4208,"Ġmolecules":4209,"Ġpup":4210,"TT":4211,"Ġoxidative":4212,"Ġgenerally":4213,"Ġinformed":4214,"Ġcurve":4215,"Ġcompre":4216,"ĠEth":4217,"eb":4218,"Ġaged":4219,"ĠOver":4220,"oded":4221,"ĠReg":4222,"Ġte":4223,"Ġyield":4224,"Ġwal":4225,"Ġsuppression":4226,"FF":4227,"ibly":4228,"lin":4229,"Ġul":4230,"Ġnorm":4231,"RO":4232,"Ġdivided":4233,"Ġexpress":4234,"estib":4235,"ĠImmun":4236,"Ġ#":4237,"Ġallows":4238,"Ġprofile":4239,"Ġintervals":4240,"Ġcoupling":4241,"Ġregulate":4242,"Ġartif":4243,"Ġdetails":4244,"GA":4245,"arent":4246,"abe":4247,"Ġmask":4248,"Ġcruc":4249,"Ġbiomarkers":4250,"Ġhomeost":4251,"Ġrespect":4252,"gue":4253,"Ġphenotypes":4254,"Ġvide":4255,"Ġdegeneration":4256,"odendro":4257,"Ġelectrical":4258,"ritten":4259,"ceptib":4260,"Ġspectrum":4261,"Ġrecru":4262,"Ġamplitudes":4263,"Ġmanif":4264,"Ġlig":4265,"Ġgreen":4266,"Ġincor":4267,"tention":4268,"ĠGerman":4269,"Ġow":4270,"Ġdistingu":4271,"mittee":4272,"Ġmass":4273,"Ġsets":4274,"Ġfaces":4275,"Ex":4276,"Ġpresynaptic":4277,"gra":4278,"cin":4279,"Ġcolum":4280,"most":4281,"ĠQuan":4282,"Ġquantitative":4283,"Ġpict":4284,"ĠCol":4285,"Ġrefer":4286,"Ġperceptual":4287,"Ġwidely":4288,"Ġdiet":4289,"rous":4290,"BA":4291,"Ġorigin":4292,"Ġmeasurement":4293,"Ġidentification":4294,"Ġcounter":4295,"hab":4296,"Ġdetailed":4297,"Our":4298,"Ġ80":4299,"osensory":4300,"Ġlargely":4301,"Ġaw":4302,"Ġbran":4303,"Ġrandomly":4304,"ĠROIs":4305,"ino":4306,"Ġmamm":4307,"argeted":4308,"Ġestimates":4309,"Ġoppos":4310,"CM":4311,"tral":4312,"Ġrecei":4313,"Ġnoted":4314,"Ġsupported":4315,"Ġpreference":4316,"Ġnuclear":4317,"Ġdepressive":4318,"Ġconcer":4319,"Ġclose":4320,"plate":4321,"ohist":4322,"ĠERP":4323,"iliar":4324,"Ġsteps":4325,"orescent":4326,"Ġrecruit":4327,"SM":4328,"Ġmust":4329,"Ġpractice":4330,"mark":4331,"Ġperiods":4332,"aries":4333,"Ġconnected":4334,"Ġcomprehens":4335,"years":4336,"Ġtiming":4337,"Ġseparately":4338,"ades":4339,"Ġseed":4340,"used":4341,"mat":4342,"gic":4343,"ĠSimilarly":4344,"ĠPFC":4345,"RE":4346,"Ġ);":4347,"sec":4348,"Ġdecreases":4349,"Ġproblems":4350,"lish":4351,"Ġtrend":4352,"Ġneurom":4353,"Ġhaving":4354,"ĠGF":4355,"Ġpredictive":4356,"Ġsemantic":4357,"osen":4358,"Ġslight":4359,"âĢīĠ":4360,"55":4361,"Ġlimitations":4362,"motor":4363,"44":4364,"Ġnodes":4365,"Ġtypical":4366,"Ġefficiency":4367,"Ġprofiles":4368,"raf":4369,"Ġhearing":4370,"Ġmaintained":4371,"forms":4372,"Ġproblem":4373,"Ġoptimal":4374,"Ġvess":4375,"urrence":4376,"ery":4377,"Ġsizes":4378,"ĠMCI":4379,"Ġcommerc":4380,"Ġadaptation":4381,"Ġlocations":4382,"Ġtransf":4383,"Ġdeviation":4384,"Ġresponsible":4385,"Ġcrucial":4386,"PSC":4387,"etyl":4388,"Ġsubstr":4389,"Ġ***":4390,"Ġdatasets":4391,"Ġdiscrimination":4392,"Ġreconstruc":4393,"pir":4394,"Ġdendrites":4395,"ĠResearch":4396,"ĠHealth":4397,"ohistochem":4398,"Ġfar":4399,"Ġrepl":4400,"Ġautism":4401,"Ġneutral":4402,"Ġinvestigation":4403,"Ġparallel":4404,"cular":4405,"isting":4406,"orbid":4407,"Ġtub":4408,"Ġintro":4409,"Ġsen":4410,"Ġstronger":4411,"riched":4412,"Ġconfidence":4413,"resentative":4414,"ordance":4415,"Ġprogressive":4416,"ocity":4417,"Ġshor":4418,"Ġshape":4419,"Ġcompleted":4420,"Ġsynapse":4421,"Ġcomparable":4422,"ĠGS":4423,"Ġtransgenic":4424,"going":4425,"Ġlittle":4426,"weighted":4427,"Ġcommonly":4428,"Cre":4429,"Ġprobe":4430,"ĠBOLD":4431,"Ġoxygen":4432,"Ġhypothesized":4433,"Ġgait":4434,"Ġcoefficient":4435,"Ġneuroprote":4436,"Ġrecogn":4437,"ĠTr":4438,"bin":4439,"Ġsusceptib":4440,"Ġ~":4441,"Ġintrinsic":4442,"Ġimpairments":4443,"Ġcompound":4444,"zyg":4445,"EA":4446,"pts":4447,"Ġshift":4448,"aterial":4449,"Ġion":4450,"Ġobjective":4451,"Ġalternative":4452,"Ġrecruited":4453,"Ġadvant":4454,"Ġpla":4455,"def":4456,"ready":4457,"Ġremaining":4458,"ĠSpecifically":4459,"Ġobtain":4460,"itation":4461,"Supplementary":4462,"Ġoligodendro":4463,"Ġsqu":4464,"osomal":4465,"PSCs":4466,"analysis":4467,"osomes":4468,"mod":4469,"Ġapoptosis":4470,"left":4471,"scale":4472,"Ġfluid":4473,"ĠMR":4474,"Ġstriatal":4475,"Ġcontributed":4476,"Ġemployed":4477,"ĠDL":4478,"ĠATP":4479,"OVID":4480,"Ġasked":4481,"ĠLab":4482,"Ġmedical":4483,"inger":4484,"Ġstrain":4485,"Ġ28":4486,"Ġfund":4487,"point":4488,"Ġfollows":4489,"xin":4490,"olic":4491,"Ġachieved":4492,"Ġprimarily":4493,"31":4494,"oration":4495,"Ġtargeting":4496,"oxic":4497,"aff":4498,"Ġphenomen":4499,"CN":4500,"Ġconsequ":4501,"Ġbecome":4502,"hers":4503,"range":4504,"Ġsubcortical":4505,"mitted":4506,"Ġexpect":4507,"Ġvestib":4508,"Ġdespite":4509,"akes":4510,"Ġmaking":4511,"DNA":4512,"Ġseroton":4513,"Ġscan":4514,"Ġcoheren":4515,"Ġskill":4516,"Ġinterpretation":4517,"tail":4518,"ero":4519,"ĠEA":4520,"Ġeas":4521,"rising":4522,"Ġsubgroup":4523,"Ġlabeling":4524,"Ġcocaine":4525,"itis":4526,"Ġtransport":4527,"Ġalready":4528,"ilities":4529,"Ġcommunication":4530,"Ġenvironmental":4531,"Ġafferen":4532,"portantly":4533,"Ne":4534,"Ġplat":4535,"500":4536,"izon":4537,"Ġfunctioning":4538,"Ġframework":4539,"Ġpolym":4540,"Ġmacroph":4541,"ries":4542,"operative":4543,"Ġpromote":4544,"ble":4545,"46":4546,"tual":4547,"ancial":4548,"Ġmodified":4549,"vascular":4550,"paired":4551,"otal":4552,"olved":4553,"icro":4554,"Ġspikes":4555,"tribut":4556,"Ġdefici":4557,"Ġneurogenesis":4558,"Ġsacc":4559,"Ġtransient":4560,"bbit":4561,"Ġsummar":4562,"ĠAT":4563,"Ġpathoph":4564,"ogether":4565,"Ġrelation":4566,"Ġretrieval":4567,"Ġprogram":4568,"GE":4569,"ĠÎĶ":4570,"CSF":4571,"Ġmor":4572,"ancy":4573,"ĠDi":4574,"Ġmuscles":4575,"Ġsul":4576,"SN":4577,"direct":4578,"Ġcultured":4579,"gical":4580,"tioned":4581,"Ġmapping":4582,"ĠMP":4583,"verage":4584,"Ġpaper":4585,"Ġshe":4586,"ĠAccording":4587,"Table":4588,"Ġpathogenesis":4589,"Ġwa":4590,"Ġautophag":4591,"ditional":4592,"erved":4593,"Ġadjusted":4594,"types":4595,"fMRI":4596,"Ġconsisted":4597,"Ġvelocity":4598,"Ġslice":4599,"Ġwide":4600,"Ġdiameter":4601,"Ġattentional":4602,"Ġaddress":4603,"Ġaccompan":4604,"Ġregional":4605,"Ġmiss":4606,"ites":4607,"ert":4608,"Ġmodul":4609,"ided":4610,"Ġtw":4611,"imotor":4612,"Ġdatab":4613,"Ġfinancial":4614,"ĠIg":4615,"ĠMo":4616,"Ġ500":4617,"ah":4618,"ometric":4619,"ney":4620,"ĠĠĠĠ":4621,"Ġelectrophysiological":4622,"tinction":4623,"inn":4624,"ometry":4625,"ĠMDD":4626,"brid":4627,"Ġrespir":4628,"vis":4629,"car":4630,"ĠtDCS":4631,"Ġplate":4632,"Ġcham":4633,"ollowing":4634,"Ġseems":4635,"Ġoccipital":4636,"Ġprevalence":4637,"Ġput":4638,"ĠRepresentative":4639,"Ġstere":4640,"Ġtranspor":4641,"Ġpartial":4642,"Ġwashed":4643,"dom":4644,"ĠWestern":4645,"TC":4646,"ĠTest":4647,"Ġattribu":4648,"Ġmodulate":4649,"Ġrare":4650,"Ġpreven":4651,"Ġsummary":4652,"Ġipsilateral":4653,"Ġtechnique":4654,"Ġforce":4655,"Ġpharmacological":4656,"ĠGroup":4657,"rh":4658,"Ġimmediately":4659,"inflammation":4660,"Ġganglia":4661,"linear":4662,"ignificant":4663,"ĠAAV":4664,"Ġmode":4665,"NC":4666,"night":4667,"gi":4668,"roni":4669,"izontal":4670,"Ġblack":4671,"Ġvariety":4672,"Ġantagonist":4673,"luorescence":4674,"72":4675,"LM":4676,"US":4677,"Ġsaf":4678,"Ġunit":4679,"everal":4680,"Ġiso":4681,"Ġtheory":4682,"Ġnic":4683,"Ġnow":4684,"Ġcommercial":4685,"Ad":4686,"Ġdefin":4687,"Ġconstit":4688,"Ġpun":4689,"Ġarm":4690,"%),":4691,"ĠBecause":4692,"onfer":4693,"ĠPCR":4694,"arrow":4695,"ĠThen":4696,"Ġ70":4697,"Ġcompart":4698,"Ġdraw":4699,"Ġhab":4700,"olarization":4701,"emb":4702,"Ġaccel":4703,"uclein":4704,"Ġsupporting":4705,"Ġestablish":4706,"Ġaffects":4707,"opathy":4708,"Ġmodulated":4709,"free":4710,"ariate":4711,"days":4712,"Ġneurodegeneration":4713,"Ġcand":4714,"isted":4715,"Ġasymmet":4716,"onferroni":4717,"Ġexplored":4718,"53":4719,"Ġethanol":4720,"OE":4721,"Ġrecall":4722,"top":4723,"Ġunderwent":4724,"ĠMean":4725,"unt":4726,"Ġbu":4727,"Ġreading":4728,"Ġtoxic":4729,"lear":4730,"ĠSO":4731,"osome":4732,"ĠâĪ":4733,"ĠmT":4734,"64":4735,"month":4736,"Ġpron":4737,"Ġaimed":4738,"Ġspecial":4739,"Ġinsula":4740,"with":4741,"Ġprogen":4742,"Ġsources":4743,"Ġsynthesis":4744,"Ġsensorimotor":4745,"ĠImportantly":4746,"habilit":4747,"Ġfrag":4748,"ying":4749,"Ġdiscre":4750,"Ġcomplexity":4751,"Ġown":4752,"ĠPatients":4753,"Ġdelayed":4754,"odium":4755,"Ġtargeted":4756,"ĠCOVID":4757,"AM":4758,"Ġtransition":4759,"Ġhydro":4760,"tenance":4761,"ĠNP":4762,"anted":4763,"Ġappeared":4764,"ĠCC":4765,"kele":4766,"phas":4767,"aternal":4768,"ĠTMS":4769,"Ġplacebo":4770,"ĠPrevious":4771,"alse":4772,"Ġmaintain":4773,"Ġchosen":4774,"eli":4775,"Ġprojection":4776,"TMS":4777,"EC":4778,"Ġregular":4779,"Ġagree":4780,"ĠGFAP":4781,"Ġdone":4782,"ĠGiven":4783,"Ġdark":4784,"Ġinterventions":4785,"value":4786,"Ġmonitoring":4787,"illed":4788,"Ġsurround":4789,"98":4790,"omes":4791,"Ġthereby":4792,"Ġangle":4793,"Ġresearc":4794,"ps":4795,"lectro":4796,"08":4797,"Ġpeptide":4798,"jects":4799,"ĠOR":4800,"lated":4801,"Ġmis":4802,"inations":4803,"atergic":4804,"Ġattem":4805,"Ġfixation":4806,"ĠAS":4807,"Ġcoding":4808,"Ġscans":4809,"Ġpulse":4810,"ĠLC":4811,"clinical":4812,"ricular":4813,"ĠSuch":4814,"Ġbip":4815,"Ġconven":4816,"uctu":4817,"Ġpip":4818,"oster":4819,"dimens":4820,"BL":4821,"Ġequal":4822,"Ġinstance":4823,"Ġeight":4824,"ĠSI":4825,"Ġmedication":4826,"ĠGermany":4827,"label":4828,"Î³":4829,".)":4830,"treatment":4831,"Ġregen":4832,"ads":4833,"Ġrepresentative":4834,"Ġconscious":4835,"ception":4836,"Ġvirus":4837,"iqu":4838,"Ġgr":4839,"ĠTrans":4840,"turb":4841,"wide":4842,"Ġspine":4843,"depress":4844,"Ġextinction":4845,"Ġconduct":4846,"Ġfields":4847,"ĠPI":4848,"ror":4849,"Ġstained":4850,"OG":4851,"Ġplots":4852,"Ġpersonal":4853,"66":4854,"Ġmicroscope":4855,"Ġmatched":4856,"ĠOf":4857,"Ġendothe":4858,"Ġpositively":4859,"yond":4860,"Ġvestibular":4861,"Re":4862,"Ġinduces":4863,"97":4864,"Ġelicited":4865,"Ġdeclare":4866,"Ġhorm":4867,"Ġsomatosensory":4868,"Ġreviewed":4869,"ering":4870,"ĠNR":4871,"Ġconclud":4872,"Ġneurotransmit":4873,"Ġcorrelates":4874,"Ġoligodendrocy":4875,"ogenetic":4876,"box":4877,"Ġnm":4878,"Ġintegrity":4879,"Ġpredominant":4880,"Ġsubjective":4881,"Ġresistance":4882,"Ġburst":4883,"Ġdisturb":4884,"Ġdriven":4885,"ĠSystem":4886,"ĠEr":4887,"SV":4888,"Ġexact":4889,"Ġmood":4890,"arietal":4891,"Ġaccoun":4892,"Ġaccordance":4893,"poch":4894,"blue":4895,"ĠStatement":4896,"mal":4897,"ool":4898,"300":4899,"Ġexplan":4900,"Ġapparent":4901,"Ġsimilarity":4902,"Ġclustering":4903,"Ġarch":4904,"Ġblocked":4905,"green":4906,"sequenc":4907,"ĠBBB":4908,"Ġmaintenance":4909,"mend":4910,"oti":4911,"Ġclearly":4912,"Ġq":4913,"itus":4914,"field":4915,"ina":4916,"atch":4917,"Ġregulated":4918,"ĠPET":4919,"Ġclassified":4920,"uk":4921,"Ġproviding":4922,"Ġvariant":4923,"Ġtone":4924,"Ġinstead":4925,"UC":4926,"Ġbands":4927,"unctional":4928,"Ġwritten":4929,"Ġgradient":4930,"Ġarous":4931,"mut":4932,"Ġdownstream":4933,"Ġbottom":4934,"Ġcontained":4935,"ĠDep":4936,"path":4937,"Ġ45":4938,"Ġlatter":4939,"Ġgli":4940,"riefly":4941,"theless":4942,"elling":4943,"Ġabund":4944,"Ġplatform":4945,"Ġintake":4946,"Ġproxim":4947,"Ġfluctu":4948,"Ġcop":4949,"Ġcategor":4950,"olute":4951,"Ġeducation":4952,"Ġenriched":4953,"Ġopposite":4954,"Ġpromin":4955,"Ġhar":4956,"ĠUnited":4957,"Ġcortices":4958,"ifier":4959,"Ġsubtypes":4960,"vision":4961,"infor":4962,"Ġeth":4963,"ĠBased":4964,"Ġdiscussed":4965,"ĠOther":4966,"MC":4967,"ĠPP":4968,"Ġdiscrimin":4969,"ĠIV":4970,"Ġsegmentation":4971,"ba":4972,"ĠConflict":4973,"ars":4974,"lor":4975,"ND":4976,"Ġindirect":4977,"ĠDMN":4978,"Ġschem":4979,"Ġmorphological":4980,"Ġquestionna":4981,"Ġidentical":4982,"ival":4983,"havioral":4984,"troke":4985,"Ġmitochondria":4986,"habilitation":4987,"93":4988,"erated":4989,"ophil":4990,"62":4991,"Ġimmunos":4992,"Ġpreced":4993,"Ġcurrently":4994,"Ġmigration":4995,"Ġmach":4996,"ĠAMPA":4997,"Ġusually":4998,"Ġglutamatergic":4999,"processing":5000,"onists":5001,"umb":5002,"Ġcount":5003,"Ġintact":5004,"dimensional":5005,"Ġextre":5006,"ĠTH":5007,"Ġdifferentially":5008,"olinergic":5009,"Ġtools":5010,"Ġcontact":5011,"Ġbasic":5012,"ĠPO":5013,"ĠSCI":5014,"Ġovernight":5015,"Ġhours":5016,"ĠPK":5017,"ĠEthics":5018,"EEG":5019,"Ġexperienced":5020,"ĠSup":5021,"Ġsimultaneously":5022,"Ġmutants":5023,"Ġverbal":5024,"Ġdistributions":5025,"Ġheterogeneity":5026,"Ġgenome":5027,"Ġmechanical":5028,"elines":5029,"Ġmicroscopy":5030,"ufact":5031,"expressing":5032,"Ġwhose":5033,"ĠPl":5034,"odic":5035,"Ġprocessed":5036,"Ġquestions":5037,"Ġcomplic":5038,"Ġincludes":5039,"Ġcomplement":5040,"Ġ32":5041,"Ġindependently":5042,"Ġbarri":5043,"Ġdepending":5044,"Ġfrequently":5045,"Ġdeficit":5046,"Ġretina":5047,"Ġzone":5048,"Ġunderstood":5049,"ĠBonferroni":5050,"Ġgreat":5051,"Ġrestricted":5052,"RR":5053,"Ġ26":5054,"Ġconclusion":5055,"ĠFisher":5056,"pus":5057,"Ġ35":5058,"Ġthresholds":5059,"hesia":5060,"Ġstability":5061,"Ġfocal":5062,"rele":5063,"Ġanesthe":5064,"rained":5065,"phosph":5066,"Ġheart":5067,"Ġpossibly":5068,"Ġtrigg":5069,"Ġdiabe":5070,"Ġantidepress":5071,"richment":5072,"ĠAuth":5073,"mi":5074,"Ġreducing":5075,"Ġstatistics":5076,"78":5077,"Ġscler":5078,"rd":5079,"Ġcontributions":5080,"Ġsustained":5081,"Ġprotocols":5082,"Ġexcept":5083,"Ġmanufact":5084,"Ġleg":5085,"Ġyear":5086,"Ġmal":5087,"ĠGl":5088,"cm":5089,"Ġmodeling":5090,"Ġfamiliar":5091,"Ġpast":5092,"acing":5093,"formation":5094,"Ġmes":5095,"AL":5096,"Ġsubunit":5097,",âĢĿ":5098,"ulti":5099,"Ġpostnatal":5100,"ĠExperiment":5101,"ĠTech":5102,"draw":5103,"illary":5104,"Ġspent":5105,"ulner":5106,"Ġinclusion":5107,"certain":5108,"ĠSH":5109,"Ġterminals":5110,"Ġensure":5111,"Ġsampling":5112,"Ġfluorescent":5113,"Ġdisruption":5114,"Ġevolution":5115,"Ġextended":5116,"Ġouts":5117,"anded":5118,"Ġsodium":5119,"ret":5120,"Ġconnection":5121,"OH":5122,"atial":5123,"Ġsubsequently":5124,"Ġhorizontal":5125,"adian":5126,"Ġinjections":5127,"Ġeyes":5128,"Ġastrocyte":5129,"Ġperturb":5130,"ĠInter":5131,"Ġallele":5132,"asive":5133,"Ġconstr":5134,"equ":5135,"Ġtraces":5136,"Ġmetrics":5137,"Ġmeaning":5138,"Ġtowards":5139,"Ġcollection":5140,"Ġmix":5141,"ĠHR":5142,"Ġneuroinflammation":5143,"There":5144,"Ġprepared":5145,"Ġoptic":5146,"Ġmethylation":5147,"Ġimplement":5148,"Le":5149,"Ġsoci":5150,"Ġwalking":5151,"Ġvesic":5152,"201":5153,"ivity":5154,"ĠAB":5155,"lymph":5156,"Ġauto":5157,"Ġsubstantial":5158,"Ġbrainstem":5159,"Ġsequencing":5160,"ĠDec":5161,"ĠDM":5162,"ĠMAP":5163,"Ġconfound":5164,"):":5165,"ĠControl":5166,"Ġimmunore":5167,"une":5168,"Ġdefec":5169,"Ġdisability":5170,"Ġkine":5171,"ĠNI":5172,"overed":5173,"88":5174,"Ġepoch":5175,"Ġcategories":5176,"rine":5177,"ffects":5178,"Ġclinically":5179,"Ġshared":5180,"Ġrecruitment":5181,"Ġpreparation":5182,"ĠCommittee":5183,"Ġher":5184,"pected":5185,"Ġthalamic":5186,"LP":5187,"Ġtransi":5188,"ĠHF":5189,"Ġdeno":5190,"urer":5191,"Ġdistinguish":5192,"Ġconstrued":5193,"iness":5194,"ik":5195,"Ġagonist":5196,"Con":5197,"Ġvideo":5198,"aten":5199,"synuclein":5200,"Ġdescribe":5201,"sequences":5202,"Ġsclerosis":5203,"atigue":5204,"Ġpack":5205,"Ġinhibitors":5206,"96":5207,"olding":5208,"Ġlar":5209,"Ġdelivery":5210,"izations":5211,"ivered":5212,"Ġregulating":5213,"ĠDifferen":5214,"heres":5215,"Ġspiking":5216,"ĠmV":5217,"dri":5218,"Ġcontains":5219,"Ġimplemented":5220,"Ġreduces":5221,"Ġreliable":5222,"ceed":5223,"Ġseven":5224,"tity":5225,"evoked":5226,"Ġfacial":5227,"Ġblind":5228,"ĠAC":5229,"Ġalmost":5230,"Ġvulner":5231,"Ġlipid":5232,"Ġmanifest":5233,"Ġelements":5234,"Ġjud":5235,"07":5236,"LT":5237,"Ġlocomotor":5238,"inter":5239,"year":5240,"Ġcategory":5241,"Ġ23":5242,"94":5243,"Ġopt":5244,"rote":5245,"mid":5246,"sw":5247,"Ġfacilitate":5248,"acer":5249,"values":5250,"1000":5251,"Ġfamil":5252,"ĠNeur":5253,"Ġconsequences":5254,"Ġquantification":5255,"ĠDG":5256,"Ġrodents":5257,"Ġscen":5258,"ellow":5259,"ĠMice":5260,"hydro":5261,"Ġfalse":5262,"Ġpen":5263,"Ġexamination":5264,"Ġresour":5265,"Ġconsumption":5266,"Ġbodies":5267,"corrected":5268,"Ġforward":5269,"Ġunc":5270,"Ġbind":5271,"Ġclin":5272,"WM":5273,"Ġmature":5274,"ĠmPFC":5275,"ocytosis":5276,"AR":5277,"Ġuptake":5278,"Ġtrigger":5279,"eness":5280,"Ġrecommend":5281,"eric":5282,"Ġreverse":5283,"Ġjust":5284,"Ġdelivered":5285,"Ġrespective":5286,"Ġdoc":5287,"acent":5288,"Ġreinfor":5289,"ĠÎ·":5290,"oxid":5291,"Ġprolong":5292,"Ġket":5293,"Ġbenefit":5294,"Ġinser":5295,"ault":5296,"Ġbeneficial":5297,"Ġminimum":5298,"versely":5299,"ections":5300,"Ġmanufacturer":5301,"cies":5302,"Ġaccurate":5303,"ĠTechn":5304,"Ġdepic":5305,"ĠAg":5306,"Ġspectral":5307,"Ġbeyond":5308,"Ġdeletion":5309,"cho":5310,"months":5311,"zygous":5312,"Ġcytos":5313,"Ġexcess":5314,"Ġabsolute":5315,"Ġcann":5316,"utions":5317,"ĠMan":5318,"Ġproject":5319,"omo":5320,"Ġcholinergic":5321,"ĠStates":5322,"Ġslightly":5323,"Ġcontrolling":5324,"EN":5325,"ierarch":5326,"Ġchamber":5327,"onomic":5328,"%).":5329,"Ġzero":5330,"ils":5331,"Ġseparated":5332,"Syn":5333,"tized":5334,"cents":5335,"Ġarchite":5336,"ops":5337,"raine":5338,"Ġpreferen":5339,"Ġsucrose":5340,"Ġcolumn":5341,"Ġpromoter":5342,"Ġaffective":5343,"Ġexec":5344,"Ġcompletely":5345,"Ġnegatively":5346,"keys":5347,"Ġmaturation":5348,"Ġarousal":5349,"ĠLTP":5350,"zation":5351,"ifications":5352,"Ġregulatory":5353,"fficients":5354,"Ġâī¥":5355,"GS":5356,"mL":5357,"Ġactivate":5358,"ĠImage":5359,"icking":5360,"Ġprogress":5361,"grade":5362,"pose":5363,"Ġphases":5364,"Ġcurves":5365,"Fs":5366,"ĠAnimals":5367,"ds":5368,"Ġcentr":5369,"Ġcomputational":5370,"ĠMI":5371,"06":5372,"enetic":5373,"Ġtrue":5374,"ĠNS":5375,"Ġexcitation":5376,"Ġspread":5377,"Ġchanged":5378,"ametric":5379,"activated":5380,"Ġitself":5381,"orrh":5382,"ensitive":5383,"Ġdegrad":5384,"Ġrapidly":5385,"Ġdiagnosed":5386,"vised":5387,"Ġ(âĢ":5388,"ĠNon":5389,"Ġcontribut":5390,"Ġmedic":5391,"Ġonce":5392,"Ġreflects":5393,"Ġresc":5394,"Ġpor":5395,"tub":5396,"science":5397,"Ġfall":5398,"Ġdrive":5399,"Ġworld":5400,"Ġaccompanied":5401,"oids":5402,"Ġlaboratory":5403,"ares":5404,"ĠPo":5405,"Ġnicot":5406,"mann":5407,"Ġcen":5408,"mediate":5409,"ison":5410,"cing":5411,"Ġoverexpression":5412,"Ġcomputer":5413,"ĠFollowing":5414,"Ġspines":5415,"Ġjunction":5416,"Ġadaptive":5417,"Ġinfants":5418,"Ġperceived":5419,"ĠCM":5420,"ĠDBS":5421,"Ġfailed":5422,"heric":5423,"ĠPost":5424,"Ġmacrophages":5425,"Ġcoherence":5426,"Ġenrichment":5427,"Ġdisch":5428,"ĠACC":5429,"Ġpartially":5430,"Ġinsulin":5431,"56":5432,"ĠIII":5433,"Ġischemia":5434,"Ġweights":5435,"luor":5436,"ĠIP":5437,"ung":5438,"ocation":5439,"Ġendothelial":5440,"ĠAR":5441,"Ġoutside":5442,"usions":5443,"ĠÎ³":5444,"where":5445,"Ġrandomized":5446,"Ġcoefficients":5447,"Ġinfluenced":5448,"asal":5449,"Ġonline":5450,"ĠClinical":5451,"evertheless":5452,"Ġextensive":5453,"Ġdominant":5454,"Ġskin":5455,"Ġfat":5456,"Ġprominent":5457,"Ġagreement":5458,"alian":5459,"Ġwr":5460,"Ġclosely":5461,"ĠAuthor":5462,"antation":5463,"Ġincorpor":5464,"Ġwithdraw":5465,"Ġfile":5466,"Ġresearchers":5467,"gative":5468,"Ġpsychological":5469,"ley":5470,"ĠLD":5471,"Ġtempor":5472,"part":5473,"Ġartery":5474,"otropic":5475,"Ġ27":5476,"organ":5477,"Ġinhibited":5478,"ĠPTSD":5479,"Ġinteract":5480,"Ġflies":5481,"WT":5482,"ck":5483,"Ġinvolves":5484,"iring":5485,"tailed":5486,"ĠED":5487,"Ġrepresenting":5488,"ĠSer":5489,"ĠOverall":5490,"Ġdegradation":5491,"Ġsegments":5492,"Ġsystemic":5493,"Ġparts":5494,"Ġmostly":5495,"Ġreliability":5496,"Ġdeple":5497,"NP":5498,"Ġcalled":5499,"wor":5500,"Ġalways":5501,"relation":5502,"Ġcreated":5503,"Ġmaternal":5504,"ĠCH":5505,"It":5506,"Ġequival":5507,"Ġcytoplas":5508,"Ġneuroprotective":5509,"earson":5510,"itrogen":5511,"Ġimmunohistochem":5512,"Ġabilities":5513,"Ġbipolar":5514,"Ġstimulated":5515,"Ġnoc":5516,"Ġsenten":5517,"otherap":5518,"Ġperforming":5519,"Ġcontributes":5520,"ĠEC":5521,"Ġplus":5522,"ologic":5523,"Ġtake":5524,"eta":5525,"Ġfinger":5526,"Ġtaking":5527,"Ġscanner":5528,"Ġprecise":5529,"Vs":5530,"Ġneon":5531,"Ġcapt":5532,"85":5533,"ĠScientific":5534,"ĠSome":5535,"Ġvalidation":5536,"Ġeluc":5537,"ises":5538,"Ġconsecutive":5539,"Ġestimation":5540,"Ġdon":5541,"gt":5542,"Ġadjust":5543,"iction":5544,"Ġinten":5545,"Ġtemplate":5546,"Ġmonkeys":5547,"Ġratings":5548,"rog":5549,"Ġthre":5550,"ĠDespite":5551,"ubiqu":5552,"Ġfaster":5553,"ĠMon":5554,"Ġenzyme":5555,"actic":5556,"Ġvertical":5557,"Ġpix":5558,"ĠAnother":5559,"Ġtracts":5560,"Ġenhancement":5561,"Ġcontras":5562,"Ġknockout":5563,"Ġreached":5564,"ulum":5565,"ĠVTA":5566,"ĠTRP":5567,"Ġcompe":5568,"mia":5569,"lateral":5570,"ovascular":5571,"Ġhair":5572,"Ġdoses":5573,"gn":5574,"Ġdate":5575,"Ġfatigue":5576,"Ġassigned":5577,"Se":5578,"Ġdistal":5579,"Ġvaried":5580,"eral":5581,"abilities":5582,"Ġbarrier":5583,"inking":5584,"Ġhomeostasis":5585,"Ġupd":5586,"Ġobserve":5587,"ĠBio":5588,"Ġglyc":5589,"Ġcausal":5590,"olateral":5591,"Ġrow":5592,"ĠVal":5593,"vance":5594,"EB":5595,"Ġchallenge":5596,"Ġsystematic":5597,"psych":5598,"Ġdatabase":5599,"Ġacetyl":5600,"ĠIgG":5601,"auss":5602,"ĠAnimal":5603,"Ġrespiratory":5604,"ĠAlso":5605,"Ġinfluences":5606,"Ġadolescents":5607,"Ġoc":5608,"Ġscanning":5609,"Ġreactive":5610,"Ġmoun":5611,"ffect":5612,"hing":5613,"AMP":5614,"Ġreflected":5615,"ofluorescence":5616,"dr":5617,"MR":5618,"Ġcycl":5619,"ĠPR":5620,"Ġdevice":5621,"Ġzeb":5622,"Ġlaser":5623,"Ġpromising":5624,"Ġpersistent":5625,"Ġsubjected":5626,"ferred":5627,"tras":5628,"CB":5629,"Ġcytokine":5630,"Ġcancer":5631,"Ġcla":5632,"Ġdepends":5633,"po":5634,"Ġtraits":5635,"Ġstarting":5636,"Ġbul":5637,"Ġevident":5638,"Ġviral":5639,"idi":5640,"Ġadvantage":5641,"ĠNO":5642,"ĠSS":5643,"Ġinfar":5644,"Ġarg":5645,"41":5646,"Ġpropose":5647,"Ġaffecting":5648,"Îº":5649,"Ġgap":5650,"Ġstop":5651,"Ġcircadian":5652,"Ġassays":5653,"ĠNevertheless":5654,"Ġburden":5655,"itors":5656,"ported":5657,"SEM":5658,"inity":5659,"Ġ75":5660,"Ġcoch":5661,"Ġmaze":5662,"iling":5663,"Ġrehabilitation":5664,"ets":5665,"Ġyounger":5666,"chol":5667,"Ġconsistently":5668,"Ġpredictions":5669,"Ġallowing":5670,"Ġmigraine":5671,"Ġanalyze":5672,"Ġmaterial":5673,"76":5674,"ifug":5675,"Ġissue":5676,"Ġneocor":5677,"ĠFuture":5678,"Ġdual":5679,"br":5680,"Ġneigh":5681,"Ġhierarch":5682,"Ġprogn":5683,"ĠCompar":5684,"Ġactual":5685,"Ġdemonstrating":5686,"ĠStim":5687,"ĊĠ":5688,"Ġstored":5689,"Ġbeginning":5690,"Ġstra":5691,"Ġsubunits":5692,"ĠMedical":5693,"Ġfailure":5694,"Ġautophagy":5695,"eed":5696,"tality":5697,"Ġnull":5698,"ĠAPOE":5699,"istence":5700,"ĠCells":5701,"Ġstream":5702,"ypical":5703,"ĠUK":5704,"ignment":5705,"oxy":5706,"49":5707,"Ġsimulation":5708,"Ġchildhood":5709,"Ġincidence":5710,"Ġserotonin":5711,"Ġorth":5712,"Ġdifficulty":5713,"Ġmel":5714,"Ġreceive":5715,"Ġreturn":5716,"Ġrise":5717,"oural":5718,"Ġscales":5719,"Ġhospital":5720,"86":5721,"Ġcomorbid":5722,"Ġoccurrence":5723,"Ġvalidated":5724,"Ġlocalized":5725,"Ġachieve":5726,"EK":5727,"Ġtail":5728,"opic":5729,"Ġgrad":5730,"Ġidea":5731,"rafish":5732,"Ġcost":5733,"ĠConsistent":5734,"Ġiron":5735,"Ġscreening":5736,"+)":5737,"Ġtranscriptional":5738,"dehy":5739,"innitus":5740,"jug":5741,"ĠPM":5742,"Ġmill":5743,"ĠID":5744,"Ġsusceptibility":5745,"Ġoptical":5746,"oting":5747,"Ġamino":5748,"ĠMEG":5749,"Ġfiltered":5750,"ociation":5751,"well":5752,"Ġdepth":5753,"Ġbelie":5754,"ĠStudy":5755,"ĠInstitute":5756,"Ġ300":5757,"Ġdepri":5758,"Ġfundam":5759,"Ġepileptic":5760,"Ġprecurs":5761,"Ġprotective":5762,"tile":5763,"Ġprincipal":5764,"atient":5765,"Ġadop":5766,"Ġmembers":5767,"Ġvariations":5768,"berg":5769,"aspase":5770,"prising":5771,"Ġinteresting":5772,"Ġcapture":5773,"Ġbiomarker":5774,"Ġnode":5775,"avor":5776,"thood":5777,"Ġarray":5778,"injec":5779,"UT":5780,"Ġtherapies":5781,"Ġdiverse":5782,"Ġ36":5783,"dis":5784,"Ġimm":5785,"AA":5786,"aussian":5787,"Ġneeds":5788,"Ġcorrelate":5789,"ĠInterest":5790,"Ġmoving":5791,"ulthood":5792,"ĠDS":5793,"land":5794,"ĠON":5795,"Ġaggregation":5796,"ames":5797,"Ġcoordinates":5798,"ifying":5799,"ignal":5800,"obl":5801,"Ġupregulated":5802,"otoxic":5803,"tests":5804,"Ġfigure":5805,"005":5806,"dehyde":5807,"lit":5808,"yelination":5809,"icep":5810,"ĠMicro":5811,"Ġtranslation":5812,"Ġregulates":5813,"ubiquit":5814,"Ġstabil":5815,"Ġdirections":5816,"Ġefficient":5817,"subject":5818,"pers":5819,"ĠStudent":5820,"ĠLFP":5821,"Ġneuropsychological":5822,"Ġsupports":5823,"Ġconfocal":5824,"driven":5825,"Ġadjacent":5826,"ĠOnly":5827,"Ġraw":5828,"Ġattenuated":5829,"axis":5830,"Ġconventional":5831,"Ġlamin":5832,"labeled":5833,"Ġanticip":5834,"Ġprolonged":5835,"Ġcohorts":5836,"inv":5837,"Ġpropag":5838,"IL":5839,"irth":5840,"Ġtuning":5841,"Ġperspective":5842,"Ġplotted":5843,"lt":5844,"Ġdiffered":5845,"actile":5846,"Ġtrauma":5847,"Ġcandidate":5848,"Ġproduct":5849,"matched":5850,"Ġvision":5851,"Ġconfig":5852,"PP":5853,"ĠOp":5854,"ÎºB":5855,"Ġmortality":5856,"Ġshorter":5857,"icians":5858,"Ġmaximal":5859,"Ġuncertain":5860,"Ġdocum":5861,"ĠTDP":5862,"Ġadverse":5863,"Ġcharacterize":5864,"tives":5865,"Ġadulthood":5866,"Ġexisting":5867,"ĠAmong":5868,"occ":5869,"ĠHence":5870,"Ġlet":5871,"Ġsigns":5872,"Ġneurodevelop":5873,"ĠFrom":5874,"Ġperme":5875,"Ġexplic":5876,"rees":5877,"Ġlif":5878,"Ġtracking":5879,"Ġconditioned":5880,"bility":5881,"affec":5882,"seud":5883,"TG":5884,"Ġchain":5885,"pon":5886,"%.":5887,"ĠRed":5888,"Ġquantify":5889,"ye":5890,"ĠTogether":5891,"Ġanalog":5892,"Ġskills":5893,"ĠMost":5894,"Ġserve":5895,"Ġconsidering":5896,"ĠNotably":5897,"Ġencephal":5898,"Ġperf":5899,"Ġhypothalamus":5900,"ĠEMG":5901,"Ġformed":5902,"EF":5903,"ĠDO":5904,"Ġnig":5905,"Ġpeaks":5906,"ĠSeveral":5907,"Ġrodent":5908,"Ġcarry":5909,"Ġatlas":5910,"Ġreferred":5911,"ĠCal":5912,"ĠDC":5913,"Es":5914,"Ġhous":5915,"Ġmusic":5916,"Ab":5917,"ĠCre":5918,"Ġamb":5919,"tension":5920,"Ġconcept":5921,"ĠâĪ¼":5922,"Ġrelevance":5923,"ĠSU":5924,"unc":5925,"Ġur":5926,"Ġintegrated":5927,"ĠBA":5928,"Ġmeasuring":5929,"Ġlymph":5930,"Ġintermediate":5931,"oxia":5932,"ĠSo":5933,"Ġoccurring":5934,"Ġinvestigating":5935,"Ġidentity":5936,"Ġreflex":5937,"utional":5938,"ref":5939,"ĠCX":5940,"Ġsurgical":5941,"Ġexplicit":5942,"trial":5943,"Ġrule":5944,"ĠPur":5945,"Ġgrid":5946,"nm":5947,"ĠNational":5948,"ĠConclusion":5949,"ĠTre":5950,"DM":5951,"elihood":5952,"Ġconnect":5953,"jured":5954,"Ġselectively":5955,"ippocampal":5956,"Ġtranscript":5957,"63":5958,"isual":5959,"Ġâī¤":5960,"limb":5961,"Ġinstrum":5962,"Ġtheore":5963,"era":5964,"alities":5965,"Ġperson":5966,"ĠBriefly":5967,"ĠHospital":5968,"Ġartifacts":5969,"Ġopi":5970,"ĠQuantification":5971,"ĠTu":5972,"ĠÎ¼g":5973,"NM":5974,"adic":5975,"raining":5976,"synaptic":5977,"HA":5978,"ocalization":5979,"Ġeffort":5980,"Ġongoing":5981,"Ġinitially":5982,"vey":5983,"terminal":5984,"Ġdiscovery":5985,"acement":5986,"Ġmedia":5987,"Figures":5988,"luding":5989,"Although":5990,"Ġ\"":5991,"Ġtransferred":5992,"Ġinitiation":5993,"Ġsoma":5994,"isms":5995,"Me":5996,"Ġnumerous":5997,"ĠStudies":5998,"Ġassessments":5999,"gans":6000,"Ġillness":6001,"avig":6002,"Ġdeb":6003,"Ġhemorrh":6004,"Ġidentifying":6005,"Ġtinnitus":6006,"ples":6007,"Ġclaim":6008,"Ġblocking":6009,"binding":6010,"Ġswit":6011,"seq":6012,"Ġdeficiency":6013,"Ġrabbit":6014,"Ġlearned":6015,"Sigma":6016,"Im":6017,"58":6018,"isions":6019,"ĠĊĠĠĠĠĊ":6020,"ĠmGlu":6021,"Ġputative":6022,"Ġtrace":6023,"Ġfibr":6024,"entate":6025,"itney":6026,"Ġbrief":6027,"ceptor":6028,"Ġhis":6029,"Ġguidelines":6030,"xy":6031,"Ġrhythm":6032,"Ġhall":6033,"Ġanesthesia":6034,"omotion":6035,"Ġfusion":6036,"relevant":6037,"Ġobes":6038,"Ġcoupled":6039,"Ġpositions":6040,"Ġphon":6041,"Ġzebrafish":6042,"annel":6043,"Ġparticipate":6044,"Ġhighlight":6045,"ĠRS":6046,"Ġdefects":6047,"Ġwithdrawal":6048,"Ġcentrifug":6049,"acting":6050,"Ġintracranial":6051,"Ġinsights":6052,"oints":6053,"Ġmultiv":6054,"Ġpredominantly":6055,"Ġarchitecture":6056,"Ġexplanation":6057,"RN":6058,"ustom":6059,"ocyte":6060,"Res":6061,"ĠSW":6062,"Ġmammalian":6063,"sur":6064,"oustic":6065,"olidation":6066,"Ġembryonic":6067,"Ġsimulated":6068,"Ġranging":6069,"Ġeti":6070,"ĠDRG":6071,"oming":6072,"Ġhind":6073,"Ġrank":6074,"Ġjoint":6075,"mPFC":6076,"ĠTime":6077,"ĠCar":6078,"Ġequivalent":6079,"Ġinvolve":6080,"ĠFour":6081,"Ġpatch":6082,"ĠPSD":6083,"orn":6084,"Ġlisten":6085,"Ġincubation":6086,"Ġdefault":6087,"Ġpurpose":6088,"uli":6089,"ĠWil":6090,"EL":6091,"Ġexpans":6092,"ĠHigh":6093,"ache":6094,"ulatory":6095,"Ġclosed":6096,"FS":6097,"Ġepit":6098,"Ġconsequence":6099,"Ġfronto":6100,"oper":6101,"Ġsubs":6102,"pread":6103,"Ġclasses":6104,"ĠNAc":6105,"Ġvisu":6106,"Ġpronoun":6107,"ai":6108,"derly":6109,"Ġganglion":6110,"Ġcompris":6111,"Ġpathophysiology":6112,"Ġcallos":6113,"Ġ72":6114,"DI":6115,"ighting":6116,"aldehyde":6117,"Ġreceiving":6118,"ĠRecent":6119,"Com":6120,"Ġmediate":6121,"Ġcode":6122,"Ġdependence":6123,"Ġpassive":6124,"Ġdimension":6125,"Ġtransfected":6126,"Ġaden":6127,"Ġheat":6128,"Ġ(<":6129,"ĠCV":6130,"pr":6131,"Ġdirected":6132,"Ġsimulations":6133,"ĠGW":6134,"Ġmemories":6135,"Ġsimilarly":6136,"Ġphenomenon":6137,"Ġfunctionally":6138,"Ġimplications":6139,"methyl":6140,"Ġexperiences":6141,"ĠSNPs":6142,"mortem":6143,"ĠRel":6144,"Ġsole":6145,"nat":6146,"ĠTaken":6147,"Ġthrom":6148,"iltr":6149,"Ġconv":6150,"ulse":6151,"MCI":6152,"Pre":6153,"sk":6154,"med":6155,"Ġratios":6156,"ĠPL":6157,"ophila":6158,"Ġplaques":6159,"otypic":6160,"Ġbirth":6161,"HR":6162,"77":6163,"rotein":6164,"Ġtoler":6165,"Ġge":6166,"osine":6167,"Ġutilized":6168,"ĠSOD":6169,"Ġhard":6170,"Ġupregulation":6171,"ĠEP":6172,"Ġresidual":6173,"ulties":6174,"je":6175,"Ġstandardized":6176,"ĠGaussian":6177,"Ġinstructions":6178,"Ġketamine":6179,"Ġmanagement":6180,"Ġpromotes":6181,"400":6182,"Ġpanels":6183,"Ġ150":6184,"rosophila":6185,"Ġminimal":6186,"Ġinn":6187,"Ġvarying":6188,"alyses":6189,"Ġanesthetized":6190,"Ġantidepressant":6191,"Ġdefine":6192,"Ġclar":6193,"Ġcolle":6194,"Ġrepeat":6195,"Ġpolymorph":6196,"Ġtens":6197,"areness":6198,"making":6199,"Ġneurotransmitter":6200,"amide":6201,"vity":6202,"Ġsense":6203,"ĠBay":6204,"reased":6205,"Ġpulses":6206,"Ġinterference":6207,"llig":6208,"ĠICA":6209,"Ġdiabetes":6210,"Ġkind":6211,"agen":6212,"Ġdentate":6213,"ĠAlex":6214,"ini":6215,"ĠDTI":6216,"Ġones":6217,"umm":6218,"OP":6219,"ano":6220,"Ġslope":6221,"position":6222,"ulsive":6223,"lisher":6224,"Ġimprovements":6225,"Ġsuppress":6226,"ashed":6227,"Ġremoval":6228,"Ġmanipulation":6229,"band":6230,"92":6231,"Ġaggregates":6232,"Ġregeneration":6233,"ĠBo":6234,"Ġlargest":6235,"ĠModel":6236,"tau":6237,"ema":6238,"IM":6239,"riatal":6240,"lur":6241,"Ġassessing":6242,"central":6243,"Ġmim":6244,"Ġdrop":6245,"Ġfundamental":6246,"Ġperfusion":6247,"Ġcarriers":6248,"ĠAV":6249,"Ġbehavioural":6250,"ĠFunctional":6251,"ĠNaCl":6252,"tified":6253,"Whitney":6254,"III":6255,"ĠGP":6256,"Ġhr":6257,"ĠAdditional":6258,"Ġvesicles":6259,"uing":6260,"ĠIs":6261,"ChR":6262,"Ġsmooth":6263,"amples":6264,"trophic":6265,"ĠSur":6266,"ĠPearson":6267,"73":6268,"Ġexploration":6269,"Ġdimin":6270,"Ġfluctuations":6271,"51":6272,"âĢ²-":6273,"ĠMann":6274,"Ġprecision":6275,"Ġdot":6276,"Ġcommunity":6277,"Ġepisodic":6278,"oll":6279,"Ġcomprehensive":6280,"Ġelderly":6281,"Ġavoidance":6282,"ĠRP":6283,"ĠSigma":6284,"tributions":6285,"ato":6286,"ĠNE":6287,"Ġintroduced":6288,"ply":6289,"Ġrecurrent":6290,"ĠChina":6291,"Ġsuccessfully":6292,"radi":6293,"Ġwall":6294,"ÎĶ":6295,"ilt":6296,"Ġubiquit":6297,"Ġbehaviour":6298,"Is":6299,"Ġdimensions":6300,"GL":6301,"pinal":6302,"spring":6303,"Ġvessels":6304,"Ġparadigms":6305,"Ġfrequent":6306,"Ġmembranes":6307,"Ġadvanced":6308,"Ġmachine":6309,"Ġrelap":6310,"Ġdiag":6311,"Ġalgorithms":6312,"Ġknockdown":6313,"terol":6314,"tiveness":6315,"ocl":6316,"Ġmentioned":6317,"ĠROS":6318,"Ġshock":6319,"Ġhybrid":6320,"Ġoverlapping":6321,"Ġdecisions":6322,"Ġcaudate":6323,"Ġmind":6324,";=":6325,"Ġterminal":6326,"Ġpronounced":6327,"Ġprobably":6328,"gramm":6329,"ĠOr":6330,"Ġexclus":6331,"aster":6332,"nt":6333,"ĠMg":6334,"Ġcircuitry":6335,"otherapy":6336,"tructural":6337,"Ald":6338,"Ġdyn":6339,"Ġtransc":6340,"Ġsubstrate":6341,"Ġinterpreted":6342,"atives":6343,"Ġconstruct":6344,"Ġgranule":6345,"Î¼M":6346,"rane":6347,"RA":6348,"91":6349,"Ġsounds":6350,"Ġmotivation":6351,"ĠTau":6352,"bur":6353,"ĠTE":6354,"MSE":6355,"vitrogen":6356,"ĠMod":6357,"Ġresources":6358,"Ġscalp":6359,"Ġfewer":6360,"Ġtrajectories":6361,"Ġinsight":6362,"Ġqual":6363,"Ġdifficulties":6364,"ĠIS":6365,"Ġwidth":6366,"Ġreflecting":6367,"ĠIQ":6368,"Ġpathogenic":6369,"Ġpseud":6370,"connec":6371,"Ġavailability":6372,"odynamic":6373,"Ġarrows":6374,"Ġemotions":6375,"kines":6376,"Ġfold":6377,"ophys":6378,"Ġneuroscience":6379,"Ġtranscripts":6380,"glia":6381,"pi":6382,"DG":6383,"Ġneuroto":6384,"Ġimmunoreactivity":6385,"roll":6386,"Ġdescri":6387,"Ġsurrounding":6388,"Ġcustom":6389,"Ġepig":6390,"Ġrot":6391,"Ġactivations":6392,"Ġexamining":6393,"Ġcoordination":6394,"ĠDrosophila":6395,"istant":6396,"uneus":6397,"87":6398,"ĠCompared":6399,";&#":6400,"Ġelimin":6401,"Ġmir":6402,"Ġcardiac":6403,"Ġminutes":6404,"ho":6405,"Ġreproduc":6406,"ptive":6407,"Ġcomposed":6408,"Ġmidbrain":6409,"Ġsafety":6410,"Ġattributed":6411,"ste":6412,"Ġadapt":6413,"ACC":6414,"Ġair":6415,"Ġnerves":6416,"Ġregardless":6417,"ĠMO":6418,"Ġdecoding":6419,"selec":6420,"Ġwake":6421,"rus":6422,"chang":6423,"Ġlikelihood":6424,"Ġquestionnaire":6425,"Ġgaze":6426,"ĠCy":6427,"Ġwar":6428,"utamen":6429,"HI":6430,"Ġwhy":6431,"Ġther":6432,"Ġkept":6433,"Ġaberr":6434,"affected":6435,"002":6436,"Ġagents":6437,"Ġdriving":6438,"lurane":6439,"%;":6440,"Ġsettings":6441,"Ġexpressions":6442,"ulative":6443,"Ġmodalities":6444,"ĠNL":6445,"Ġstarted":6446,"Ġglia":6447,"Ġcover":6448,"Ġtrajectory":6449,"load":6450,"ĠOP":6451,"totic":6452,"Ġeffectively":6453,"Ġnavig":6454,"Ġinfiltr":6455,"Ġembed":6456,"Ġconsists":6457,"ĠDr":6458,"Ġbase":6459,"athetic":6460,"Ġpeptides":6461,"Ġminor":6462,"GD":6463,"Ġsecretion":6464,"Ġseparation":6465,"Aldrich":6466,"Ġtremor":6467,"ift":6468,"actin":6469,"Ġinstructed":6470,"Ġtet":6471,"Ġpicture":6472,"MK":6473,"Ġpregn":6474,"Ġissues":6475,"Ġresponding":6476,"Ġbreak":6477,"cognitive":6478,"Ġ1000":6479,"Ġgi":6480,"Ġnicotine":6481,"Ġbenefits":6482,"Ġwides":6483,"ĠNMDAR":6484,"ĠOb":6485,"yelin":6486,"Ġcounts":6487,"Ġ(âĢľ":6488,"Ġextra":6489,"ĠIFN":6490,"Ġrunning":6491,"52":6492,"fort":6493,"ĠFS":6494,"Ġwidespread":6495,"anned":6496,"Ġshap":6497,"Ġextraction":6498,"ĠGene":6499,"Ġextrem":6500,"ĠTg":6501,"black":6502,"Ġhemispheres":6503,";=&#":6504,"herry":6505,"Ġlacking":6506,"hoc":6507,"ĠThree":6508,"ĠSTN":6509,"Ġreleased":6510,"Ġspatially":6511,"Ġchoices":6512,"ĠAL":6513,"ĠFigures":6514,"osing":6515,"Ġmonth":6516,"Ġnormally":6517,"ca":6518,"versive":6519,"Ġselectivity":6520,"Ġinvestigations":6521,"weeks":6522,"Ġquad":6523,"ĠTukey":6524,"Ġansw":6525,"Ġcage":6526,"Ġconsisting":6527,"Ġlocomotion":6528,"eur":6529,"ker":6530,"asic":6531,"Ġcorpus":6532,"Ġapplications":6533,"ĠSw":6534,"Ġassemb":6535,"ĠMC":6536,"osterone":6537,"ĠMB":6538,"apan":6539,"Ġoffspring":6540,"Ġpredictors":6541,"Ġcir":6542,"Ġcam":6543,"ĠMulti":6544,"Ġnecessarily":6545,"Ġcomposition":6546,"Ġlist":6547,"onset":6548,"inhib":6549,"Ġdeprivation":6550,"ĠConclusions":6551,"jugated":6552,"Ġassumed":6553,"Ġindeed":6554,"Ġotherwise":6555,"Ġnormalization":6556,"immune":6557,"trom":6558,".âĢĿ":6559,"anding":6560,"iences":6561,"containing":6562,"target":6563,"Ġgeneralized":6564,"Ġafferent":6565,"#####":6566,"Ġna":6567,"Ġrostr":6568,"Ġneurof":6569,"Ġtraff":6570,"ĠDise":6571,"Ġcontributing":6572,"Ġputamen":6573,"Ġtook":6574,"nce":6575,"Ġisolation":6576,"ĠBar":6577,"lie":6578,"Ġcasc":6579,"Ġsynchronization":6580,"untary":6581,"Ġdemonstrates":6582,"/-":6583,"ĠEAE":6584,"61":6585,"Ġexist":6586,"Ġfetal":6587,"iveness":6588,"condition":6589,"pathetic":6590,"Ġpel":6591,"Ġrepetitive":6592,"ĠSubjects":6593,"Ġkit":6594,"Ġple":6595,"ĠContributions":6596,"Ġgut":6597,"ĠCare":6598,"lik":6599,"stance":6600,"Ġgas":6601,"Ġimmediate":6602,"Ġoscillatory":6603,"Ġclassifier":6604,"Ġabsent":6605,"Ġlimitation":6606,"ĠNT":6607,"Ġages":6608,"Ġdepletion":6609,"Ġtraumatic":6610,"ĠPe":6611,"Ġconclude":6612,"Ġtoo":6613,"rospinal":6614,"Ġtranspl":6615,"Ġneither":6616,"ĠHuman":6617,"Ġcontextual":6618,"Ġyielded":6619,"Ġreversed":6620,"Ġrout":6621,"Ġ29":6622,"Ġmodifications":6623,"Ġmakes":6624,"83":6625,"Ġtransformation":6626,"Ġapplying":6627,"Ġacoustic":6628,"Ġlocus":6629,"Ġcreate":6630,"ĠEuro":6631,"olesterol":6632,"ĠNC":6633,"Ġinactivation":6634,"adren":6635,"Ġreaching":6636,"Ġsubc":6637,"Ġcycles":6638,"Ġheterogeneous":6639,"two":6640,"ĠICH":6641,"ĠTP":6642,"API":6643,"Ġsquare":6644,"Ġunex":6645,"ensitivity":6646,"Ġneonatal":6647,"ĠrTMS":6648,"uity":6649,"Ġfreezing":6650,"Ġempir":6651,"Ġtouch":6652,"ĠMG":6653,"Ġplane":6654,"Ġexpansion":6655,"ochemical":6656,"Ġnamely":6657,"osc":6658,"Ġinfusion":6659,"DS":6660,"Ġkeep":6661,"matic":6662,"Ġweighted":6663,"Ġcompounds":6664,"astic":6665,"agent":6666,"Ġpure":6667,"Ġcaspase":6668,"hinal":6669,"Ġoffer":6670,"ĠMat":6671,"forward":6672,"sample":6673,"aterally":6674,"Ġ33":6675,"No":6676,"Ġnine":6677,"Ġbelong":6678,"Ġclassical":6679,"Ġphag":6680,"ĠMAT":6681,"Ġproximal":6682,"Ã©":6683,"Ġtwice":6684,"ĠAF":6685,"Cherry":6686,"cox":6687,"Ġskull":6688,"One":6689,"Ġreactivity":6690,"ĠTLR":6691,"ĠIR":6692,"Ġchance":6693,"ĠNext":6694,"Ġcorresponds":6695,"Ġtrait":6696,"lecular":6697,"itization":6698,"Ġwhisk":6699,"Ġcannab":6700,"fulness":6701,"ĠExpression":6702,"Ġsuppressed":6703,"kinje":6704,"Ġcolleag":6705,"84":6706,"54":6707,";-":6708,"HP":6709,"Ġreduc":6710,"Ġcoil":6711,"Ġconstructed":6712,"Ġmodule":6713,"Ġtext":6714,"ackground":6715,"ĠcDNA":6716,"Ġhomogen":6717,"itored":6718,"Ġsuffer":6719,"Ġreporting":6720,"tering":6721,"Ġusers":6722,"Ġgenotypes":6723,"ĠLH":6724,"Ġcongr":6725,"Ġtonic":6726,"ongru":6727,"Ġcriterion":6728,"pend":6729,"Ġsor":6730,"ribed":6731,"omics":6732,"Ġhypoxia":6733,"09":6734,"ĠJapan":6735,"ming":6736,"Ġfoot":6737,"Ġvalence":6738,"Ġawareness":6739,"Ġpall":6740,"Ġhighlighted":6741,"Ġtransporter":6742,"apping":6743,"aid":6744,"Ġsplic":6745,"Ġpermut":6746,"onical":6747,"Ġren":6748,"Ġtactile":6749,"Ġencoded":6750,"tia":6751,"Ġreconstruction":6752,"ĠBP":6753,"Ġfeel":6754,"aly":6755,"idine":6756,"sectional":6757,"Ġneighbor":6758,"haps":6759,"Rec":6760,"ĠAlexa":6761,"Ġecho":6762,"aker":6763,"69":6764,"timately":6765,"Ġsulc":6766,"Ġrecomb":6767,"Ġmissing":6768,"Ġcolleagues":6769,"erge":6770,"Ġcat":6771,"amb":6772,"Ġdeposition":6773,"Ġmother":6774,"Ġmonitored":6775,"Ġsuit":6776,"Ġpreferred":6777,"ĠUS":6778,"Ġchallenges":6779,"Ġrepair":6780,"isation":6781,"Ġexceed":6782,"cting":6783,"Ms":6784,"Ġembryos":6785,"ĠCG":6786,"Ġunderlie":6787,"Ġrecognized":6788,"82":6789,"ĠBehavioral":6790,"Ġhapp":6791,"Ġreasons":6792,"Ġautomated":6793,"Ġprevented":6794,"ĠExperimental":6795,"Ġven":6796,"Ġextension":6797,"At":6798,"Ġacids":6799,"ethyl":6800,"BR":6801,"LAB":6802,"Ġfeeding":6803,"Ġneurobi":6804,"eting":6805,"ĠMa":6806,"Ġsuic":6807,"ĠAssess":6808,"Ġwaves":6809,"vate":6810,"ĠTask":6811,"74":6812,"ĠMc":6813,"Ġgest":6814,"ette":6815,"tition":6816,"Ġglass":6817,"Ġoligodendrocytes":6818,"Ġmonkey":6819,"hemisp":6820,"ening":6821,"rant":6822,"Ġpictures":6823,"ols":6824,"reported":6825,"ĠmiRNA":6826,"coxon":6827,"ME":6828,"Ġtriggered":6829,"inese":6830,"Ġnever":6831,"lasts":6832,"Ġcongru":6833,"ervation":6834,"Ġmultivariate":6835,"Ġadolescence":6836,"Ġeasily":6837,"ĠSR":6838,"lob":6839,"Ġmanual":6840,"Ġemphas":6841,"Ġrostral":6842,"Ġdomin":6843,"79":6844,"Ġvalidity":6845,"Ġice":6846,"Ġmanually":6847,"lysis":6848,"Ġundergo":6849,"Ġpreclinical":6850,"Ġrotation":6851,"Ġtoxicity":6852,"Ġvisualized":6853,"202":6854,"NOS":6855,"Ġconsciousness":6856,"ĠGC":6857,"Ġplan":6858,"Ther":6859,"poses":6860,"ĠmiRNAs":6861,"Ġsynapt":6862,"otide":6863,"Ġbil":6864,"roid":6865,"Ġrecip":6866,"Ã¼":6867,"Ġlarv":6868,"Ġsomatic":6869,"Ġpredictor":6870,"Ġangi":6871,"Ġconductance":6872,"ĠÂµm":6873,"Sh":6874,"Ġtraditional":6875,"ĠSyn":6876,"ĠBayes":6877,"rod":6878,"Ġbund":6879,"Ġautonomic":6880,"Ġextend":6881,"ycin":6882,"Ġ64":6883,"Ġfavor":6884,"Ġneurodevelopmental":6885,"Ġ31":6886,"Ġchemical":6887,"Ġruns":6888,"esides":6889,"71":6890,"cam":6891,"het":6892,"ash":6893,"negative":6894,"Ġtheoretical":6895,"Ġdescription":6896,"formed":6897,"ĠImaging":6898,"ĠEurope":6899,"portun":6900,"chym":6901,"PSS":6902,"ĠREM":6903,"Ġlatencies":6904,"bre":6905,"59":6906,"ĠPurkinje":6907,"ĠGo":6908,"Ġarticles":6909,"tracted":6910,"ica":6911,"ĠkHz":6912,"invasive":6913,"Ġml":6914,"Ġsubtype":6915,"ĠBMI":6916,"Ġgive":6917,"ĠUnder":6918,"light":6919,"Ġenroll":6920,"Ġouter":6921,"Ġswitch":6922,"Ġscenari":6923,"aseline":6924,"Ġslower":6925,"ks":6926,"Ġretention":6927,"Ġliving":6928,"Ġcapable":6929,"Ġmounted":6930,"ĠMMP":6931,"Ġexcessive":6932,"Ġobvious":6933,"ĠPN":6934,"zen":6935,"ĠOl":6936,"bs":6937,"-,":6938,"Ġdefinition":6939,"uffered":6940,"ĠDLPFC":6941,"pop":6942,"Ġinterface":6943,"Ġ120":6944,"Ġcoronal":6945,"ĠMEP":6946,"tency":6947,"Ġmotif":6948,"Ġbacter":6949,"Ġoccup":6950,"Ġvisible":6951,"keletal":6952,"Ġgrowing":6953,"Thermo":6954,"Ġfine":6955,"Ġmaintaining":6956,"Ġconserved":6957,"Ġsi":6958,"Ġbout":6959,"Ġmolecule":6960,"ceptive":6961,"ested":6962,"ibration":6963,"Ġgrey":6964,"ĠLRR":6965,"ĠGR":6966,"Ġswim":6967,"Ġelectron":6968,"Ġenab":6969,"Da":6970,"Ġneurotoxic":6971,"Ġpackage":6972,"men":6973,"FR":6974,"Ġenable":6975,"ĠChinese":6976,"Ġconstrain":6977,"Ġaccurately":6978,"81":6979,"Ġworse":6980,"aste":6981,"Ġdegrees":6982,"Ġthreat":6983,"Ġcallosum":6984,"Ġcatal":6985,"Ġexclusion":6986,"OX":6987,"iral":6988,"Ġvectors":6989,"Ġsuperf":6990,"Ġradial":6991,"Ġquick":6992,"Ġopportun":6993,"rob":6994,"Ġligand":6995,"Ġdisrupted":6996,"ĠError":6997,"ĠTA":6998,"ĠSMA":6999,"Ġconclusions":7000,"Par":7001,"Ġpara":7002,"Ġconceptual":7003,"Ġpooled":7004,"resolution":7005,"Ġforebrain":7006,"Ġisoforms":7007,"yst":7008,"hematic":7009,"Ġunilateral":7010,"Ġimaged":7011,"Ġcalculate":7012,"Ġmicrobi":7013,"ĠBCI":7014,"gent":7015,"Ġunpaired":7016,"Ġlimbic":7017,"Ġmodality":7018,"Ġventric":7019,"Ġsummarized":7020,"Ġillustrated":7021,"aved":7022,"tisol":7023,"Ġasymmetry":7024,"ota":7025,"Ġdecreasing":7026,"irus":7027,"DP":7028,"arp":7029,"Ġtechnology":7030,"Ġrepetition":7031,"expression":7032,"HS":7033,"stain":7034,"ĠRG":7035,"Ġreversal":7036,"arities":7037,"Ġvirtual":7038,"Ġaversive":7039,"Ġcaps":7040,"ĠAI":7041,"Ġinside":7042,"Ġdemographic":7043,"Be":7044,"Ġauthor":7045,"Ġgel":7046,"Ġimmunohistochemistry":7047,"Ġchallenging":7048,"Ġhypotheses":7049,"Ġcircles":7050,"oneur":7051,"Ġmatching":7052,"Ġpoorly":7053,"Ġattack":7054,"ĠCognitive":7055,"ĠProtein":7056,"head":7057,"Ġverte":7058,"Ġhub":7059,"89":7060,"Ġintensities":7061,"Ġsubgroups":7062,"Sc":7063,"tificial":7064,"Ġcardiovascular":7065,"igen":7066,"ministration":7067,"TL":7068,"Ġannot":7069,"ĠMCA":7070,"ught":7071,"ensus":7072,"aracter":7073,"ĠCenter":7074,"rs":7075,"Ġepochs":7076,"Ġmodulating":7077,"Ġdelta":7078,"Ġdiluted":7079,"Ġimplanted":7080,"channel":7081,"care":7082,"umulative":7083,"sensitive":7084,"Ġpotentiation":7085,"entially":7086,"Ġenough":7087,"tech":7088,"ĠML":7089,"Ġconsolidation":7090,"Ġbone":7091,"Ġcaptured":7092,"Ġnotion":7093,"Ġprospective":7094,"Ġ250":7095,"erating":7096,"Ġvessel":7097,"Ġcerebrospinal":7098,"Ġvisually":7099,"Ġfasc":7100,"Ġadhes":7101,"ipped":7102,"Ġportion":7103,"Ġsimply":7104,"ĠIN":7105,"Ġground":7106,"Ġsymmet":7107,"lim":7108,"ĠâĢĲ":7109,"Ġexamples":7110,"ĠDisease":7111,"arse":7112,"Ġoptogenetic":7113,"ĠSubsequ":7114,"ĠES":7115,"comp":7116,"Ġexecution":7117,"GN":7118,"Ġprecursor":7119,"Ġacts":7120,"Ġpresum":7121,"Ġpredicting":7122,"Ġcombinations":7123,"Ġmodules":7124,"including":7125,"Ġmixture":7126,"edial":7127,"Ġcounted":7128,"Ġnone":7129,"ĠCx":7130,"pred":7131,"Ġhence":7132,"hyp":7133,"Ġgenomic":7134,"Ġautomatic":7135,"ĠHIV":7136,"ously":7137,"Ġagent":7138,"Ġpunct":7139,"alling":7140,"Ġintellig":7141,"ensity":7142,"Ġuses":7143,"agit":7144,"Am":7145,"Ġincons":7146,"Ġdots":7147,"Ġland":7148,"Ġaligned":7149,"ĠMNI":7150,"Ġabuse":7151,"Ġmidline":7152,"Ġmot":7153,"Ġelectroph":7154,"Ġcaudal":7155,"Ġdevices":7156,"ĠEp":7157,"erase":7158,"olip":7159,"Ġaway":7160,"Ġwestern":7161,"plete":7162,"ĠResp":7163,"Ġsubreg":7164,"Ġexer":7165,"Ġsubstantially":7166,"ĠMF":7167,"Ġways":7168,"ga":7169,"ĠCBF":7170,"Ġobesity":7171,"Ġremove":7172,"ĠActiv":7173,"Ġcausing":7174,"ĠÎ¼l":7175,"Ġimmunofluorescence":7176,"Ġimproving":7177,"Ġcholesterol":7178,"ĠSm":7179,"Ġminimize":7180,"Ġsn":7181,"ĠTreatment":7182,"erebral":7183,"Ġ(âĪĴ":7184,"Ġshare":7185,"outh":7186,"Tg":7187,"Ġhypothalamic":7188,"stimulus":7189,"Ġfamilies":7190,"Ġ65":7191,"inic":7192,"Ġloop":7193,"Ġresidues":7194,"data":7195,"Ġsupplementary":7196,"LISA":7197,"rio":7198,"Ġparticipation":7199,"Ġgoat":7200,"Ġmetabolites":7201,"non":7202,"Ġreductions":7203,"Ġatax":7204,"dT":7205,"Ġsmoking":7206,"ĠPrim":7207,"ĠGluN":7208,"ayer":7209,"ĠElec":7210,"embrane":7211,"icient":7212,"ĠHCs":7213,"ĠAx":7214,"rowth":7215,"glial":7216,"Ġâ":7217,"Ġbecomes":7218,"Ġaddressed":7219,"Ġmatch":7220,"bumin":7221,"ĠdB":7222,"Ġcovariates":7223,"titative":7224,"Ġactin":7225,"Ġsubstance":7226,"idem":7227,"titive":7228,"Ġ34":7229,"ĠmTOR":7230,"ĠConversely":7231,"Ġhabitu":7232,"Ġkern":7233,"Ġdiscon":7234,"003":7235,"ĠInf":7236,"Ġrhythmic":7237,"Ġdecay":7238,"Ġextract":7239,"Ġprobes":7240,"meas":7241,"Ġlever":7242,"Ġdepolarization":7243,"xb":7244,"Ġfish":7245,"ĠTS":7246,"Ġneurite":7247,"Ġnons":7248,"asome":7249,"rium":7250,"Ġjudg":7251,"Ġstead":7252,"Ġlogistic":7253,"GT":7254,"Ã¶":7255,"Ġindices":7256,"ĠFDR":7257,"Ġhomo":7258,"Ġrib":7259,"rices":7260,"Ġelement":7261,"emory":7262,"Ġglut":7263,"Ġepigenetic":7264,"iceptive":7265,"Ġburs":7266,"Ġrewards":7267,"Ġphosphorylated":7268,"Ġadequ":7269,"Ġaberrant":7270,"Ġoral":7271,"Ġneuropsychiatric":7272,"Ġcompartment":7273,"ounts":7274,"Ġopioid":7275,"ĠBackground":7276,"agittal":7277,"Ġneurophysiological":7278,"::":7279,"opa":7280,"Ġguide":7281,"Ġ'":7282,"task":7283,"NK":7284,"Ġultras":7285,"Ġmicrotub":7286,"Ġdepolar":7287,"Ġdram":7288,"likely":7289,"lets":7290,"ij":7291,"OC":7292,"Ġsaccade":7293,"Ġparticipated":7294,"bon":7295,"Ġlowest":7296,"ĠNew":7297,"Ġaneur":7298,"Ġvocal":7299,"Ġclock":7300,"Ġreinforce":7301,"osts":7302,"asticity":7303,"encies":7304,"ĠMeas":7305,"Ġimmunostaining":7306,"olum":7307,"Î¼g":7308,"ĠLRRK":7309,"elves":7310,"Ġinterpret":7311,"Ġsegreg":7312,"Ġhemodynamic":7313,"ĠGSK":7314,"omas":7315,"network":7316,"itions":7317,"PT":7318,"Ġdischarge":7319,"dark":7320,"unn":7321,"Ġuniform":7322,"Ġpolar":7323,"ĠAQ":7324,"Ġafferents":7325,"Ġregistration":7326,"Ġaneurys":7327,"rdU":7328,"zer":7329,"ĠDI":7330,"ĠOT":7331,"ike":7332,"Ġwindows":7333,"ĠNeurolog":7334,"Ġinjured":7335,"Ġimagery":7336,"Ar":7337,"umber":7338,"ĠWithin":7339,"ĠGraph":7340,"Ġfeas":7341,"Ġchemo":7342,"change":7343,"Ġhypertension":7344,"Ġpromoting":7345,"Ġsolely":7346,"from":7347,"lies":7348,"oE":7349,"Ġsuitable":7350,"ĠUse":7351,"Ġju":7352,"Ġhormone":7353,"Ġbursts":7354,"directed":7355,"erm":7356,"Ġtight":7357,"Ġunaffected":7358,"ng":7359,"Ġcry":7360,"Ds":7361,"Ġaug":7362,"Ġaspect":7363,"ĠBLA":7364,"Ġ42":7365,"Ġimplementation":7366,"sin":7367,"fully":7368,"orator":7369,"riton":7370,"Ġassumption":7371,"Ġproduces":7372,"Ġcoll":7373,"acted":7374,"Ġinhibits":7375,"Ġtumors":7376,"cons":7377,"ĠSte":7378,"Ġindividually":7379,"Ġuser":7380,"Ġexistence":7381,"Ġchanging":7382,"itone":7383,"Ġcontrasts":7384,"Ġspind":7385,"paratus":7386,"ictal":7387,"Ġmatrices":7388,"Ġprogenitor":7389,"Ġarms":7390,"Ġneuropathic":7391,"ls":7392,"Ġpig":7393,"Ġunf":7394,"utri":7395,"ĠIndividual":7396,"Ġsituations":7397,"ĠNr":7398,"Ġinhibiting":7399,"ĠMET":7400,"omers":7401,"Ġsubstrates":7402,"ongruent":7403,"Ġexploratory":7404,"Ġcamera":7405,"Ġsplit":7406,"Ġedge":7407,"Ġaffinity":7408,"ament":7409,"Ġadolescent":7410,"tig":7411,"Ġscored":7412,"Ġclearance":7413,"ĠHI":7414,"Ġphotore":7415,"ĠCL":7416,"Ġdemands":7417,"Ġbecame":7418,"onia":7419,"lock":7420,"Ġcortisol":7421,"eng":7422,"Ġstatement":7423,"Ġpostural":7424,"eth":7425,"Ġmediating":7426,"Ġvesicle":7427,"BC":7428,"Ġec":7429,"ĠSF":7430,"AÎ²":7431,"Ġplanning":7432,"Ġflexibility":7433,"ders":7434,"ĠĊĊĊĊ":7435,"ograms":7436,"Ġartificial":7437,"Ġvalu":7438,"acr":7439,"Ġrhythms":7440,"Cor":7441,"Ġfragment":7442,"Ġelicit":7443,"osa":7444,"Ġemerged":7445,"Ġtable":7446,"amination":7447,"Ġcontacts":7448,"Ġcontexts":7449,"Ġnight":7450,"WI":7451,"Ġspatio":7452,"Ġexon":7453,"bound":7454,"ĠTM":7455,"Ġcomplications":7456,"Ġframes":7457,"Ġuncertainty":7458,"Ġstudying":7459,"After":7460,"ĠDAPI":7461,"otin":7462,"Ġrig":7463,"independent":7464,"Os":7465,"ĠAccordingly":7466,"uz":7467,"Ġaxial":7468,"kt":7469,"ĠOFC":7470,"Ġtom":7471,"Ġnative":7472,"Ġetc":7473,"Ġreporter":7474,"Ġcompensatory":7475,"Ġdocumented":7476,"oratories":7477,"lytic":7478,"class":7479,"born":7480,"Ġisof":7481,"ĠRecently":7482,"elior":7483,"Ġng":7484,"ĠOX":7485,"ĠPub":7486,"Ġediting":7487,"Ġvisualization":7488,"wenty":7489,"Ġconsiderable":7490,"Ġneuromod":7491,"Sch":7492,"Ġdifferentiate":7493,"Ġintern":7494,"Ġ400":7495,"Ġexclusively":7496,"Ġtrafficking":7497,"Ġepithe":7498,"Ġassociative":7499,"ĠFluor":7500,"Ġactivates":7501,"Ġepisodes":7502,"inge":7503,"Ġeffectiveness":7504,"Ġcharacterization":7505,"enced":7506,"Ġequally":7507,"ĠAssessment":7508,"PV":7509,"Ã¯":7510,"DAC":7511,"Ġemerging":7512,"Finally":7513,"points":7514,"Ġqualit":7515,"ipit":7516,"Ġocclusion":7517,"ĠACh":7518,"Ġvas":7519,"Ġfilled":7520,"Ġ%":7521,"ĠDR":7522,"ĠTriton":7523,"Ġdetectable":7524,"ĠIba":7525,"response":7526,"Ġprecuneus":7527,"aro":7528,"unte":7529,"vices":7530,"ĠWilcoxon":7531,"Ġmodeled":7532,"ĠGu":7533,"Ġaddiction":7534,"Ġstrains":7535,"tid":7536,"Ġsituation":7537,"Ġenvironments":7538,"ession":7539,"Fos":7540,"nia":7541,"Ġmarg":7542,"Ġastrocytic":7543,"Ġcomplexes":7544,"Ġlitterm":7545,"ĠPsych":7546,"erve":7547,"Ġpupil":7548,"Ġsat":7549,"APP":7550,"Ġdysregulation":7551,"FT":7552,"herent":7553,"Ġheadache":7554,"Ġfitted":7555,"Ġmodification":7556,"Ġalteration":7557,"Ġdiscrete":7558,"human":7559,"Ġlarvae":7560,"Ġatypical":7561,"threshold":7562,"ventricular":7563,"Ġdorsolateral":7564,"Ġunlikely":7565,"Ġsurprising":7566,"Ġ55":7567,"controlled":7568,"vical":7569,"Ġensemb":7570,"Ġcomprised":7571,"Ġdrinking":7572,"Ġshifts":7573,"Ġdisturbances":7574,"Ġbinary":7575,"ned":7576,"ĠTT":7577,"Neuro":7578,"urally":7579,"Ġamelior":7580,"ĠWMH":7581,"ĠFR":7582,"âĢĿ)":7583,"Ġoption":7584,"Ġenzymes":7585,"Ġiter":7586,"Ġdiver":7587,"Ac":7588,"Ġretic":7589,"Ġneurotrophic":7590,"ĠMor":7591,"Ġnan":7592,"Ã¯ve":7593,"pathy":7594,"squ":7595,"Ġautistic":7596,"Ġroot":7597,"oxide":7598,"ĠDue":7599,"Ġreveals":7600,"Ġreactions":7601,"Ġgenerating":7602,"ector":7603,"high":7604,"Ġoptions":7605,"acerb":7606,"Ġhemorrhage":7607,"ĠDN":7608,"Ġmotoneur":7609,"ĠHEK":7610,"Î¼l":7611,"Ġremark":7612,"Ġabol":7613,"which":7614,"Ġetiology":7615,"Ġphosphate":7616,"cit":7617,"ICA":7618,"Ġawake":7619,"kB":7620,"Ġmedications":7621,"Ġboundary":7622,"Ġinteres":7623,"iminary":7624,"Ġwrote":7625,"ĠSNP":7626,"ANOVA":7627,"ĠFT":7628,"Ġpublication":7629,"Ġten":7630,"ĠSchematic":7631,"ĠTechnologies":7632,"Ġdiffus":7633,"OT":7634,"Ġcorrectly":7635,"Ġentry":7636,"nes":7637,"ĠEM":7638,"kal":7639,"Ġappearance":7640,"Ġconsensus":7641,"Ġconsistency":7642,"Ġnewly":7643,"ĠmGluR":7644,"urine":7645,"rosine":7646,"score":7647,"Ġcytoplasmic":7648,"DH":7649,"Ġsolutions":7650,"Ġloo":7651,"Ġ38":7652,"imilar":7653,"Ġhoused":7654,"Ġstatic":7655,"Ġthems":7656,"CoV":7657,"Ġspin":7658,"Bs":7659,"sided":7660,"ceptors":7661,"ĠEngl":7662,"ĠFM":7663,"Ġvag":7664,"Ġthemselves":7665,"Ġsupernat":7666,"gated":7667,"Ġsulcus":7668,"Ġmyelination":7669,"elled":7670,"Ġincreasingly":7671,"quently":7672,"Ġsymb":7673,"Ġblockade":7674,"ĠAmeric":7675,"Ġdetermining":7676,"Ġtreat":7677,"Ġdifferentiated":7678,"Ġ96":7679,"Ġcontinuously":7680,"Ġsexual":7681,"Ġproducts":7682,"ospinal":7683,"Ġscientific":7684,"Ġnearly":7685,"Ġmultim":7686,"ĠERK":7687,"ĠInstitutional":7688,"bens":7689,"Ġresemb":7690,"Ġbulb":7691,"ĠAUC":7692,"ĠKCl":7693,"De":7694,"ĠAIS":7695,"Ġesc":7696,"ĠGWAS":7697,"Ġexacerb":7698,"ump":7699,"Ġtendency":7700,"Ġabundance":7701,"atomical":7702,"Ġinverse":7703,"times":7704,"ief":7705,"eptide":7706,"Met":7707,"Ġsalience":7708,"TBI":7709,"SY":7710,"unting":7711,"Ġhold":7712,"ĠMV":7713,"pm":7714,"Ġvolunte":7715,"Ġran":7716,"anges":7717,"rozen":7718,"Ġneurotransmission":7719,"Ġcombining":7720,"tructure":7721,"YFP":7722,"Ġvulnerability":7723,"hion":7724,"Ġcircum":7725,"Ġenhances":7726,"Ġlisted":7727,"Ġcanonical":7728,"nc":7729,"clamp":7730,"ylation":7731,"phosphory":7732,"Ġformal":7733,"Ġutility":7734,"Ġempirical":7735,"electro":7736,"teen":7737,"esthe":7738,"Ġschool":7739,"Ġwriting":7740,"Ġreceptive":7741,"ĠnM":7742,"Ġpups":7743,"ĠTC":7744,"ĠIntern":7745,"Ġ(*":7746,"Ġmove":7747,"Ġpreceding":7748,"tonia":7749,"Ġactivating":7750,"Ġsoluble":7751,"Ġapical":7752,"Ġsubmitted":7753,"ifi":7754,"Ġmorphine":7755,"adap":7756,"ky":7757,"Ġantagonists":7758,"Ġemission":7759,"changed":7760,"Ġgave":7761,"Ġoffset":7762,"Ġpropagation":7763,"phen":7764,"Ġyellow":7765,"Pro":7766,"Ġmodulates":7767,"selective":7768,"ediatric":7769,"Ġsynchrony":7770,"Ġinstit":7771,"ĠME":7772,"ĠSignificant":7773,"Ġdistances":7774,"gence":7775,"Ġamounts":7776,"Ġnigra":7777,"organization":7778,"Ġlost":7779,"Ġpil":7780,"Ġtravel":7781,"While":7782,"Ġpairwise":7783,"Ġadapted":7784,"Ġarise":7785,"hemispheric":7786,"ĠRE":7787,"Ġimmo":7788,"Ġconcurrent":7789,"Ġhierarchical":7790,"Ġprognosis":7791,"Ġparents":7792,"yll":7793,"Ġsupplemented":7794,"Ġplaque":7795,"Ġcochlear":7796,"after":7797,"Ġregress":7798,"Ġincom":7799,"deficient":7800,"Ġdetecting":7801,"aut":7802,"ĠNIH":7803,"ĠMATLAB":7804,"PET":7805,"Ġdrawn":7806,"ĠSCN":7807,"appro":7808,"Ġselect":7809,"Ġdiscrepan":7810,"Ġcaregi":7811,"Ġreper":7812,"Sp":7813,"Ġperhaps":7814,"PSP":7815,"Ġrely":7816,"Ġcompartments":7817,"ĠTBS":7818,"yle":7819,"Ġagonists":7820,"stroke":7821,"tened":7822,"Ġmil":7823,"Ġaccumbens":7824,"ptin":7825,"Ġnarrow":7826,"Ġisoflurane":7827,"ĠCan":7828,"Gs":7829,"ĠImages":7830,"ĠKit":7831,"Ġvoluntary":7832,"Ġdepicted":7833,"Ġgradually":7834,"gesia":7835,"Ġcomprom":7836,"mouse":7837,"uscular":7838,"Ġdigital":7839,"Ġdiagram":7840,"Ġmarkedly":7841,"Ġartifact":7842,"Ġallevi":7843,"Ġcontinued":7844,"Ġresponded":7845,"eedback":7846,"ĠGAD":7847,"293":7848,"Ġdiversity":7849,"rep":7850,"bottom":7851,"llec":7852,"Ġsteady":7853,"Ġliver":7854,"ĠComparison":7855,"Ġdeviations":7856,"peritone":7857,"eck":7858,"loride":7859,"Ġviol":7860,"Ġsimpl":7861,"Ġsampled":7862,"Ġcenters":7863,"itting":7864,"ardi":7865,"ĠLeft":7866,"keleton":7867,"parametric":7868,"004":7869,"ĠThird":7870,"Des":7871,"ĠET":7872,"ĠNetwork":7873,"Ġsought":7874,"Ġpitch":7875,"ĠBayesian":7876,"atible":7877,"social":7878,"beta":7879,"ĠELISA":7880,"ĠReview":7881,"Ġdownregulated":7882,"Mo":7883,"Ġplates":7884,"Ġinfected":7885,"ĠPH":7886,"tended":7887,"Ġneocortex":7888,"Ġattempt":7889,"Ġchose":7890,"Ġultimately":7891,"Ġcold":7892,"erences":7893,"formaldehyde":7894,"ĠND":7895,"ĠLong":7896,"ĠHS":7897,"Ġderiv":7898,"otass":7899,"otassium":7900,"Ġhomolog":7901,"protein":7902,"Ġdiminished":7903,"orhinal":7904,"ĠVisual":7905,"ĠHyp":7906,"jection":7907,"Ġlobes":7908,"Ġprem":7909,"Ġinsu":7910,"Ġantipsych":7911,"Ġpipeline":7912,"Ġviewed":7913,"Ġedges":7914,"Ġinference":7915,"emic":7916,"Ġbiochemical":7917,"intens":7918,"encing":7919,"Ġhyperp":7920,"Ġsubstantia":7921,"ynchron":7922,"TBS":7923,"Ġpublisher":7924,"Ġheterozygous":7925,"Ġgenetically":7926,"Ġloci":7927,"worth":7928,"comit":7929,"sensory":7930,"Ġsignalling":7931,"pulse":7932,"Ġpsychosis":7933,"Ġcov":7934,"Ġhistological":7935,"Ġrelate":7936,"ĠpA":7937,"ocular":7938,"Ġsupplement":7939,"Ġtomography":7940,"Ġdecom":7941,"Brain":7942,"ĠWnt":7943,"hetamine":7944,"uclear":7945,"Ġfitting":7946,"ĠRight":7947,"ĠHist":7948,"Ġextensively":7949,"On":7950,"Ġcomputation":7951,"Ġanalysed":7952,"Ġpreserved":7953,"Â°,":7954,"parietal":7955,"Ġreliably":7956,"Ġconverted":7957,"ĠRF":7958,"Ġtechnical":7959,"alk":7960,"rosis":7961,"Ġcheck":7962,"ĠGluA":7963,"Ġpermeability":7964,"ident":7965,"TE":7966,"ĠLike":7967,"idated":7968,"Ġfascic":7969,"UD":7970,"cre":7971,"Ġunable":7972,"Ġengagement":7973,"Ġevaluating":7974,"Ġleuk":7975,"Ġlact":7976,"Ġreplication":7977,"ĠDMS":7978,"ura":7979,"ĠPCA":7980,"UN":7981,"Ġembedded":7982,"ulates":7983,"SO":7984,"Ġkernel":7985,"vents":7986,"llectual":7987,"Ġ(>":7988,"Ġfiltering":7989,"word":7990,"ĠCurrent":7991,"ptions":7992,"Ġadhesion":7993,"MKII":7994,"ĠSDS":7995,"Ġparaformaldehyde":7996,"Ġinterview":7997,"Ġconfiguration":7998,"150":7999,"Ġengaged":8000,"strum":8001,"plex":8002,"otoxicity":8003,"hel":8004,"Ġexpon":8005,"ymptom":8006,"Ġprogramm":8007,"Ġthor":8008,"Ġranges":8009,"Ġaggression":8010,"ĠSARS":8011,"Ġhomeostatic":8012,"Ġautomatically":8013,"ĠVari":8014,"Ġangular":8015,"Ġautoimmune":8016,"Ġassembly":8017,"Ġcomprehension":8018,"âĢĿ,":8019,"IA":8020,"etr":8021,"Ġrelax":8022,"Ġsequential":8023,"ĠConse":8024,"Ġperfused":8025,"quid":8026,"ĠSignal":8027,"Ġindicator":8028,"lyc":8029,"angle":8030,"rank":8031,"Ġpremotor":8032,"orders":8033,"ĠElectro":8034,"avage":8035,"ALS":8036,"etine":8037,"Ġcervical":8038,"ners":8039,"Ġlibr":8040,"Ġsystematically":8041,"Ġinducing":8042,"NIRS":8043,"life":8044,"Ġfront":8045,"Ġstereot":8046,"ĠBut":8047,"Ġimplicit":8048,"Ġmom":8049,"ĠEven":8050,"Ġverified":8051,"Ġexclude":8052,"Ġfacilitation":8053,"Ġ):":8054,"Ġslides":8055,"Ġprogenitors":8056,"Ġpreprocessing":8057,"ĠThat":8058,"Ġuntreated":8059,"Ġinterle":8060,"tor":8061,"apl":8062,"Ġmethodology":8063,"Ġcumulative":8064,"Ġtransm":8065,"Ġscene":8066,"Ġelucidate":8067,"Ġprel":8068,"Ġmammals":8069,"Ġdemyelination":8070,"Ġdistract":8071,"nic":8072,"ĠOut":8073,"Ġprimates":8074,"Ġ44":8075,"Ġsubpop":8076,"ĠMy":8077,"Ġreinforcement":8078,"Ġ(~":8079,"thetic":8080,"but":8081,"adj":8082,"Ġpixels":8083,"Ġlabels":8084,"GR":8085,"Ġmagnification":8086,"ss":8087,"Ġmono":8088,"ĠDo":8089,"Ġcone":8090,"Ġdeline":8091,"hal":8092,"phase":8093,"Ġtube":8094,"ams":8095,"Ġdashed":8096,"ĠHA":8097,"Ġinjur":8098,"Ġsymptomatic":8099,"ĠTotal":8100,"Ġbed":8101,"aran":8102,"icated":8103,"Ġcovers":8104,"oglob":8105,"Ġquickly":8106,"Ġvo":8107,"Ġadmission":8108,"LF":8109,"Ġdendrite":8110,"ulf":8111,"oprotein":8112,"aph":8113,"defined":8114,"Ġtransformed":8115,"vailability":8116,"Ġmimic":8117,"ulsivity":8118,"Ġexert":8119,"Ġpresents":8120,"Ġspectra":8121,"Ġefforts":8122,"Ġsympathetic":8123,"Ġdup":8124,"Ġtaste":8125,"Ġinver":8126,"side":8127,"formance":8128,"Ġconstructs":8129,"Ġheight":8130,"Ġperc":8131,"ĠEuropean":8132,"Ġloading":8133,"orage":8134,"Ġsensors":8135,"ĠEar":8136,"Ġinnate":8137,"umination":8138,"Ġelectroencephal":8139,"Ġbilaterally":8140,"Ġadopted":8141,"earman":8142,"hydr":8143,"Ġplaus":8144,"oclonal":8145,"gthen":8146,"Ġswitching":8147,"ĠFP":8148,"Ġevo":8149,"ocortical":8150,"ira":8151,"obic":8152,"Ġsched":8153,"Ġcalculation":8154,"Ġcoinc":8155,"oz":8156,"ĠMany":8157,"Ġconversion":8158,"Ġsubtle":8159,"Ġdynam":8160,"ĠRD":8161,"ĠTris":8162,"Ġanis":8163,"hang":8164,"Ġnonlinear":8165,"Ġpotent":8166,"ĠSPM":8167,"Ġinitiated":8168,"Ġsentences":8169,"asant":8170,"ĠPan":8171,"Ġantioxid":8172,"ummary":8173,"flow":8174,"Ġapparatus":8175,")/":8176,"angles":8177,"Invitrogen":8178,"Ġoscillation":8179,"Li":8180,"ĠPE":8181,"Ġintellectual":8182,"WE":8183,"Ġranged":8184,"pens":8185,"ĠBrdU":8186,"Ġimproves":8187,"ĠGr":8188,"EGF":8189,"Ġmaca":8190,"These":8191,"ĠSZ":8192,"ĠDem":8193,"Ġhallmark":8194,"attery":8195,"ude":8196,"Ġpotassium":8197,"Ġtag":8198,"Ġneurobiological":8199,"yrosine":8200,"ĠRR":8201,"ĠOCD":8202,"Ġnavigation":8203,"Ġborder":8204,"ofrontal":8205,"rist":8206,"ĠMill":8207,"ĠInstrum":8208,"Ġkinetics":8209,"ider":8210,"120":8211,"Ġexogenous":8212,"Ġaveraging":8213,"Ġorbit":8214,"Ġrich":8215,"Ġspectro":8216,"ĠConsequently":8217,"idering":8218,"Ġhyperactivity":8219,"ativity":8220,"ada":8221,"Ġincorrect":8222,"Ġbutton":8223,"lect":8224,"Ġpresenting":8225,"Ġbreath":8226,"Ġblotting":8227,"gu":8228,"Ġpermutation":8229,"NE":8230,"Ġpreferentially":8231,"Ġconj":8232,"Ġenhancing":8233,"Ġhomogene":8234,"Ġparcell":8235,"venous":8236,"Ġpriming":8237,"Ġunexpected":8238,"ositive":8239,"Ġmediators":8240,"Ġbranch":8241,"Ġaccept":8242,"otomy":8243,"Ġcomplementary":8244,"SE":8245,"ĠAge":8246,"ĠKv":8247,"ĠSchw":8248,"Previous":8249,"Ġfocusing":8250,"pH":8251,"osin":8252,"Ġinfant":8253,"Ġenter":8254,"cribed":8255,"Ġlinks":8256,"Ġintraperitone":8257,"terisk":8258,"Ġpurch":8259,"Ġdystonia":8260,"arged":8261,"Ġrelapse":8262,"Ġserial":8263,"enz":8264,"ĠSTAT":8265,"erebell":8266,"Ġpregnancy":8267,"ĨĴ":8268,"ara":8269,"omato":8270,"Data":8271,"Ġprotection":8272,"Ġvit":8273,"Ġbranches":8274,"such":8275,"Ġanalyzing":8276,"neuro":8277,"Ġsuperficial":8278,"Ġadding":8279,"Ġrefers":8280,"Ġenl":8281,"ĠNeu":8282,"Ġprinciple":8283,"ĠTop":8284,"Ġenrolled":8285,"Ġpreliminary":8286,"Ġoligodendrocyte":8287,"Ġexception":8288,"Ġarterial":8289,"Ġspecified":8290,"Ġsparse":8291,"only":8292,"Ġdim":8293,"ĠTRPV":8294,"Ġconcomit":8295,"Ġsurvey":8296,"Ġdeterior":8297,"Ġcascade":8298,"Ġdiffuse":8299,"Ġestro":8300,"Ġinjuries":8301,"umbar":8302,"ĠcAMP":8303,"Ġthalam":8304,"Ġlag":8305,"rectional":8306,"CG":8307,"Ġglomer":8308,"Ġdecades":8309,"Ġsatis":8310,"Ġviability":8311,"ĠLP":8312,"Ġrescue":8313,"Ġbinds":8314,"MO":8315,"Ġoffers":8316,"Here":8317,"ĠsiRNA":8318,"Ġphonological":8319,"Ġedema":8320,"choline":8321,"Ġtransduction":8322,"rome":8323,"Ġce":8324,"dh":8325,"onin":8326,"ACE":8327,"Ġpurified":8328,"Ġplex":8329,"ĠPCs":8330,"Ġconfounding":8331,"ĠCp":8332,"ersion":8333,"rabbit":8334,"risk":8335,"Ġelevation":8336,"cr":8337,"Ġpartly":8338,"Ġcircle":8339,"Ġfreely":8340,"Ġunchanged":8341,"Ġchron":8342,"250":8343,"Ġentorhinal":8344,"ipore":8345,"ĠCat":8346,"Ġvulnerable":8347,"Ġpositioned":8348,"Ġmusical":8349,"ĠNeurons":8350,"umatic":8351,"ĠVer":8352,"ĠMMSE":8353,"Ġmapped":8354,"Ġphysiology":8355,"Ġcerebro":8356,"Bl":8357,"Ġintelligence":8358,"Ġreplaced":8359,"growth":8360,"Ġretrograde":8361,"Ġquite":8362,"ource":8363,"mus":8364,"pective":8365,"Ġcarrying":8366,"Ġconditional":8367,"ĠPSP":8368,"ĠPB":8369,"Ġmethodological":8370,"lium":8371,"Ġdissected":8372,"respons":8373,"Ġpi":8374,"ĠĊĠĠĊĠ":8375,"ĠEffects":8376,"ias":8377,"Ph":8378,"depend":8379,"PAR":8380,"stances":8381,"injected":8382,"ĠMar":8383,"tocin":8384,"Ġbuild":8385,"ĠRA":8386,"ERK":8387,"Ġoperation":8388,"cription":8389,"Ġfus":8390,"ione":8391,"Ġdensities":8392,"Ġenables":8393,"Ġabundant":8394,"Ġgraphs":8395,"Ġling":8396,"Ġcompos":8397,"anta":8398,"ĠGD":8399,"ux":8400,"ĠScience":8401,"Ġbins":8402,"otopic":8403,"ĠMSA":8404,"Ġviewing":8405,"Ġgy":8406,"Ġwors":8407,"Ġtranscranial":8408,"linked":8409,"Ġadditionally":8410,"ĠEd":8411,"Ġ39":8412,"Ġlive":8413,"PBS":8414,"Pad":8415,"Ġfed":8416,"opo":8417,"Ġtip":8418,"ethe":8419,"Ġtreating":8420,"oprec":8421,"mentioned":8422,")]":8423,"ĠFe":8424,"ĠmTBI":8425,"eiss":8426,"wave":8427,"ilept":8428,"Ġdepressed":8429,"Ġvolunteers":8430,"Ġadvances":8431,"Ġlimits":8432,"pted":8433,"Ġintest":8434,"En":8435,"Ġconsideration":8436,"Ġgrade":8437,"Ġproducing":8438,"Ġextr":8439,"Ġnit":8440,"ett":8441,"ĠBV":8442,"trocy":8443,"Ġcovariance":8444,"Ġvaluable":8445,"ford":8446,"ĠType":8447,"circ":8448,"Ġacting":8449,"ĠPF":8450,"posterior":8451,"NMDA":8452,"alled":8453,"ĠEV":8454,"ather":8455,"Ġstorage":8456,"Ġdepos":8457,"Ġinnervation":8458,"Ġthin":8459,"Ġdip":8460,":</":8461,"Ġround":8462,"Ġdamaged":8463,"ĠGO":8464,"ĠSubsequently":8465,"odeling":8466,"Ġoverexp":8467,"ĠSan":8468,"Ġdurations":8469,"Ġregulator":8470,"Ġpurposes":8471,"Ġdelays":8472,"aline":8473,"ract":8474,"Ġencode":8475,"Ġdownregulation":8476,"Ġdiscussion":8477,"Ġconduction":8478,"Ġapply":8479,"iem":8480,"Ġbelief":8481,"Ġinfarct":8482,"raft":8483,"OA":8484,"Ġget":8485,"Ġgreatly":8486,"Ġsaccades":8487,"Ġfer":8488,"igible":8489,"ĠAQP":8490,"Ġstimulating":8491,"Ġinterneuron":8492,"ocortic":8493,"uistic":8494,"wid":8495,"Ġoutl":8496,"rig":8497,"Ġsentence":8498,"Ġtel":8499,"Ġreconstructed":8500,"Ġpersonality":8501,"ĠĠĊĠĠ":8502,"ĠEl":8503,"col":8504,"Ġspor":8505,"Ġisoform":8506,"Ġcolon":8507,"HL":8508,"ĠNK":8509,"Ġtractography":8510,"Bio":8511,"ĠSPSS":8512,"noise":8513,"Ġpathologies":8514,"Ġsusceptible":8515,"Ġpuncta":8516,"Ġunderp":8517,"Ġcentrifuged":8518,"cler":8519,"TM":8520,"ĠSB":8521,"Ġphenotypic":8522,"Ġ43":8523,"Ġscheme":8524,"Ġpowerful":8525,"rotid":8526,"Ġneutroph":8527,"ĠEqu":8528,"opes":8529,"achment":8530,"Ġdistor":8531,"Ġsigned":8532,"GABA":8533,"lar":8534,"ĠInformation":8535,"Ġclamp":8536,"havior":8537,"Di":8538,"stained":8539,"ĠDIV":8540,"conjugated":8541,"ĠSG":8542,"Ig":8543,"Per":8544,"uncture":8545,"kinson":8546,"Ġataxia":8547,"Ġproinflammatory":8548,"artment":8549,"Ġequation":8550,"Ġprevention":8551,"ĠAA":8552,"ilarities":8553,"Ġprimers":8554,"ĠChild":8555,"Ġscaling":8556,"Ġimbal":8557,"Ġhost":8558,"Ġ46":8559,"Ġpathophysiological":8560,"ĠĠĊĊ":8561,"Ġexists":8562,"Âµm":8563,"Ġconce":8564,"Ġvalidate":8565,"Ġchromatin":8566,"allis":8567,"etheless":8568,"ĠmRNAs":8569,"Ġorganized":8570,"Ġoverview":8571,"ĠEnglish":8572,"Ġtakes":8573,"ĠSoftware":8574,"Ġmultimodal":8575,"Ġhorn":8576,"opy":8577,"Ġglioma":8578,"ĠDAT":8579,"Ġdiscovered":8580,"Ġelectric":8581,"issue":8582,"Ġretrospective":8583,"Ġcritically":8584,"Stud":8585,"strap":8586,"ĠnA":8587,"Ġfinally":8588,"ĠSee":8589,"Ġwaveforms":8590,"Ġtransfection":8591,"ĠSCA":8592,"Ġrequiring":8593,"Ġflo":8594,"Ġboundaries":8595,"coup":8596,"Ġintegrate":8597,"ĠĊĊĊĠ":8598,"Ġguidance":8599,"bital":8600,"Ġrein":8601,"Ġvertebr":8602,"inary":8603,"Ġstrongest":8604,"Ġparent":8605,"Ġmeaningful":8606,"Ġliquid":8607,"Ġimmature":8608,"rophic":8609,"Over":8610,"rown":8611,"Ġfractions":8612,"cepts":8613,"Ġcovered":8614,"iaz":8615,"otropy":8616,"Ġpixel":8617,"otstrap":8618,"ĠClass":8619,"Ġbegan":8620,"Ġrecipro":8621,"bp":8622,"Ġalignment":8623,"ĠHDAC":8624,"ĠPKC":8625,"Ġhistone":8626,"Ġweaker":8627,"Ap":8628,"etry":8629,"Ġpsychopath":8630,"ĠInstead":8631,"Ã¡":8632,"Ġimped":8633,"ĠÎµ":8634,"Ġgame":8635,"Gl":8636,"ĠIGF":8637,"ĠCF":8638,"Ġcongruent":8639,"asion":8640,"ĠNLRP":8641,"Ġimplantation":8642,"ĠSl":8643,"apine":8644,"ION":8645,"artile":8646,"etail":8647,"Ġstudents":8648,"Ġpal":8649,"Ġmanifestations":8650,"ylin":8651,"Ġbeh":8652,"Ġmechanistic":8653,"ĠAltern":8654,"Ġactually":8655,"Ġrecombinant":8656,"Ġlib":8657,"igher":8658,"ĠConnec":8659,"ATP":8660,"ĠLaboratory":8661,"Ġapoptotic":8662,"Ġbelieved":8663,"Ġdf":8664,"Ġchromosome":8665,"Ġfluency":8666,"Ġtones":8667,"Ġleak":8668,"Hb":8669,"ĠGreen":8670,"local":8671,"Ġfigures":8672,"ECT":8673,"Ġtoolbox":8674,"Ġlatent":8675,"iii":8676,"Ġvisit":8677,"ball":8678,"Ġmillion":8679,"tribution":8680,"Ġtyrosine":8681,"ĠCam":8682,"Ġnociceptive":8683,"Ġtransitions":8684,"Ġresponsive":8685,"ĠAverage":8686,"icular":8687,"Ġflip":8688,"abilistic":8689,"Additional":8690,"ĠVS":8691,"ĠTheir":8692,"ĠInhib":8693,"ĠĠâĢīĠ":8694,"Ġhypers":8695,"âī¤":8696,"Ġcolumns":8697,"Ġtolerance":8698,"domain":8699,"MAP":8700,"Ġneurocognitive":8701,"FTD":8702,"porting":8703,"ystems":8704,"Ġperturbation":8705,"blast":8706,"ĠRats":8707,"ĠLim":8708,"PM":8709,"van":8710,"demic":8711,"ends":8712,"kine":8713,"ĠPrP":8714,"white":8715,"icy":8716,"Ġresto":8717,"Sm":8718,"Ġproprio":8719,"Ġserved":8720,"Ġaccounted":8721,"ĠImageJ":8722,"ĠEm":8723,"Ġreturned":8724,"cardi":8725,"Ġparenchym":8726,"Ġhour":8727,"idden":8728,"ĠMN":8729,"ĠNor":8730,"Ġfly":8731,"Ġreviews":8732,"Ġcortico":8733,"Ġformer":8734,"Ġmicrobiota":8735,"Ġcosts":8736,"burg":8737,"Ġencoun":8738,"Ġworth":8739,"VS":8740,"del":8741,"Ġmediates":8742,"eling":8743,"play":8744,"Ġsetup":8745,"Ġadvance":8746,"Ġdiscriminate":8747,"Ġsagittal":8748,"Ġantero":8749,"Ġneuroan":8750,"lip":8751,"Ġprofound":8752,"Ġillustrate":8753,"Ġadvantages":8754,"ropy":8755,"Ġconcerning":8756,"ĠAut":8757,"Ġheld":8758,"Ġtrains":8759,"Ġneighboring":8760,"ĠIncreased":8761,"Ġreadily":8762,"ometer":8763,"ĠDE":8764,"Ġinflux":8765,"Ġtriggers":8766,"exposed":8767,"unk":8768,"graph":8769,"Ġabstract":8770,"Ġtensor":8771,"PDRS":8772,"Ġraised":8773,"Ġinconsistent":8774,"Ls":8775,"Ġhabituation":8776,"Ġantigen":8777,"ĠEffect":8778,"Ġsemi":8779,"Ġindicative":8780,"Ġpaw":8781,"ĠChanges":8782,"Ġmedull":8783,"esting":8784,"regma":8785,"long":8786,"Ġprenatal":8787,"Ġduplic":8788,"inus":8789,"Ġpurchased":8790,"ember":8791,"aling":8792,"Ġbelieve":8793,"Ġpallid":8794,"Ġsyll":8795,"ĠTra":8796,"ading":8797,"olab":8798,"Ġsporadic":8799,"ĠCRF":8800,"Ġmanipulations":8801,"Ġlumbar":8802,"Ġemergence":8803,"ĠLV":8804,"ĠDiagn":8805,"Ġentered":8806,"Ġbiases":8807,"vol":8808,"Ġpredicts":8809,"Ġcarotid":8810,"Ġpediatric":8811,"Ġrecommended":8812,"ĠMK":8813,"Ġattached":8814,"Ġorbitofrontal":8815,"Ġnutri":8816,"Ġmirror":8817,"ĠÏĩ":8818,"Ġmoved":8819,"Ġmonoclonal":8820,"Ġtranslational":8821,"ĠOFF":8822,"Ġdisplacement":8823,"Ġinfarction":8824,"Ġimpacts":8825,"opathies":8826,"olgi":8827,"adi":8828,"Ġexploring":8829,"upuncture":8830,"ĠSystems":8831,"Ġplastic":8832,"omnia":8833,"rate":8834,"Ġsubregions":8835,"review":8836,"relations":8837,"Ġcirculating":8838,"miss":8839,"ĠDOI":8840,"ylated":8841,"ĠCCL":8842,"Ġunrelated":8843,"pended":8844,"standard":8845,"cepted":8846,"Ġlasting":8847,"hr":8848,"Ġfrozen":8849,"Ġresil":8850,"Ġopening":8851,"Ġextremely":8852,"AGE":8853,"ĠAG":8854,"Ġacet":8855,"ĠROC":8856,"ĠERPs":8857,"Ġsolid":8858,"ĠRating":8859,"ĠQuantitative":8860,"GFR":8861,"Ġambig":8862,"ĠCohen":8863,"ĠSAH":8864,"la":8865,"Ġfamilial":8866,"Ġadjustment":8867,"ĠLTD":8868,".).":8869,"usting":8870,"With":8871,"Ġoptimized":8872,"undred":8873,"Ġhighlights":8874,"ĠDifferences":8875,"Man":8876,"ĠYet":8877,"Ġamplified":8878,"ĠÎ´":8879,"aped":8880,"atase":8881,"Ġlineage":8882,"Ġmonocytes":8883,"Ġnovelty":8884,"Ġinherent":8885,"ĠRGCs":8886,"Ġdifferently":8887,"Ġgating":8888,"ister":8889,"Ġremodeling":8890,"ĠPG":8891,"Ġprograms":8892,"Ġforced":8893,"Ġinfiltration":8894,"Ġneuropathy":8895,"Ġrated":8896,"Ġplacement":8897,"Tr":8898,"ĠGE":8899,"ivariate":8900,"Ġpreventing":8901,"ĠMultiple":8902,"Ġhybridization":8903,"Ġresol":8904,"Ġeasy":8905,"Further":8906,"ĠOB":8907,"HM":8908,"injury":8909,"Ġcutoff":8910,"Ġinsufficient":8911,"ĠNAD":8912,"what":8913,"ographical":8914,"Ġbio":8915,"ĠVM":8916,"Ġresponsiveness":8917,"lasting":8918,"ĠLaboratories":8919,"ĠSingle":8920,"iding":8921,"Ġescape":8922,"Ġmurine":8923,"yste":8924,"pecific":8925,"ĠEF":8926,"icine":8927,"Ġped":8928,"Ġrules":8929,"Ġhypo":8930,"When":8931,"Ġcomprising":8932,"pc":8933,"Ġorgans":8934,"Ġdescrip":8935,"oblot":8936,"Ġreplicated":8937,"ackson":8938,"Ġsafe":8939,"Ġcountries":8940,"Ġserotonergic":8941,"olm":8942,"ascul":8943,"stage":8944,"ĠAny":8945,"post":8946,"Ġincongruent":8947,"Ġvan":8948,"va":8949,"SMA":8950,"ospatial":8951,"retin":8952,"actor":8953,"AAV":8954,"Ġaffili":8955,"Ġlen":8956,"Ġregistered":8957,"compass":8958,"Ġadenosine":8959,"dTomato":8960,"photon":8961,"rays":8962,"ĠIll":8963,"ĠNeuN":8964,"iro":8965,"Ġdisplays":8966,"CNS":8967,"Ġsignature":8968,"ruskal":8969,"administration":8970,"Ġablation":8971,"ĠInternational":8972,"Ġsed":8973,"ĠHP":8974,"Ġadequate":8975,"ĠArc":8976,"otyping":8977,"Ġrecovered":8978,"Ġverify":8979,"ifiers":8980,"width":8981,"training":8982,"ĠAMP":8983,"bil":8984,"ĠWhere":8985,"ĠBF":8986,"ĠMETH":8987,"iatic":8988,"heads":8989,"Ġwaveform":8990,"Ġreorganization":8991,"significant":8992,"orf":8993,"individual":8994,"osity":8995,"tility":8996,"Ġsulf":8997,"ĠLew":8998,"ocrine":8999,"Ġlobule":9000,"oxetine":9001,"Ġlandmark":9002,"trained":9003,"vin":9004,"Ġpreparations":9005,"Ġnet":9006,"ĠFX":9007,"roscop":9008,"Ġfashion":9009,"ĠSM":9010,"ĠTher":9011,"Ġspecialized":9012,"TS":9013,"Ġconflic":9014,"Ġdescending":9015,"ĠIFG":9016,"Ġ85":9017,"Ġweakness":9018,"Ġplausible":9019,"length":9020,"Ġprobabilities":9021,"Ġspan":9022,"alpha":9023,"Ġupstream":9024,"Ġcentered":9025,"Ġdyslex":9026,"Ġapproval":9027,"Ġsegmented":9028,"Ġexpanded":9029,"gluc":9030,"CaMP":9031,"ĠQu":9032,"Ġcognitively":9033,"ĠRem":9034,"ĠGBM":9035,"Ġincomplete":9036,"Ġprevalent":9037,"Ġ41":9038,"PH":9039,"utaneous":9040,"ĠMaterial":9041,"Ġstimulate":9042,"patient":9043,"ĠÏĦ":9044,"Ġplasmid":9045,"Ġubiquitin":9046,"Ġpostoperative":9047,"ĠLA":9048,"Ġaims":9049,"Ġfragments":9050,"ĠBesides":9051,"ey":9052,"Ġpars":9053,"Wallis":9054,"Ts":9055,"Ġreads":9056,"Ġacceleration":9057,"ĠnaÃ¯ve":9058,"Ġdye":9059,"xiety":9060,"ĠNormal":9061,"ĠĊĠĠĊĊĊ":9062,"Ġrecover":9063,"ORT":9064,"ĠSections":9065,"ĠSNA":9066,"Ġseconds":9067,"ĠDepression":9068,"ĠFree":9069,"Gal":9070,"unit":9071,"Ġcoordinate":9072,"Ġattenuation":9073,"rey":9074,"ĠISI":9075,"Ġoxytocin":9076,"ĠItal":9077,"auc":9078,"Ġencompass":9079,"âī¥":9080,"PK":9081,"Ġpossess":9082,"rical":9083,"Ġindicators":9084,"apit":9085,"Ġcorticospinal":9086,"ĠUp":9087,"BDNF":9088,"ori":9089,"Ġlysates":9090,"Ġassume":9091,"Ġsuffering":9092,"ĠAvailability":9093,"Ġconfirming":9094,"Ġtracing":9095,"Ġinspec":9096,"Ġovercome":9097,"che":9098,"Ġmoment":9099,"Ġcommunic":9100,"ĠDevelop":9101,"Ġbuilt":9102,"Ġsten":9103,"ĠMPTP":9104,"Ġseeking":9105,"Ġsilencing":9106,"Ġventricular":9107,"ĠBoard":9108,"Ġspatiotemporal":9109,"ĠHEP":9110,"ĠGL":9111,"Ġsubsets":9112,"odopa":9113,"Ġsynthetic":9114,"Reg":9115,"Ġcompletion":9116,"orer":9117,"itized":9118,"ocytic":9119,"Un":9120,"Ġhomozygous":9121,"ĠMAPK":9122,"coding":9123,"Ġsimilarities":9124,"roblasts":9125,"ĠStr":9126,"ĠPPI":9127,"Ġcolors":9128,"ĠDel":9129,"Ġ256":9130,"Ġcis":9131,"Ġepilept":9132,"Ġdistinction":9133,"Ġconcluded":9134,"dec":9135,"Ġstrengthen":9136,"Ġfusiform":9137,"Ġtheories":9138,"Ġroutine":9139,"Ġclarify":9140,"ĠTechnology":9141,"Ġlittermates":9142,"OM":9143,"ician":9144,"ush":9145,"Ġthermal":9146,"anti":9147,"Ġnaming":9148,"Ġcytoplasm":9149,"Ġcontrac":9150,"Ġentropy":9151,"Ġrelies":9152,"ĠTGF":9153,"ĠAre":9154,"Ġforming":9155,"Ġord":9156,"))":9157,"hand":9158,"Ġsometimes":9159,"Ġinclusions":9160,"Ġopportunity":9161,"Ġpercenti":9162,"azine":9163,"Ġligands":9164,"isely":9165,"Ġmodest":9166,"ĠSY":9167,"inoid":9168,"Ġinserted":9169,"vian":9170,"Ġserious":9171,"regular":9172,"Ġbattery":9173,"Ġsubstit":9174,"Ġflexible":9175,"Î´":9176,"Ġdissociation":9177,"while":9178,"Ġcircular":9179,"Ġaccepted":9180,"ĠDay":9181,"Ġmultic":9182,"Ġalleles":9183,"EGs":9184,"world":9185,"ened":9186,"Ġkinematic":9187,"Based":9188,"vodopa":9189,"Ġconform":9190,"ĠVR":9191,"valuation":9192,"Ġcontro":9193,"Ġaphas":9194,"dem":9195,"Ġ47":9196,"Ġdiffusivity":9197,"ĠLO":9198,"opsy":9199,"Ġdilution":9200,"Ġstartle":9201,"Ġarena":9202,"Ġabolished":9203,"yot":9204,"Ġsensitization":9205,"posure":9206,"ĠmA":9207,"ophysical":9208,"Ġtemporally":9209,"ĠSignific":9210,"+/":9211,"Net":9212,"IQ":9213,"Ġtended":9214,"Ġconcomitant":9215,"ĠDP":9216,"ki":9217,"ishment":9218,"Ġdex":9219,"ĠHar":9220,"Two":9221,"ĠGly":9222,"Ġbootstrap":9223,"Ġsong":9224,"ĠCe":9225,"ĠMic":9226,"inear":9227,"Ġnumerical":9228,"ĠPath":9229,"eminal":9230,"Ġmism":9231,"ĠFL":9232,"ĠAbcam":9233,"Ġsynerg":9234,"Ġaudi":9235,"ĠHT":9236,"pair":9237,"Ġ2000":9238,"ĠChR":9239,"Ġfatty":9240,"espan":9241,"Ġlook":9242,"Ġsplicing":9243,"dose":9244,"Several":9245,"ĠSK":9246,"cult":9247,"Ġ2020":9248,"ĠProte":9249,"Tau":9250,"Ġstriking":9251,"GM":9252,"ĠfNIRS":9253,"Ġimportantly":9254,"vidence":9255,"Ġprotease":9256,"Ġcompensation":9257,"ĠGLM":9258,"rance":9259,"oxel":9260,"Ġenvelop":9261,"Ġtransmit":9262,"EGFP":9263,"Ġ488":9264,"ĠBra":9265,"ĠElectr":9266,"006":9267,"Ġinteracting":9268,"Ġvisualize":9269,"Ġcontraction":9270,"Ġinterfer":9271,"aper":9272,"Ġinsular":9273,"IT":9274,"jective":9275,"Ġoperating":9276,"Ġprobabilistic":9277,"Ġguaran":9278,"Ġglycine":9279,"Ser":9280,"Ġamplification":9281,"Ġtryp":9282,"ĠFTD":9283,"Ġparkinson":9284,"Ġimpulsivity":9285,"enn":9286,"Ġconjunction":9287,"Ġlex":9288,"Ġshapes":9289,"ukin":9290,"fixed":9291,"hank":9292,"Ġhidden":9293,"Ġprevents":9294,"acrific":9295,"tice":9296,"ĠFl":9297,"Ġclinic":9298,"mV":9299,"using":9300,"Ġblinded":9301,"Ġyou":9302,"bitr":9303,"During":9304,"ĠSCZ":9305,"striatal":9306,"Ġproximity":9307,"Ġprac":9308,"Ġmember":9309,"ĠBr":9310,"Ġcomposite":9311,"Ġdistress":9312,"Ġwhisker":9313,"Ġcounting":9314,"Ġintravenous":9315,"Ġwakefulness":9316,"Ġvolumetric":9317,"Results":9318,"Ġthromb":9319,"Ġantic":9320,"Ġpartner":9321,"wards":9322,"oe":9323,"Ġapart":9324,"Ġrequirements":9325,"Ġcomputing":9326,"ĠAnd":9327,"Ġcerebrovascular":9328,"Ġball":9329,"hydroxy":9330,"ĠPy":9331,"ham":9332,"Ġpandemic":9333,"fr":9334,"Ġreplicates":9335,"Ġdiagnoses":9336,"ĠOnce":9337,"ĠGA":9338,"izer":9339,"ĠStroke":9340,"ĠInstruments":9341,"Ġ52":9342,"Ġphenomena":9343,"effects":9344,"till":9345,"ĠQues":9346,"atest":9347,"Ġcommittee":9348,"Ġsacrific":9349,"ĠRTs":9350,"Ġimplies":9351,"handed":9352,"Ġstraight":9353,"Ġhundred":9354,"ĠMit":9355,"Ġoutgrowth":9356,"Ġtranscriptom":9357,"CAM":9358,"inki":9359,"omeric":9360,"ĠRab":9361,"Ġ56":9362,"Ġeventually":9363,"Ġclean":9364,"ĠDMSO":9365,"Ġvacc":9366,"array":9367,"Ġcleavage":9368,"Ġjuven":9369,"Ġdense":9370,"Ġ(Â±":9371,"Med":9372,"plication":9373,"ASD":9374,"ĠGAP":9375,"Ġoligomers":9376,"+</":9377,"Ġaccounts":9378,"elsinki":9379,"ĠCorrelation":9380,"Ġequil":9381,"Ġcategorical":9382,"ulator":9383,"008":9384,"Ġscreened":9385,"get":9386,"ĠLS":9387,"Ġcontinue":9388,"Ġamp":9389,"Ġine":9390,"itations":9391,"Ġreceives":9392,"Ġlysosomal":9393,"Ġrestriction":9394,"acetyl":9395,"Ġhormones":9396,"Ġcoron":9397,"Ġneuroprotection":9398,"Ġdetrim":9399,"cells":9400,"Ġencour":9401,"uting":9402,"Ġempathy":9403,"frontal":9404,"Ġsocio":9405,"irds":9406,"da":9407,"glut":9408,"ĠSocial":9409,"scores":9410,"Ġquestionnaires":9411,"Ġanswer":9412,"ĠTissue":9413,"Ġmelan":9414,"Ġcompute":9415,"Ġengage":9416,"Ġsensation":9417,"ĠActivation":9418,"ĠHelsinki":9419,"Ġhypothesize":9420,"ĠMin":9421,"aem":9422,"Ġelegans":9423,"ĠRo":9424,"Next":9425,"NN":9426,"ĠSleep":9427,"Ġdegra":9428,"Ġjunctions":9429,"Ġantioxidant":9430,"Ġprotect":9431,"Ġreplicate":9432,"ĠMgCl":9433,"orphic":9434,"CAG":9435,"Ġ63":9436,"Ġproperty":9437,"Ġcochle":9438,"ĠRet":9439,"akers":9440,"Ġswe":9441,"Ġreasonable":9442,"dependence":9443,"Ġsinus":9444,"Ġperturbations":9445,"Ġmicrotubule":9446,"Ġanisotropy":9447,"kinesia":9448,"iguing":9449,"Ġneocortical":9450,"Ġlactate":9451,"Ġsciatic":9452,"ectomy":9453,"try":9454,"Ġconting":9455,"fl":9456,"Ġtransplantation":9457,"Ġoptimization":9458,"validation":9459,"ĠNSCs":9460,"Go":9461,"ylase":9462,"oluble":9463,"ĠDiff":9464,"Ġnoradren":9465,"ĠDD":9466,"ruz":9467,"Ġindirectly":9468,"Ġbright":9469,"Ġgover":9470,"Ġgeneralization":9471,"He":9472,"RF":9473,"idity":9474,"ĠSchwann":9475,"ĠPrism":9476,"eding":9477,"erebellar":9478,"Ġgreatest":9479,"omal":9480,"Ġpresumably":9481,"Ã¤":9482,"oder":9483,"ĠĊĊĠĊĠ":9484,"Ġepisode":9485,"Ġlifespan":9486,"ĠPrimary":9487,"ĠApp":9488,"ĠWang":9489,"Ġnom":9490,"Ġsupernatant":9491,"thal":9492,"Ġodds":9493,"Ġcued":9494,"Ġalloc":9495,"Ġconcerns":9496,"Ġoxide":9497,"Ġventricle":9498,"ĠGeneral":9499,"ĠTG":9500,"Ġremote":9501,"Ġfresh":9502,"Ġlistening":9503,"Ġplayed":9504,"Ġcalculating":9505,"Ġshed":9506,"Ġclon":9507,"Ġprecisely":9508,"vice":9509,"Ġlexical":9510,"acking":9511,"stimulation":9512,"Ġinterfere":9513,"Ġextreme":9514,"Ġspeculate":9515,"Ġsalient":9516,"Ġsuicide":9517,"aded":9518,"ĠVPA":9519,"ĠStatistics":9520,"Ġsept":9521,"Ġgyri":9522,"Ġparental":9523,"hether":9524,"ĠFox":9525,"Ġfacilitates":9526,"Ġundergoing":9527,"Ġacetylcholine":9528,"inhibition":9529,"Ġprinciples":9530,"ĠAnalyses":9531,"Ġaggressive":9532,"Ġcontra":9533,"OL":9534,"Ġcloser":9535,"ĠEarly":9536,"Ġproportional":9537,"ĠFUS":9538,"Ġscoring":9539,"Ġbroadly":9540,"ĠWhite":9541,"Since":9542,"RID":9543,"Ġaid":9544,"ĠSNR":9545,"Ġexperimentally":9546,"Ġshifted":9547,"Ġvaries":9548,"Ġelse":9549,"Ġgrating":9550,"Gen":9551,"Ġcirculation":9552,"Ġvital":9553,"ĠLast":9554,"Ġillustrates":9555,"Ġnecrosis":9556,"Ġunivariate":9557,"Ġlifetime":9558,"Ġinfections":9559,"Sur":9560,"ĠNGF":9561,"Ġremoving":9562,"Experim":9563,"Ġpostmortem":9564,"acch":9565,"Ġdenotes":9566,"Ġletter":9567,"ĠNH":9568,"ĠTLE":9569,"ĠLED":9570,"ĠqPCR":9571,"Cell":9572,"arges":9573,"ĠHEPES":9574,"Ġfibroblasts":9575,"entric":9576,"Ġlimbs":9577,"Ġasc":9578,"âĦ":9579,"Ag":9580,"Ġtele":9581,"Ġmotoneurons":9582,"Ġantagon":9583,"Ġmini":9584,"Ġ2019":9585,"Ġneuropathological":9586,"Ġrepeats":9587,"inte":9588,"ĠTF":9589,"Ġslowly":9590,"Ġign":9591,"Ġpapers":9592,"Ġmultif":9593,"Ġneck":9594,"anger":9595,"CH":9596,"Rad":9597,"sm":9598,"ĠAssociation":9599,"Ġscenes":9600,"gel":9601,"Ġexplo":9602,"Ġboard":9603,"Ġrins":9604,"ĠOS":9605,"ĠDifferent":9606,"Ġfiles":9607,"Ġneurotransmitters":9608,"ffective":9609,"disc":9610,"ĠSamples":9611,"Ġextending":9612,"Another":9613,"ĠSpearman":9614,"Ġadjusting":9615,"ĠFI":9616,"Participants":9617,"robor":9618,"Ġsecreted":9619,"erex":9620,"gray":9621,"ĠFlu":9622,"Ġperiphery":9623,"Ġmening":9624,"liers":9625,"ĠĠĠĠĠĠĠĠ":9626,"Ġcoverage":9627,"chemical":9628,"Ġencephalitis":9629,"ilding":9630,"Ġvisuospatial":9631,"Ġexperimenter":9632,"ĠClus":9633,"ĠProced":9634,"amil":9635,"Seq":9636,"Ġadip":9637,"ĠConsidering":9638,"DO":9639,"Ġideal":9640,"ĊĠĠĠ":9641,"ĠPatient":9642,"Ġtransmembrane":9643,"Ġinters":9644,"Ġleptin":9645,"007":9646,"ĠVA":9647,"ese":9648,"Ġvig":9649,"Ġparticles":9650,"Ġlinking":9651,"Ġpersons":9652,"Ġcopy":9653,"mCherry":9654,"Ġprion":9655,"ĠHb":9656,"Ġopposed":9657,"usive":9658,"do":9659,"ĠGCaMP":9660,"adjusted":9661,"both":9662,"Ġlasted":9663,"oxidase":9664,"ĠCSD":9665,"Ġimbalance":9666,"Ġsatisf":9667,"tracting":9668,"Ġherit":9669,"Ġstrengths":9670,"iosis":9671,"Ġethical":9672,"Ġseverely":9673,"Ġfourth":9674,"ĠCaCl":9675,"Ġcarefully":9676,"ĠGolgi":9677,"Ġstrict":9678,"ĠRGC":9679,"Ġinflamm":9680,"hema":9681,"pf":9682,"rew":9683,"uning":9684,"report":9685,"Ġidi":9686,"Ġdetrimental":9687,"mer":9688,"acial":9689,"Ġconstraints":9690,"Sub":9691,"Ġanatomy":9692,"Ġconnectome":9693,"visions":9694,"ameters":9695,"Ġscenario":9696,"VA":9697,"Ġtransients":9698,"tt":9699,"Ġpolymorphism":9700,"ĠTem":9701,"laration":9702,"iod":9703,"ĠValues":9704,")=":9705,"ĠMCAO":9706,"ĠNeural":9707,"Ġconstitute":9708,"iemens":9709,"Ġdos":9710,"Ġpoorer":9711,"Ġneglect":9712,"ĠCd":9713,"idirectional":9714,"ĠLow":9715,"mill":9716,"Ġalters":9717,"ĠComp":9718,"ĠEE":9719,"ĠDunn":9720,"Ġfilters":9721,"lPFC":9722,"Ġfractional":9723,"Ġblast":9724,"Ġtracer":9725,"Ġrevealing":9726,"Ġparametric":9727,"Ġmodular":9728,"Ġrecommendations":9729,"Ġrevised":9730,"Ġargue":9731,"Ġfluor":9732,"Ġdeficient":9733,"Ġfasciculus":9734,"ester":9735,"Ġtermed":9736,"Ġarbitr":9737,"ĠImmunohistochem":9738,"Ġsquares":9739,"Ġmiti":9740,"Ġequipped":9741,"âĢĻ,":9742,"ishes":9743,"Ġcrossing":9744,"ĠNeurological":9745,"ĠMemory":9746,"romedial":9747,"Ġgrouped":9748,"Ġcomorbidities":9749,"ipitation":9750,"Ġsides":9751,"othed":9752,"Ġclinicians":9753,"DL":9754,"opathic":9755,"GLUT":9756,"urning":9757,"Ġparah":9758,"earning":9759,"Ġillumination":9760,"ophagy":9761,"Ġrecords":9762,"tionna":9763,"Ġparas":9764,"Ġlung":9765,"OHDA":9766,"yt":9767,"infected":9768,"Ġexchange":9769,"Ġencodes":9770,"amily":9771,"ĠSVZ":9772,"Ġsupr":9773,"Ġroute":9774,"Ġprimate":9775,"Ġrescued":9776,"ova":9777,"partate":9778,"Ġinsomnia":9779,"ĠBefore":9780,"Ġdigit":9781,"Ġuns":9782,"Ġemerge":9783,"Ġbroader":9784,"Ġefficiently":9785,"Ġbiased":9786,"Ġprognostic":9787,"ĠvmPFC":9788,"Ġvitamin":9789,"Ġbeam":9790,"ĠOPCs":9791,"Ġretained":9792,"Ġattachment":9793,"Ho":9794,"ibrium":9795,"ĠDef":9796,"Ġpiec":9797,"Ġsignatures":9798,"Ġdominance":9799,"Ġded":9800,"Ġloaded":9801,"essive":9802,"Ġcannabis":9803,"BE":9804,"acute":9805,"Ġflat":9806,"Ġgoals":9807,"Ġpurs":9808,"Ġtrigeminal":9809,"body":9810,"balanced":9811,"ĠÂµM":9812,"fil":9813,"ellent":9814,"Ġgains":9815,"GFAP":9816,"Ġharmon":9817,"ML":9818,"neuronal":9819,"DBS":9820,"Ġpriori":9821,"fig":9822,"Ġresection":9823,"Ġnovo":9824,"ostim":9825,"FAD":9826,"ĠStimulation":9827,"Ġadren":9828,"Ġworks":9829,"Ġclaims":9830,"together":9831,"Ġdenote":9832,"Ġbehind":9833,"NR":9834,"ĠThermo":9835,"Ġactively":9836,"len":9837,"idemi":9838,"HCs":9839,"Ġpenetr":9840,"rani":9841,"Ġintense":9842,"Ġoutputs":9843,"allow":9844,"ĠSection":9845,"Ġtransporters":9846,"Ġpseudo":9847,"Ġsharp":9848,"ĠHSP":9849,"ences":9850,"Ġreviewers":9851,"oprote":9852,"Ġmeet":9853,"Ġproven":9854,"ĠDeclaration":9855,"Ġcorrobor":9856,"Ġsyndromes":9857,"ĠNREM":9858,"stimulated":9859,"Ġgastro":9860,"LAIR":9861,"Ġsynthesized":9862,"ĠVEGF":9863,"ĠTw":9864,"fficiently":9865,"ensive":9866,"ĠÏĥ":9867,"oche":9868,"rol":9869,"Ġconcepts":9870,"injection":9871,"Ġboutons":9872,"Ġchec":9873,"ĠshRNA":9874,"Ġinterconnec":9875,"Given":9876,"])":9877,"itum":9878,"Ġresolved":9879,"rand":9880,"uate":9881,"ĠBetween":9882,"td":9883,"ani":9884,"Ġneurites":9885,"uditory":9886,"Î©":9887,"centric":9888,"brevi":9889,"cn":9890,"Ġwhereby":9891,"ĠRI":9892,"ĠSignaling":9893,"ographics":9894,"Ġpromoted":9895,"Ġgold":9896,"ĠLikewise":9897,"vie":9898,"Ġtit":9899,"Ġinteracts":9900,"arded":9901,"Ġrough":9902,"Ġelectrophysiology":9903,"Ġexhibiting":9904,"ĠLevel":9905,"erv":9906,"Ġreasoning":9907,"Ġtree":9908,"resistant":9909,"ĠMMN":9910,"ĠcKO":9911,"ĠIden":9912,"Ġmodulations":9913,"idates":9914,"ibling":9915,"Ġrecognize":9916,"Ġconvolution":9917,"inding":9918,"ĠEG":9919,"ĠAnti":9920,"isc":9921,"ĠKruskal":9922,"Ġsynchronized":9923,"responsive":9924,"Ġrarely":9925,"ACS":9926,"ĠLife":9927,"peak":9928,"Ġpericy":9929,"Ġstret":9930,"ĠMOG":9931,"Ġ54":9932,"aver":9933,"Wil":9934,"Ġpartners":9935,"four":9936,"Ġrew":9937,"ĠSix":9938,"Ġprojecting":9939,"Ġpole":9940,"ĠMotor":9941,"iable":9942,"annab":9943,"ĠAMPAR":9944,"Ġneurotoxicity":9945,"ĠCri":9946,"Ġdescribes":9947,"imbic":9948,"ithium":9949,"ĠAlternatively":9950,"Ġattempts":9951,"ucif":9952,"Ġarri":9953,"TH":9954,"Ġexhibits":9955,"super":9956,"Ġzones":9957,"ovine":9958,"Ġbr":9959,"ĠWhole":9960,"ĠReduc":9961,"olation":9962,"WS":9963,"Ġworldwide":9964,"Ġdiscontin":9965,"Ġchoose":9966,"Ġcovariate":9967,"Ġaphasia":9968,"Ġpri":9969,"Despite":9970,"ĠHPA":9971,"AK":9972,"intensity":9973,"orsal":9974,"Ġeating":9975,"otyped":9976,"Ġinverted":9977,"Ġbacterial":9978,"Ġpolymorphisms":9979,"ĠVe":9980,"Ġmultisensory":9981,"lectively":9982,"Ġsomewhat":9983,"Ġpublications":9984,"Ġdemand":9985,"ractory":9986,"Ġuncorrected":9987,"Ġinspection":9988,"ysteine":9989,"Ġscaff":9990,"Ġmotivational":9991,"Ġoverl":9992,"ĠCaMKII":9993,"ĠActivity":9994,"locked":9995,"Ġ53":9996,"rared":9997,"ĠPhase":9998,"ĠHu":9999,"However":10000,"ĠZeiss":10001,"EMG":10002,"Ġborn":10003,"biased":10004,"Ġbreathing":10005,"Ġpresentations":10006,"Ġname":10007,"Ġrestored":10008,"respective":10009,"Acc":10010,"Ġinduc":10011,"Ġenabled":10012,"Ġchloride":10013,"Ġbath":10014,"ĠMut":10015,"gia":10016,"ĠNonetheless":10017,"ĠCOX":10018,"ffe":10019,"Ġeg":10020,"ĠCREB":10021,"analyses":10022,"ĠÎ¸":10023,"Ġ180":10024,"mr":10025,"average":10026,"tDCS":10027,"Ġdivision":10028,"bridge":10029,"ĠPrior":10030,"know":10031,"Ġserves":10032,"Ġensemble":10033,"generation":10034,"ĠBlack":10035,"modal":10036,"ĠEGFP":10037,"Ġpsychotic":10038,"Ġcontrary":10039,"uation":10040,"Ġexosomes":10041,"Ġdiscrepancy":10042,"Ġcomes":10043,"clonal":10044,"Ġocular":10045,"lines":10046,"Ġqualitative":10047,"Ġrecurrence":10048,"blind":10049,"umab":10050,"ohn":10051,"ropt":10052,"ĠSuper":10053,"onom":10054,"Ġdramatically":10055,"Ġethics":10056,"ĠBiosc":10057,"ĠChem":10058,"Ġecon":10059,"Ġexcellent":10060,"Ġexpectations":10061,"Ġconcern":10062,"att":10063,"Ġhighlighting":10064,"Ġdatabases":10065,"Ġmothers":10066,"Ġmess":10067,"CAP":10068,"Ġanticipation":10069,"Ġlevodopa":10070,"Ġaccelerated":10071,"Ġdescribing":10072,"Ġprojected":10073,"ilst":10074,"secret":10075,"ĠSox":10076,"Ġcolored":10077,"ĠBiotech":10078,"Ġexplicitly":10079,"elin":10080,"Â®":10081,"Ġreplacement":10082,"FDR":10083,"expressed":10084,"ĠDrug":10085,"Ġtechnologies":10086,"Ġann":10087,"Ġrect":10088,"Ġperformances":10089,"Ġirregular":10090,"VR":10091,"Ġstandards":10092,"DC":10093,"Ġcoordinated":10094,"Ġfits":10095,"opamine":10096,"Ġconsequently":10097,"Ġregulators":10098,"Ġclassic":10099,"Ġfacilitated":10100,"Ġcorticosterone":10101,"Ġwarran":10102,"AST":10103,"ĠMini":10104,"ROI":10105,"step":10106,"MF":10107,"iber":10108,"Ġmobility":10109,"Ġstated":10110,"ĠUl":10111,"Ġbiology":10112,"ĠGTP":10113,"median":10114,"VC":10115,"ĠKn":10116,"ĠQuestionna":10117,"Ġore":10118,"Ġwash":10119,"ĠStro":10120,"Ġphagocytosis":10121,"Ġreperfusion":10122,"ĠÂ°":10123,"Ġneuropl":10124,"ĠCruz":10125,"ĠAmerican":10126,"Ġect":10127,"Ġperiodic":10128,"amyloid":10129,"illing":10130,"ĠSource":10131,"Ġpractic":10132,"opsin":10133,"Ġimpairs":10134,"utism":10135,"Ġsegregation":10136,"Ġbundle":10137,"-(":10138,"ĠTREM":10139,"bb":10140,"ditionally":10141,"Ġflas":10142,"Ġexcluding":10143,"Ġneuromuscular":10144,"NST":10145,"Ġswimming":10146,"shaped":10147,"ĠMedi":10148,"Ġskeletal":10149,"Car":10150,"Ġbalanced":10151,"hematical":10152,"ĠCU":10153,"treal":10154,"Ġmusc":10155,"ĠFund":10156,"herence":10157,"Ġdeterioration":10158,"âĢĿ).":10159,"Ġtriple":10160,"poration":10161,"Ġcytosolic":10162,"ĠSST":10163,"Ġevidenced":10164,"Ġoutlined":10165,"Ġjuvenile":10166,"ĠDSM":10167,"Ġdiffers":10168,"Ġscanned":10169,"Ġrad":10170,"Ġcytometry":10171,"Ġbios":10172,"oblast":10173,"Using":10174,"Ġdeliver":10175,"Ġconstruction":10176,"Ġmodify":10177,"Ġpreferences":10178,"processed":10179,"Ġtranslocation":10180,"item":10181,"ĠSal":10182,"axic":10183,"map":10184,"Ġacupuncture":10185,"ĠApoE":10186,"ituit":10187,"Ġharm":10188,"Ġtopic":10189,"Ġspindle":10190,"CO":10191,"erged":10192,"Ġconsiderably":10193,"cephal":10194,"Ġletters":10195,"ĠUAS":10196,"Ġmodes":10197,"BF":10198,"Ġpilot":10199,"Ġunlike":10200,"mentation":10201,"Ġlooking":10202,"Ġregarded":10203,"ĠMac":10204,"Ġaccounting":10205,"ounting":10206,"Ġsing":10207,"yrin":10208,"ĠCCI":10209,"bile":10210,"ĠMeasure":10211,"Ġlateralization":10212,"Ġantipsychotic":10213,"Ġwhom":10214,"Ġdistinguished":10215,"-&#":10216,"amiliar":10217,"Ġ49":10218,"tise":10219,"faces":10220,"ĠBlock":10221,"oplasmic":10222,"Ġpractical":10223,"Ġsynchronous":10224,"Ġ51":10225,"Ġprimer":10226,"obal":10227,"Ġintestinal":10228,"Ġscatter":10229,"Ġglucocortic":10230,"SPR":10231,"omin":10232,"ĠSummary":10233,"ĠVIP":10234,"EPSCs":10235,"Ġregressors":10236,"ĠPCC":10237,"Ġcourses":10238,"ĠCNO":10239,"Ġimplant":10240,"Ġperman":10241,"Ġnucleotide":10242,"LTP":10243,"Ġ]).":10244,"prim":10245,"Ġengine":10246,"ĠShank":10247,"avi":10248,"Ġrespiration":10249,"PSPs":10250,"Ġassumptions":10251,"Ġbeads":10252,"Ġ58":10253,"Ġpremature":10254,"rogate":10255,"genase":10256,"Ġcompetition":10257,"Ġarbor":10258,"unately":10259,"coupled":10260,"reward":10261,"Ġpretreatment":10262,"Ġkinases":10263,"Ġvast":10264,"cline":10265,"acchar":10266,"Ġcollab":10267,"acies":10268,"Ġspectrom":10269,"lesion":10270,"Ġobs":10271,"Ġhalluc":10272,"erent":10273,"gal":10274,"ĠOx":10275,"bors":10276,"Ġdefining":10277,"ĠNMO":10278,"ĠGal":10279,"vention":10280,"folded":10281,"ĠLou":10282,"Ġpros":10283,"Ġcompatible":10284,"Ġendocytosis":10285,"Ġclustered":10286,"Ġtrunc":10287,"Ġtuned":10288,"Ġfate":10289,"ĠCr":10290,"Ġdesigns":10291,"Ġsexes":10292,"Ġtransgene":10293,"ller":10294,"Ġmacrophage":10295,"maze":10296,"Ġphasic":10297,"Ġsmoothed":10298,"ĠTNFÎ±":10299,"Ġformat":10300,"Ġalign":10301,"Na":10302,"agenta":10303,"total":10304,"Ġmaterials":10305,"ĠFSL":10306,"Ġorganizations":10307,"measures":10308,"Ġholding":10309,"ĠSham":10310,"ĠBur":10311,"ĠMouse":10312,"lympus":10313,"Ġpropos":10314,"GAT":10315,"Ġimply":10316,"iat":10317,"ĠRef":10318,"Ġoutliers":10319,"ituitary":10320,"ĠExperiments":10321,"established":10322,"mbl":10323,"Ġlibrary":10324,"atenin":10325,"ĠIT":10326,"Ġdraf":10327,"loop":10328,"Ġentirely":10329,"Ġcompl":10330,"Ġgives":10331,"Ġmoder":10332,"odyn":10333,"SOD":10334,"ĠLewy":10335,"Ġdisturbance":10336,"Ġcategorized":10337,"Ġconvergence":10338,"ĠSample":10339,"Ġanodal":10340,"Ġnar":10341,"Ġgenerates":10342,"Ġdissolved":10343,"can":10344,"Ġgrip":10345,"ĠCortical":10346,"localization":10347,"thalamic":10348,"MCA":10349,"Ġfloor":10350,"Ġanalges":10351,"Ġcages":10352,"ĠCY":10353,"Ġextracts":10354,"ĠSVM":10355,"being":10356,"Statis":10357,"Ġboxes":10358,"Ġodors":10359,"Ġcrossed":10360,"Ġresus":10361,"yelinating":10362,"umer":10363,"Ġmetabolite":10364,"ĠHow":10365,"square":10366,"Ġhouse":10367,"elt":10368,"sor":10369,"Ġconstitu":10370,"Ġtrends":10371,"Ġsibling":10372,"ordin":10373,"called":10374,"izz":10375,"aching":10376,"ĠBro":10377,"Ġbovine":10378,"environ":10379,"Mc":10380,"600":10381,"amycin":10382,"bled":10383,"ĠChildren":10384,"int":10385,"ĠTwenty":10386,"ĠRho":10387,"that":10388,"Bar":10389,"ictive":10390,"ĠÎ»":10391,"ĠPlas":10392,"Ġsorting":10393,"itol":10394,"Ġvisits":10395,"Ġprost":10396,"Ġschematic":10397,"VD":10398,"Ġscar":10399,"Ġyouth":10400,"Ġ600":10401,"Ġparcellation":10402,"Ġdisrupt":10403,"Ġelong":10404,"Ġdividing":10405,"ĠPerformance":10406,"Ġbranching":10407,"Ġcandidates":10408,"ĠDisorders":10409,"Ġinterplay":10410,"Ġstoch":10411,"nf":10412,"Ġlimiting":10413,"Ġviews":10414,"ĠIndex":10415,"Ġmos":10416,"pain":10417,"electrode":10418,"ĠVI":10419,"Ġdesired":10420,"Ġinterleukin":10421,"pty":10422,"ka":10423,"xia":10424,"Ġendors":10425,"SR":10426,"beit":10427,"Ġlarval":10428,"ĠNf":10429,"ponent":10430,"nea":10431,"Ġobserver":10432,"Ġdry":10433,"Ġcompeting":10434,"Ġdissociated":10435,"epilep":10436,"ĠNG":10437,"Ġstack":10438,"Ġforces":10439,"Ġhydrox":10440,"ĠCST":10441,"Cons":10442,"icin":10443,"ancing":10444,"Ġpellet":10445,"Ġvoice":10446,"ĠNB":10447,"ĠInvent":10448,"tection":10449,"Ġbring":10450,"transfer":10451,"Ġ68":10452,"mittent":10453,"Ġprot":10454,"ĠKA":10455,"tibodies":10456,"Ġdy":10457,"Ġcataly":10458,"lands":10459,"visual":10460,"Fisher":10461,"Ġcathe":10462,"Ġconnecting":10463,"Ġvic":10464,"Ġhemispheric":10465,"gmental":10466,"encephalon":10467,"Ġinsertion":10468,"ĠDH":10469,"traumatic":10470,"Ġdetermination":10471,"2000":10472,"atonin":10473,"Ġpreterm":10474,"Ġmasks":10475,"agic":10476,"Ġparahippocampal":10477,"imen":10478,"Ġreproducibility":10479,"Ġinformative":10480,"ĠSIRT":10481,"Ġhands":10482,"ĠDISC":10483,"ĠDepartment":10484,"uminance":10485,"Ġport":10486,"ĠLearning":10487,"Ġsufficiently":10488,"Ġprogressively":10489,"Ġank":10490,"Ġvibr":10491,"avy":10492,"ĠTa":10493,"Ġfrontop":10494,"iled":10495,"velength":10496,"Ġ66":10497,"Ġ62":10498,"ucleotide":10499,"Ġentrain":10500,"Ġreciprocal":10501,"ĠCharacter":10502,"Ġcontrovers":10503,"Ġinitiate":10504,"Ġsilent":10505,"empl":10506,"Ġovert":10507,"Ġclassify":10508,"Ġtimesc":10509,"ĠInventory":10510,"ĠOGD":10511,"Ġhyperal":10512,"reviewed":10513,"oxin":10514,"osh":10515,"ĠAkt":10516,"Ġcome":10517,"ĠANOVAs":10518,"170":10519,"Ġvascul":10520,"ticular":10521,"RD":10522,"ĠDig":10523,"Ġlibitum":10524,"ĠCXCL":10525,"Ġasymmetric":10526,"EPSC":10527,"Ġeigen":10528,"ĠProcess":10529,"roptosis":10530,"Ġrecons":10531,"Ġcrani":10532,"Ġjudgment":10533,"ĠmL":10534,"trast":10535,"Ġascending":10536,"Ġ57":10537,"tious":10538,"Ġpointing":10539,"Ġnose":10540,"cf":10541,"ĠHigher":10542,"OF":10543,"Ġfa":10544,"Ġtopological":10545,"Ġprecentral":10546,"Ġfamiliarity":10547,"Ġgrown":10548,"ĠmCherry":10549,"Ġorganoids":10550,"Ġmismatch":10551,"onv":10552,"Ġsuspens":10553,"ender":10554,"riting":10555,"Ġprone":10556,"PL":10557,"Ġterr":10558,"ĠNMJ":10559,"Ġsubcellular":10560,"Ġinstant":10561,"ĠFGF":10562,"Ġinflammasome":10563,"ifies":10564,"Ġmodulatory":10565,"Ġestrogen":10566,"behavioral":10567,"Ġsummarize":10568,"Ġdisplaying":10569,"Ġexpectation":10570,"fe":10571,"Ġattrac":10572,"maxim":10573,"tome":10574,"ĠBACE":10575,"hom":10576,"More":10577,"cers":10578,"Cas":10579,"Ġinactive":10580,"ĠDetail":10581,"Ġring":10582,"Ġvideos":10583,"Ġpipette":10584,"Ġguarante":10585,"diagn":10586,"yellow":10587,"Ġpolyclonal":10588,"Ġtranscriptome":10589,"Ġevoke":10590,"Ġhardware":10591,"Ġpolarity":10592,"Ġarrays":10593,"Ġsubfield":10594,"Ġrequirement":10595,"ĠQuestionnaire":10596,"Ġlengths":10597,"009":10598,"Ġoffline":10599,"hou":10600,"TNF":10601,"Dem":10602,"cts":10603,"norm":10604,"Ġdietary":10605,"Ġphospho":10606,"Ġelsewhere":10607,"Bi":10608,"ĠAf":10609,"Ġcoversl":10610,"Ġmacaque":10611,"ĠPred":10612,"ogonal":10613,"Ġ|":10614,"ĠKD":10615,"ĠMedicine":10616,"Ġevolutionary":10617,"transf":10618,"ĠAK":10619,"Ġbrid":10620,"Ġplexus":10621,"Ġcard":10622,"Ġcalibration":10623,"NO":10624,"flu":10625,"Ġrobustness":10626,"ĠInv":10627,"hyper":10628,"olds":10629,"ipo":10630,"Ġcommiss":10631,"ĠFr":10632,"ĠExample":10633,"Ġrepeatedly":10634,"Ġcharge":10635,"Ġdirectional":10636,"ĠHFD":10637,"ĠSanta":10638,"ĠBC":10639,"Ġinstrumental":10640,"thase":10641,"âĦ¢":10642,"aments":10643,"129":10644,"ico":10645,"ĠĠĠĊ":10646,"EPs":10647,"Ġmedicine":10648,"aves":10649,"ycl":10650,"catenin":10651,"ĠiPSC":10652,"oto":10653,"Ġantidepressants":10654,"tochem":10655,"Ġdrives":10656,"edom":10657,"Ġproportions":10658,"oric":10659,"EV":10660,"Ġinstrument":10661,"Ġdissoci":10662,"Ġversions":10663,"Ġenvelope":10664,"uciferase":10665,"Ġconto":10666,"âĪ¼":10667,"rais":10668,"ĠWhether":10669,"Ġ2017":10670,"occipital":10671,"Ġrisks":10672,"quisition":10673,"Ġkid":10674,"Ġimmunoblot":10675,"Ġdraft":10676,"ĠThrough":10677,"Ġresilience":10678,"Ġretinas":10679,"Ġdich":10680,"otrans":10681,"quartile":10682,"Ġobservational":10683,"Ġradiation":10684,"Ġ67":10685,"Ġmathematical":10686,"pine":10687,"weight":10688,"Ġbiotin":10689,"illin":10690,"Ġmyelinated":10691,"iazep":10692,"ĠLM":10693,"101":10694,"Ġproprioceptive":10695,"ĠOSA":10696,"ĠAgain":10697,"Ġpore":10698,"scopy":10699,"ĠFunction":10700,"Ġcath":10701,"Ġendorsed":10702,"adder":10703,"receptor":10704,"Ġdischarges":10705,"Ġlinguistic":10706,"middle":10707,"Ġworm":10708,"Ġoriginally":10709,"Ġplayers":10710,"Ġcompensate":10711,"Ġlum":10712,"ampling":10713,"thon":10714,"Ġ****":10715,"ĠAppro":10716,"Ġlens":10717,"ĠÎ¼L":10718,"Ġdiabetic":10719,"Ġnewborn":10720,"ĠRepe":10721,"ĠMontreal":10722,"ĠOlig":10723,"spectively":10724,"Ġlithium":10725,"ĠSL":10726,"Ġelectrom":10727,"ĠLo":10728,"Ġblots":10729,"ried":10730,"ditive":10731,"ĠNPY":10732,"Ġguided":10733,"iculum":10734,"ĠNotch":10735,"filled":10736,"ĠBM":10737,"nR":10738,"Ġfeasible":10739,"Ġenabling":10740,"imodal":10741,"irty":10742,"Ġhabit":10743,"terisks":10744,"oprecipitation":10745,"ĠNeuronal":10746,"Ġirrespective":10747,"HO":10748,"tensive":10749,"anol":10750,"oney":10751,"Ġstation":10752,"oung":10753,"through":10754,"ĠLF":10755,"coated":10756,"Ġneuroanatomical":10757,"Ġproved":10758,"ĠCON":10759,"ĠMorris":10760,"ĠTrkB":10761,"Ġacuity":10762,"Ġ2016":10763,"estin":10764,"Ġaltering":10765,"Ġphotoreceptor":10766,"Ġintraperitoneal":10767,"Ġcorresponded":10768,"Ġentries":10769,"Ġutilizing":10770,"ĠMark":10771,"Ġnormality":10772,"Ġcoherent":10773,"Ġrefractory":10774,"subjects":10775,"Ġaneurysm":10776,"Ġlamina":10777,"ĠFD":10778,"ĠWhereas":10779,"Ġinvasive":10780,"ĠBSA":10781,"Ġcones":10782,"ĠFin":10783,"Ġposture":10784,"Ġgiving":10785,"omatic":10786,"ĠCE":10787,"Ġhistogram":10788,"clerosis":10789,"lig":10790,"second":10791,"Ġorange":10792,"Ġdriver":10793,"Ġsurviv":10794,"Ġsubdi":10795,"analy":10796,"Ġwashing":10797,"Ġattempted":10798,"ĠSciences":10799,"Ġexpert":10800,"Ġer":10801,"ROC":10802,"Ġdiscarded":10803,"Ġmetal":10804,"Ġarteries":10805,"ielding":10806,"trophy":10807,"Sup":10808,"Ġble":10809,"ĠDT":10810,"Ġeducational":10811,"dic":10812,"yotrophic":10813,"motion":10814,"ĠOpen":10815,"Ġintero":10816,"Ġnotable":10817,"emo":10818,"oidal":10819,"cold":10820,"ĠStroop":10821,"ests":10822,"learning":10823,"Ġ2018":10824,"Ġlipids":10825,"Ġdrift":10826,"secretase":10827,"ĠBaseline":10828,"ĠMul":10829,"Ġrecapit":10830,"Ġlocally":10831,"Ġneuroinflammatory":10832,"Ġbundles":10833,"oglobin":10834,"/âĪĴ":10835,"AUC":10836,"Ġarc":10837,"Ġfire":10838,"Ġpreceded":10839,"ectin":10840,"Ġchick":10841,"Ġintroduce":10842,"phrine":10843,"space":10844,"urnal":10845,"vested":10846,"Ġneurologic":10847,"Ġimmunohistochemical":10848,"Inte":10849,"ĠCPP":10850,"agg":10851,"Ġinfluencing":10852,"odynia":10853,"Ġbegin":10854,"EDs":10855,"Ġeliminated":10856,"];":10857,"press":10858,"Ġremarkable":10859,"Ġster":10860,"Ġschedule":10861,"ĠIntr":10862,"ximately":10863,"Ġflux":10864,"Ġmicrostructural":10865,"enhan":10866,"Ġminus":10867,"earing":10868,"Ġafore":10869,"ĠBL":10870,"Ġhyperpolar":10871,"Ġgradients":10872,"Ġrestore":10873,"ĠCpG":10874,"Ġpsychopathology":10875,"Ġsacrificed":10876,"tagged":10877,"random":10878,"phosphate":10879,"Ġcanal":10880,"ĠLI":10881,"Ġsynthase":10882,"trl":10883,"vit":10884,"igg":10885,"ille":10886,"Ġlymphocytes":10887,"bach":10888,"ĠInstitutes":10889,"ĠRM":10890,"Ġzinc":10891,"eld":10892,"Ġcompromised":10893,"ĠEle":10894,"cel":10895,"GAL":10896,"tists":10897,"Ġsmoothing":10898,"ĠMNs":10899,"personal":10900,"ĠResponse":10901,"Ġdosage":10902,"Ġrinsed":10903,"eptides":10904,"Ġcochlea":10905,"wake":10906,"oli":10907,"âĢĿ.":10908,"PE":10909,"ĠMus":10910,"valbumin":10911,"ĠDLB":10912,"fortunately":10913,"three":10914,"Ġbackward":10915,"Pr":10916,"Ġfair":10917,"Ġpercentile":10918,"xious":10919,"Ġeffector":10920,">-":10921,"Ġwalk":10922,"Ġdispers":10923,"ĠEvidence":10924,"itance":10925,"ĠStandard":10926,"Ġincorporated":10927,"Ġjudgments":10928,"ĠFOV":10929,"ĠMethod":10930,"Ġbelonging":10931,"cap":10932,"abor":10933,"Ġstressors":10934,"Ġfalls":10935,"ĠMatlab":10936,"ĠNMDARs":10937,"ĠDesign":10938,"Ġmuscular":10939,"Ġdotted":10940,"raz":10941,"Ġacquire":10942,"radiol":10943,"Ġoil":10944,"Ġlesser":10945,"ĠJackson":10946,"Ġlentiv":10947,"Ġpainful":10948,"Ġinward":10949,"ĠProject":10950,"Ġharvested":10951,"conditioned":10952,"Ġlnc":10953,"Ġinstability":10954,"Ġscenarios":10955,"Ġapplicable":10956,"verbal":10957,"Ġdistractor":10958,"ensor":10959,"ĠCollectively":10960,"Ġns":10961,"Ġintegrating":10962,"ĠUnlike":10963,"Ġaforementioned":10964,"Ġcreating":10965,"board":10966,"etary":10967,"Ġthrombo":10968,"bc":10969,"ĠMillipore":10970,"ĠEB":10971,"ĠChen":10972,"Ġinability":10973,"Ġexponential":10974,"Ġdeeper":10975,"ĠTe":10976,"ĠNY":10977,"ourse":10978,"Ġguaranteed":10979,"Ġattacks":10980,"DOPA":10981,"rone":10982,"Ġfacilitating":10983,"Ġsorted":10984,"Ġintermittent":10985,"Ġarising":10986,"Ġcup":10987,"Ġcodes":10988,"Micro":10989,"zo":10990,"Ġgradual":10991,"ĠNone":10992,"Ġpassed":10993,"Pe":10994,"Ġvesicular":10995,"Ġfavorable":10996,"Ġorexin":10997,"ĠIPL":10998,"affin":10999,"ĠDEGs":11000,"Ġconstrained":11001,"erobic":11002,"Ġodd":11003,"Ġdeposits":11004,"Ġnitric":11005,"Ġcoded":11006,"Ġaffiliated":11007,"athy":11008,"umina":11009,"ightened":11010,"utter":11011,"Ġcovering":11012,"ĠTI":11013,"endritic":11014,"Ġbregma":11015,"ocytochem":11016,"Ġstiff":11017,"Ġfing":11018,"Ġradius":11019,"Ġpatches":11020,"Recent":11021,"Ġcaregivers":11022,"Ġ61":11023,"ĠCRI":11024,"ophen":11025,"Ġstressed":11026,"ĠFound":11027,"Ġevol":11028,"Ġhypersensitivity":11029,"ĠBlue":11030,"bert":11031,"thesis":11032,"Ġnotably":11033,"Ġargued":11034,"Ma":11035,"ĠBios":11036,"Ġdefect":11037,"ossible":11038,"imination":11039,"Ġupdate":11040,"ĠRNAi":11041,"factor":11042,"ĠPFA":11043,"Ġscram":11044,"Ġrefine":11045,"Ġintended":11046,"Ġteam":11047,"Ġpiv":11048,"ampled":11049,"Ġdecade":11050,"(+)":11051,"Ġfunctionality":11052,"heri":11053,"ĠLouis":11054,"Ġinterests":11055,"rative":11056,"ĠLtd":11057,"nology":11058,"ĠLeica":11059,"prisingly":11060,"Ġstenosis":11061,"ĠRelative":11062,"801":11063,"tracellular":11064,"Ġhyperalgesia":11065,"atten":11066,"open":11067,"HF":11068,"Ġamplifier":11069,"CE":11070,"ĠOF":11071,"eto":11072,"uum":11073,"Ġhot":11074,"Ġfeedforward":11075,"Statistical":11076,"inks":11077,"Ġparenchyma":11078,"ĠEPSCs":11079,"Ġfeasibility":11080,"Ġelucidated":11081,"Ġpent":11082,"density":11083,"ĠSignificance":11084,"Ġmeth":11085,"signal":11086,"Ġimmobility":11087,"ĠGMV":11088,"Ġfract":11089,"ĠFive":11090,"ĠTTX":11091,"Ġthalamocortical":11092,"Ġramp":11093,"Ġcalls":11094,"Ġinterp":11095,"ĠEDTA":11096,"Ġpunishment":11097,"Ġintention":11098,"ĠMU":11099,"Ġcranial":11100,"Ġcapillary":11101,"Ġdepolarizing":11102,"ĠDMEM":11103,"ĠSoci":11104,"Ġclassifiers":11105,"Ġcentrality":11106,"illi":11107,"ĠBlood":11108,"Ġdoub":11109,"ptors":11110,"ĠIncre":11111,"Ġthorough":11112,"Ġstabilization":11113,"Ġquadrant":11114,"Ġlesioned":11115,"Ġstratum":11116,"Ġ(#":11117,"oL":11118,"requ":11119,"Ġeliminate":11120,"ĠNumber":11121,"ĠJan":11122,"ĠIA":11123,"Ġcolocalization":11124,"Ġcontroversial":11125,"Ġmitig":11126,"Ġisotropic":11127,"Ġphosphatase":11128,"ĠHo":11129,"untington":11130,"Ġtopography":11131,"ĠProb":11132,"CoG":11133,"ript":11134,"uck":11135,"Ġcomplain":11136,"Ġwavelength":11137,"Ġrip":11138,"olated":11139,"Ġsuccessive":11140,"Ġunless":11141,"ĠZhang":11142,"Ġbuilding":11143,"Ġoperations":11144,"sed":11145,"Ġturned":11146,"Ġthinking":11147,"PAGE":11148,"prin":11149,"rague":11150,"Compar":11151,"Ġhypoxic":11152,"Ġupdating":11153,"angular":11154,"Ġcollap":11155,"spatial":11156,"statement":11157,"Ġnois":11158,"coming":11159,"Ġarbitrary":11160,"Ġchecked":11161,"room":11162,"predict":11163,"house":11164,"Ġcomplicated":11165,"Ġrender":11166,"Ġions":11167,"Ġaccessible":11168,"urated":11169,"Ġpin":11170,"Ġmere":11171,"Ġamnes":11172,"Park":11173,"Ġstereotaxic":11174,"Ġelimination":11175,"ĠVi":11176,"ĠMSNs":11177,"âĨĴ":11178,"Ġkeeping":11179,"Ġcapsule":11180,"Ġstatistic":11181,"Ġcomparative":11182,"ĠGAPDH":11183,"Ġmedulla":11184,"Ġtightly":11185,"Ġbursting":11186,"timal":11187,"lower":11188,"ĠSCs":11189,"ĠMolecular":11190,"Ġtestosterone":11191,"Ġrealistic":11192,"rangement":11193,"Ġallocation":11194,"Ġattended":11195,"Ġluminance":11196,"Ġspot":11197,"ĠMid":11198,"Ġperfect":11199,"nM":11200,"Ġfreedom":11201,"Ġdistant":11202,"mac":11203,"Ġmicrostructure":11204,"liest":11205,"ĠRegarding":11206,"Red":11207,"Ġorthogonal":11208,"INK":11209,"ĠHRV":11210,"Ġalbumin":11211,"Ġsubpopulations":11212,"Ġunderpinning":11213,"inine":11214,"ĠOD":11215,"ĠBehavior":11216,"tities":11217,"istics":11218,"Ġcompli":11219,"Ġneurogenic":11220,"ĠNIHSS":11221,"Ġ99":11222,"seeking":11223,"ski":11224,"stud":11225,"Ġscience":11226,"ĠRNAs":11227,"Ġcaution":11228,"Ġstay":11229,"adaptive":11230,"oling":11231,"ĠBG":11232,"obar":11233,"ĠEnd":11234,"Ġselecting":11235,"Ġsurvivors":11236,"Ġresource":11237,"First":11238,"Ġinstitutional":11239,"Ġwrist":11240,"Ġprofiling":11241,"respond":11242,"raisal":11243,"ĠDa":11244,"Ġsubstances":11245,"Ġdonkey":11246,"uge":11247,"apop":11248,"Ġextends":11249,"Ġeditors":11250,"Ġwarm":11251,"itin":11252,"Ġsubcutaneous":11253,"grad":11254,"Ġtrunk":11255,"effect":11256,"ilia":11257,"Ġedi":11258,"ĠMeanwhile":11259,"Ġacknow":11260,"rat":11261,"urations":11262,"Ġeveryday":11263,"ĠLastly":11264,"Ġscaled":11265,"ĠEPI":11266,"Ġmachin":11267,"ĠPax":11268,"ĠPKA":11269,"epileptic":11270,"Ġallodynia":11271,"awley":11272,"miR":11273,"ĠLimitations":11274,"Ġangles":11275,"Ġnamed":11276,"ĠShe":11277,"Ġinvari":11278,"attern":11279,"Ġsymbols":11280,"ĠBen":11281,"gens":11282,"Ġventil":11283,"Ġaggregate":11284,"Ġmelatonin":11285,"Ġhierarchy":11286,"ĠVGLUT":11287,"Ġmotivated":11288,"emale":11289,"Ġcytoskeleton":11290,"udden":11291,"Ġintensive":11292,"correlation":11293,"ĠGe":11294,"Ġwildtype":11295,"Patients":11296,"Ġimmunolab":11297,"Ġtor":11298,"Ġleaving":11299,"Ġmt":11300,"Ġcentrifugation":11301,"Ġepithelial":11302,"ĠSpatial":11303,"Ġexerts":11304,"kers":11305,"Ġgal":11306,"Ġplaying":11307,"Ġspectroscopy":11308,"Ġcra":11309,"micro":11310,"differen":11311,"025":11312,"ĠTool":11313,"Ġoptimize":11314,"Ġske":11315,"trocytes":11316,"ĠRs":11317,"Ġupdated":11318,"tential":11319,"forming":11320,"buffered":11321,"ĠStress":11322,"Ġinvestigators":11323,"Ġassign":11324,"ĠGCs":11325,"Ġnaturally":11326,"ĠTarget":11327,"oline":11328,"parts":11329,"Ġdyslexia":11330,"tium":11331,"Ġearliest":11332,"Ġpay":11333,"Ġmicroarray":11334,"citability":11335,"Ġnodal":11336,"ĠRPE":11337,"Ġstre":11338,"ilance":11339,"La":11340,"Ġresuspended":11341,"Ġperoxidase":11342,"IgG":11343,"ĠFos":11344,"luded":11345,"Ġprecursors":11346,"Ġdeviant":11347,"ĠFoundation":11348,"utamate":11349,"Ġplated":11350,"admill":11351,"Ġinterested":11352,"Ġprobable":11353,"Ġanatomically":11354,"aspartate":11355,"Ġsupplementation":11356,"Ġreactivation":11357,"Hs":11358,"itron":11359,"ĠBox":11360,"caud":11361,"Ġaccumulated":11362,"Ġstructured":11363,"ĠReal":11364,"ĠMechan":11365,"Ġsomata":11366,"ĠGraphPad":11367,"Ġmanipulated":11368,"Ġemploying":11369,"GAP":11370,"ĠEt":11371,"Ġbriefly":11372,"Ġlinearly":11373,"Ġfoci":11374,"Ġfeelings":11375,"Ġtransverse":11376,"Ġcollic":11377,"SCI":11378,"worthy":11379,"otom":11380,"Ġhandling":11381,"Ġtopology":11382,"environment":11383,"ĠInvitrogen":11384,"Ġstimulations":11385,"gf":11386,"osocial":11387,"Ġseeded":11388,"Ġfrontoparietal":11389,"Ġoriented":11390,"Ġneuropathology":11391,"LPS":11392,"Ġanten":11393,"Ġperin":11394,"hle":11395,"Ġnormative":11396,"Ġpivotal":11397,"ĠkDa":11398,"prop":11399,"Ġultrasound":11400,"Ġinstantaneous":11401,"glucose":11402,"ĠRob":11403,"Ġpolarization":11404,"ĠGenetic":11405,"ĠVol":11406,"Ġlysis":11407,"Ġbarrel":11408,"Ġheavy":11409,"existing":11410,"125":11411,"Pl":11412,"ĠAdult":11413,"Ġexempl":11414,"Ġresponders":11415,"estradiol":11416,"Ġdysfunctions":11417,"max":11418,"Ġapproximate":11419,"ĠMental":11420,"Ġfibrill":11421,"301":11422,"Ġtriggering":11423,"otes":11424,"ĠâĢĿ":11425,"Ġneurofeedback":11426,"arched":11427,"Ġacidic":11428,"Mill":11429,"Ġspontaneously":11430,"Ġ59":11431,"Ġspreading":11432,"Ġmediator":11433,"vary":11434,"Ġ(+":11435,"ĠSCD":11436,"amino":11437,"Ġderive":11438,"Ġrestrain":11439,"Ġdonor":11440,"encephalic":11441,"Ġshell":11442,"Ġbidirectional":11443,"Ġbacteria":11444,"Ġalbeit":11445,"Ġhep":11446,"ĠNSC":11447,"Ġsurfaces":11448,"Ġhemat":11449,"Ġyielding":11450,"ĠDys":11451,"Ġtreadmill":11452,"lices":11453,"Life":11454,"ĠSol":11455,"ĠCNN":11456,"Ġminute":11457,"atoma":11458,"versal":11459,"ĠSPL":11460,"Ġventro":11461,"ken":11462,"Ġresistant":11463,"Ġproceed":11464,"ĠDat":11465,"Ġneuropil":11466,"MGB":11467,"Ġwt":11468,"Ġstochastic":11469,"ERP":11470,"Ġlists":11471,"ĠAnxiety":11472,"Ġpercentages":11473,"ĠMBP":11474,"ĠLa":11475,"itz":11476,"NAc":11477,"Ġspars":11478,"abolism":11479,"Ġinversion":11480,"Ġathe":11481,"conditioning":11482,"Ġsheath":11483,"ĠRespons":11484,"Ġneutrophils":11485,"Ġdebate":11486,"Ġsupervised":11487,"Ġwider":11488,"ĠSelf":11489,"responding":11490,"Ġcapability":11491,"UNEL":11492,"ĠCBD":11493,"Ġpy":11494,"ĠPublisher":11495,"terious":11496,"ĠAND":11497,"Ġhappy":11498,"lycer":11499,"Hg":11500,"ĠComb":11501,"Ġquantity":11502,"site":11503,"Ġ128":11504,"Ġaverages":11505,"armacological":11506,"Ġrelaxation":11507,"Ġchor":11508,"stable":11509,"Ġattribut":11510,"ĠNPCs":11511,"phosphorylation":11512,"nine":11513,"Ġshuff":11514,"Ġbiologically":11515,"ĠSLC":11516,"Ġformula":11517,"Ġneedle":11518,"Ġstanding":11519,"Ġevaluations":11520,"oscop":11521,"Ġtex":11522,"Ġsupply":11523,"acet":11524,"Ġcompact":11525,"owel":11526,"Ġperox":11527,"nd":11528,"Ġestablishing":11529,"Ġirrelevant":11530,"Ġidiopathic":11531,"Ġinterrup":11532,"herited":11533,"Ġmachinery":11534,"Ġmotifs":11535,"Ġorientations":11536,"Ġencephalopathy":11537,"Ġreagent":11538,"Ġcombine":11539,"ĠUPDRS":11540,"Ġalternating":11541,"anine":11542,"archite":11543,"Ġroughly":11544,"Ġgranular":11545,"sen":11546,"Ġconjugated":11547,"Ġrepetitions":11548,"Ġcolocal":11549,"Ġ800":11550,"ĠAPs":11551,"Ġsad":11552,"ĠPND":11553,"Ġgross":11554,"stin":11555,"Ġreality":11556,"Ġfibrils":11557,"rows":11558,"CAT":11559,"vFTD":11560,"ĠAct":11561,"Ġphotoreceptors":11562,"UR":11563,"ĠChi":11564,"ratic":11565,"Ġethnic":11566,"ao":11567,"Ġexperts":11568,"ĠMoCA":11569,"ĠIts":11570,"110":11571,"Ġphoto":11572,"ĠFTLD":11573,"Ġkidney":11574,"uracy":11575,"tiform":11576,"Ġreader":11577,"ĠFunding":11578,"ĠĊĠĠĠ":11579,"Ġessentially":11580,"Ġpolic":11581,"Ġepidemi":11582,"phone":11583,"Ġsuggestive":11584,"ĠWhat":11585,"Ġshifting":11586,"ĠExamination":11587,"Ġinferred":11588,"ĠSprague":11589,"Ġ];":11590,"ĠDCX":11591,"ĠÎ¼V":11592,"128":11593,"ĠQual":11594,"ologists":11595,"Ġestimating":11596,"ĠVP":11597,"yroid":11598,"esthetic":11599,"ĠTim":11600,"Ġphysi":11601,"obi":11602,"Ġresident":11603,"ĠSep":11604,"Ġinterhemispheric":11605,"ostriatal":11606,"Ġslopes":11607,"Ġaccompl":11608,"Ġconcentrated":11609,"ĠStimuli":11610,"Ġext":11611,"istar":11612,"ĠChAT":11613,"Ġtoxin":11614,"Ġmacro":11615,"Ġinstruction":11616,"Ġfitness":11617,"gamma":11618,"ĠImmunohistochemistry":11619,"Ġassociate":11620,"ĠBT":11621,"breviations":11622,"ĠInvestig":11623,"ĠAfric":11624,"Ġlac":11625,"Ġcannula":11626,"iotic":11627,"echo":11628,"sex":11629,"Ġaccuracies":11630,"ĠPRS":11631,"Ġentrainment":11632,"ĠtACS":11633,"Ġtegmental":11634,"Ġont":11635,"Ġhyd":11636,"recting":11637,"Ġvice":11638,"ortical":11639,"AI":11640,"ĠPa":11641,"Ġneuroplasticity":11642,"ĠKCC":11643,"Ġreinstatement":11644,"Ġheightened":11645,"ocktail":11646,"ĠRCT":11647,"Ġdetermines":11648,"ÃŃ":11649,"ĠEquation":11650,"testinal":11651,"Ġautore":11652,"Ġhelpful":11653,"TDP":11654,"Ġparticipating":11655,"ĠFF":11656,"ĠSTG":11657,"Ġautosomal":11658,"Ġremin":11659,"Ġconsiderations":11660,"Overall":11661,"deg":11662,"ĠAO":11663,"Ġresidue":11664,"Ġsuspension":11665,"Ġunders":11666,"Ġgenetics":11667,"iver":11668,"Ġmar":11669,"Ġexactly":11670,"GO":11671,"oud":11672,"Ġintroduction":11673,"Ġmediation":11674,"Ġapprec":11675,"roids":11676,"Ġsharing":11677,"Ġempty":11678,"ĠOL":11679,"Ġvirt":11680,"Ġforelimb":11681,"Ġmissense":11682,"ĠBer":11683,"Ġrewarding":11684,"Qu":11685,"nov":11686,"Ġremyelination":11687,"Ġfrontotemporal":11688,"repe":11689,"Ġantis":11690,"Ġpopular":11691,"Ġmorning":11692,"ĠMicroglia":11693,"kHz":11694,"awa":11695,"Ġanalgesic":11696,"Mice":11697,"uptake":11698,"Ġstock":11699,"ĠPVN":11700,"iment":11701,"Ġconten":11702,"Mar":11703,"Ġhistograms":11704,"Ġsaturation":11705,"Ġadditive":11706,"Ġmanifestation":11707,"atency":11708,"ĠDisorder":11709,"Ġcleaved":11710,"ibrated":11711,"ĠCondition":11712,"Ġcongen":11713,"Ġtransiently":11714,"Ġusage":11715,"DMN":11716,"Ġinternational":11717,"ĠEVs":11718,"Ġrelates":11719,"Ġhealthcare":11720,"urable":11721,"Ġspeakers":11722,"Ġservices":11723,"Ġfluoxetine":11724,"Ġ78":11725,"Ġtap":11726,"ĠVan":11727,"scales":11728,"Ġreaches":11729,"ander":11730,"Ġcategorization":11731,"Ġattenuate":11732,"isecond":11733,"fficiency":11734,"Ġglyco":11735,"adher":11736,"ĠLip":11737,"lux":11738,"Ġhyperex":11739,"Ġhomogeneous":11740,"mn":11741,"Ġbirds":11742,"rady":11743,"Ġdramatic":11744,"nee":11745,"Ġwarranted":11746,"Ġslowing":11747,"abolic":11748,"ĠMW":11749,"Ġmossy":11750,"Ġcav":11751,"model":11752,"ĠSiemens":11753,"tubulin":11754,"ientists":11755,"Ġ(âĪ¼":11756,"Ġ2015":11757,"Ġperivascular":11758,"CV":11759,"PG":11760,"ĠPositive":11761,"ĠCambridge":11762,"ĠPers":11763,"neuron":11764,"Ġdeaf":11765,"amphetamine":11766,"orbidity":11767,"Ġdispar":11768,"icon":11769,"cellular":11770,"Ġsurrogate":11771,"Ġhubs":11772,"ĠChronic":11773,"Ġinsult":11774,"Ġoriginating":11775,"Ġtubes":11776,"ĠJNK":11777,"Ġrejec":11778,"Ġprobed":11779,"ĠLinear":11780,"Ġobservers":11781,"Ġcounterparts":11782,"urc":11783,"Ġsubtracted":11784,"Ġchemokines":11785,"also":11786,"Ġconfined":11787,"Ġorganism":11788,"ĠAcross":11789,"Ġcurv":11790,"tifying":11791,"Ġbehaviours":11792,"ilingual":11793,"atine":11794,"Ġpermanent":11795,"aminob":11796,"Ġtrim":11797,"ĠMM":11798,"Ġspanning":11799,"Ġnoxious":11800,"Ġexceeded":11801,"Ġquantitatively":11802,"resentation":11803,"arest":11804,"Ġsubscale":11805,"uty":11806,"Ġ69":11807,"Ġsudden":11808,"bow":11809,"Ġturnover":11810,"Ġredund":11811,"Ġrelating":11812,"Ġcollateral":11813,"ĠSwed":11814,"Ġcomprises":11815,"Wang":11816,"Ġelectroencephalography":11817,"Ġactivator":11818,"yer":11819,"ĠBrains":11820,"Ġendoc":11821,"Ġoverlapped":11822,"Ġflexion":11823,"Surfer":11824,"ĠCAG":11825,"Ġuncons":11826,"basal":11827,"ĠBiotechnology":11828,"bar":11829,"Ġemphasize":11830,"PO":11831,"aural":11832,"Ġprojects":11833,"HTT":11834,"sembl":11835,"Ġspindles":11836,"ĠGT":11837,"Ġexposures":11838,"Ġnoisy":11839,"Ġasynchron":11840,"Mean":11841,"block":11842,"Ġconflicting":11843,"ĠNeuroimaging":11844,"Ġchambers":11845,"ĠCz":11846,"Because":11847,"Ġretrieved":11848,"Ġtranscriptomic":11849,"Ġcomputations":11850,"Rel":11851,"Ġcoop":11852,"Ġsymmetric":11853,"Ġunbiased":11854,"Ġaneurysms":11855,"ifth":11856,"Ġ71":11857,"Ġneurochemical":11858,"Ġversa":11859,"Ġarrowheads":11860,"Ġplant":11861,"Ġaudio":11862,"ĠIHC":11863,"Ġgeneraliz":11864,"ĠACSF":11865,"OFC":11866,"Ġdeleterious":11867,"Ġmetast":11868,"ĠFmr":11869,"Ġdysregulated":11870,"Col":11871,"Ġmaximize":11872,"Ġnasal":11873,"Ġexcitotoxicity":11874,"achn":11875,"Ġpressing":11876,"Ġhap":11877,"ĠHuntington":11878,"ologically":11879,"Ġheritability":11880,"loaded":11881,"ilent":11882,"Ġnegativity":11883,"Ġmorphometry":11884,"ĠCRISPR":11885,"ĠKing":11886,"ranular":11887,"Ġana":11888,"regulate":11889,"ĠCent":11890,"Ġreversible":11891,"Ġambiguous":11892,"plates":11893,"Ġ(âĢĺ":11894,"Ġanch":11895,"JD":11896,"ĠHy":11897,"ĠKI":11898,"Ġindication":11899,"Ġaware":11900,"Ġmyeloid":11901,"main":11902,"words":11903,"ĠCeA":11904,"icals":11905,"averaged":11906,"tip":11907,"Ġillusion":11908,"Ġexons":11909,"alsy":11910,"Ġ76":11911,"Ġcros":11912,"ĠRRID":11913,"Ġvac":11914,"Ġhomogenized":11915,"etherlands":11916,"ylate":11917,"itter":11918,"ĠHCN":11919,"ĠNrf":11920,"Val":11921,"Ġaggregated":11922,"Ġexperiencing":11923,"Time":11924,"Ġhippocampi":11925,"Ġamphetamine":11926,"Ġexplaining":11927,"Ġlisteners":11928,"Ġmarginal":11929,"Ġcorrespondence":11930,"Ġlinkage":11931,"Ġlandmarks":11932,"Ġabstin":11933,".),":11934,"number":11935,"Ġsaliv":11936,"athione":11937,"ĠAcute":11938,"Ġneuromodulation":11939,"Ġmutated":11940,"Ġmovie":11941,"ĠWistar":11942,"Ġanalogous":11943,"Ġdecided":11944,"Ġthresholded":11945,"Ġloud":11946,"estyle":11947,"Ġdiscover":11948,"Ġheavi":11949,"Ġviscer":11950,"ĠOCT":11951,"Ġincen":11952,"ĠiNOS":11953,"ĠTMT":11954,"Ġlaw":11955,"alog":11956,"ĠMTL":11957,"Ġcomorbidity":11958,"ritis":11959,"oblastoma":11960,"015":11961,"onym":11962,"Ġmax":11963,"mids":11964,"Ġloops":11965,"Ġcommand":11966,"Ã³":11967,"AF":11968,"Ġarises":11969,"Ġ84":11970,"Ġequilibrium":11971,"functional":11972,"ĠUpon":11973,"ulomotor":11974,"ĠBottom":11975,"Ġeconomic":11976,"Ġult":11977,"Ġinset":11978,"Ġacetylation":11979,"ĠLR":11980,"Ġdysfunctional":11981,"ĠWork":11982,"ĠAU":11983,"Ġcollagen":11984,"Ġcompression":11985,"Ġinherited":11986,"phosphorylated":11987,"Ġgir":11988,"aming":11989,"VI":11990,"Ġepithelium":11991,"Ġanalytical":11992,"ĠHealthcare":11993,"Ġneuropeptide":11994,"orld":11995,"Ġsoft":11996,"abs":11997,"Ġdehydr":11998,"ilin":11999,"urity":12000,"+,":12001,"ĠCult":12002,"ĠDie":12003,"Ġcoping":12004,"ChRs":12005,"Ġspectrometry":12006,"hesis":12007,"Ġsuspected":12008,"ALFF":12009,"qPCR":12010,"Ġworsening":12011,"irms":12012,"Ġ)].":12013,"oman":12014,"Ġconvey":12015,"Ġbeliefs":12016,"olume":12017,"lected":12018,"ĠEPSC":12019,"ffeine":12020,"imal":12021,"ĠSOM":12022,"Ġconfigurations":12023,"Ġinfec":12024,"ticipant":12025,"ĠACT":12026,"Ġcompliance":12027,"Ġconserv":12028,"ibrillary":12029,"Ġti":12030,"closed":12031,"text":12032,"Ġinteg":12033,"Ġchi":12034,"acrine":12035,"Ġventromedial":12036,"ĠGlobal":12037,"Ġsuperim":12038,"ENT":12039,"ĠNetherlands":12040,"Ġblocker":12041,"romo":12042,"Ġathle":12043,"ĠAff":12044,"Ġdiffering":12045,"ama":12046,"icillin":12047,"ras":12048,"Ġcarbon":12049,"essional":12050,"Ġscope":12051,"ĠAutism":12052,"toph":12053,"izure":12054,"Ġdemyelinating":12055,"Ġ73":12056,"ĠPercent":12057,"ademic":12058,"SF":12059,"Ġraphe":12060,"pleasant":12061,"ĠPres":12062,"Îµ":12063,"ĠÏģ":12064,"ontine":12065,"**":12066,"Ġpg":12067,"fit":12068,"ference":12069,"Ġstressful":12070,"injured":12071,"aceu":12072,"Ġbig":12073,"Ġrestoration":12074,"ĠTRI":12075,"Ġenlarged":12076,"Ġisolate":12077,"Ġsuppresses":12078,"Ġvenous":12079,"ĠCORT":12080,"Ġlaminar":12081,"Ġepileptiform":12082,"ury":12083,"ĠDWI":12084,"Ġattributes":12085,"ĠWriting":12086,"ĠMOR":12087,"Ġictal":12088,"ĠSES":12089,"ez":12090,"Ġtransp":12091,"Ġdisconnec":12092,"ĠALFF":12093,")].":12094,"Graph":12095,"Cal":12096,"ĠLight":12097,"Ġhistopath":12098,"Chen":12099,"Ġremission":12100,"ĠKir":12101,"Ġvertex":12102,"Ġhomologous":12103,"MDD":12104,"Ġ74":12105,"Ġfearful":12106,"lyce":12107,"okine":12108,"Ġelectronic":12109,"Ġplanned":12110,"Ġprep":12111,"Ġdocument":12112,"Ġtermination":12113,"Ġsubtracting":12114,"Ġrejection":12115,"hu":12116,"ĠaMCI":12117,"ĠFB":12118,"Ġdrawing":12119,"Ġcraving":12120,"Ġangiogenesis":12121,"Ġuniqu":12122,"Ġinstances":12123,"rise":12124,"Ġreferences":12125,"Ġhousing":12126,"intestinal":12127,"transfected":12128,"Ġattributable":12129,"PN":12130,"Ġspeaker":12131,"ĠPhot":12132,"Ġvein":12133,"Ġirradi":12134,"Ġmilk":12135,"Ġchromat":12136,"elles":12137,"Ġweb":12138,"ĠTSC":12139,"Ġpellets":12140,"Ġvagal":12141,"(-":12142,"Ġdied":12143,"Ġrace":12144,"omedial":12145,"Ġmutual":12146,"ĠPower":12147,"Ġoverexpressing":12148,"irt":12149,"Ġdesens":12150,"Ġattractive":12151,"Ġwhilst":12152,"Ġsenes":12153,"ĠBR":12154,"Ġhit":12155,"Ġmonetary":12156,"ĠIPS":12157,"ranged":12158,"plot":12159,"ĠMH":12160,"riz":12161,"pur":12162,"Ġthink":12163,"ĠRN":12164,"Ġpolymerase":12165,"ĠCalc":12166,"Ġprotected":12167,"ĠSynaptic":12168,"athecal":12169,"ventral":12170,"gs":12171,"Ġtrap":12172,"ĠTraining":12173,"Ġdecomposition":12174,"omial":12175,"Ġprime":12176,"Ġobtaining":12177,"Ġconceived":12178,"ĠPDE":12179,"Ġrapamycin":12180,"Ġrobustly":12181,"Ġnearby":12182,"ĠTherap":12183,"Ġfunding":12184,"Ġdynamically":12185,"Ġspecification":12186,"Ġseemed":12187,"ĠâĢĶ":12188,"ibilities":12189,"IQR":12190,"ĠPoly":12191,"Ġconfirms":12192,"Ġpredis":12193,"Ġgraded":12194,"Trans":12195,"RK":12196,"ĠPain":12197,"Ġserine":12198,"baseline":12199,"Ġproof":12200,"Ġneurovascular":12201,"Ġrevision":12202,"Ġcoated":12203,"Ġhelps":12204,"Ġatheros":12205,"Ġmotility":12206,"Ġtangles":12207,"aka":12208,"Ġpsychosocial":12209,"ĠKi":12210,"economic":12211,"uly":12212,"ĠTL":12213,"ĠDiagnostic":12214,"aicin":12215,"unted":12216,"agents":12217,"diff":12218,"oradi":12219,"Ġtapping":12220,"Ġinteractive":12221,"ĠBiosystems":12222,"Ġpointed":12223,"ko":12224,"Ġtraveled":12225,"Ġobserving":12226,"Ġthoughts":12227,"Ġquar":12228,"Ġpump":12229,"Ġ82":12230,"atechol":12231,"Ġcod":12232,"HCl":12233,"Ġpericytes":12234,"Ġsiblings":12235,"Ġaxes":12236,"Ġcausality":12237,"Ġstationary":12238,"ĠqRT":12239,"Ġimmunoreactive":12240,"smo":12241,"ĠPAG":12242,"Ġparvalbumin":12243,"ĠDevelopment":12244,"Ġexaminations":12245,"Ġefferent":12246,"apoptotic":12247,"ochrome":12248,"Ġgained":12249,"Ġpallidus":12250,"Ġspaces":12251,"Ġmouth":12252,"Ġpersistence":12253,"ilesional":12254,"Ġresolve":12255,"ĠClassification":12256,"onomous":12257,"Ġpalsy":12258,"Ġasymptom":12259,"optic":12260,"ĠSNc":12261,"ĠICC":12262,"ĠInhibition":12263,"Ġsynergistic":12264,"amilton":12265,"ĠFLAIR":12266,"esthesia":12267,"hn":12268,"Ġillustrating":12269,"piratory":12270,"herical":12271,"ĠLog":12272,"Ġnoradrenergic":12273,"MNI":12274,"Ġraises":12275,"ĠRece":12276,"NL":12277,"ĠSTA":12278,"Ġyields":12279,"trophin":12280,"omycin":12281,"Ġasymptomatic":12282,"ĠAssay":12283,"QX":12284,"016":12285,"Ġpaths":12286,"Ã¼ller":12287,"Molecular":12288,"Ġacceler":12289,"null":12290,"2019":12291,"ĠConfocal":12292,"Ġabnormality":12293,"Ġbecoming":12294,"ĠFreeSurfer":12295,"Ġsearched":12296,"Ġkinds":12297,"Ġanhed":12298,"Ġsoon":12299,"Ġimpedance":12300,"Ġsubthreshold":12301,"erestim":12302,"acl":12303,"Ġmobile":12304,"ĠOA":12305,"ĠNegative":12306,"ĠMi":12307,"Ġpad":12308,"struct":12309,"ĠOff":12310,"Ġbilingual":12311,".<":12312,"800":12313,"Ġtan":12314,"ĠdlPFC":12315,"appa":12316,"Ġnaive":12317,"tron":12318,"Ġsalt":12319,"SH":12320,"cross":12321,"ĠFourier":12322,"Ġcharacterizing":12323,"uccess":12324,"Ġdifferentiating":12325,"ptor":12326,"KI":12327,"normally":12328,"tiated":12329,"Ġimpulse":12330,"tinuous":12331,"Ġcounterbalanced":12332,"omp":12333,"Ġcarrier":12334,"Ġsubtraction":12335,"Ġequations":12336,"atology":12337,"Ġdeactivation":12338,"ophosph":12339,"Ġskew":12340,"Ġhapl":12341,"ondon":12342,"ana":12343,"orepine":12344,"Ġpsychometric":12345,"ikon":12346,"terminus":12347,"Ġvasculature":12348,"Ġrup":12349,"Ġpuber":12350,"acic":12351,"participants":12352,"clos":12353,"Ġseeds":12354,"ĠLT":12355,"erring":12356,"ĠSurprisingly":12357,"Ġleave":12358,"Ġot":12359,"ÂłÂł":12360,"Ġinterconnected":12361,"kDa":12362,"Furthermore":12363,"Ġ94":12364,"Methods":12365,"Ġinterictal":12366,"Ġnur":12367,"ĠCGRP":12368,"transferase":12369,"Ġoxidation":12370,"ĠConnectivity":12371,"imod":12372,"Ġprove":12373,"utral":12374,"Ġgon":12375,"Sim":12376,"Ġ86":12377,"revers":12378,"Ġfol":12379,"uripo":12380,"âĢĻ)":12381,"Ġdebris":12382,"idak":12383,"ĠMay":12384,"Ġbreakdown":12385,"referen":12386,"ĠCs":12387,"Ġsupram":12388,"ochondrial":12389,"ĠTs":12390,"ranger":12391,"macroph":12392,"itary":12393,"Ġpropensity":12394,"ĠBcl":12395,"Ġunpredict":12396,"Ġrequest":12397,"Ġexpertise":12398,"Ġspecimens":12399,"ĠFXS":12400,"idel":12401,"MM":12402,"Ġaversion":12403,"Ġsuppressing":12404,"Ġtax":12405,"Ġmoral":12406,"Ġchemokine":12407,"layer":12408,"Group":12409,"vating":12410,"elch":12411,"Ġclimb":12412,"PAG":12413,"ius":12414,"armaceu":12415,"tetra":12416,"012":12417,"ositol":12418,"ĠRV":12419,"ĠRMS":12420,"aki":12421,"017":12422,"Ġappetitive":12423,"choice":12424,"Ġimplying":12425,"ĠTUNEL":12426,"Ġexocytosis":12427,"dominant":12428,"Ġaerobic":12429,"Ġannotated":12430,"IFG":12431,"CREB":12432,"ĠCanada":12433,"Ġpleasant":12434,"]-":12435,"Ġintegral":12436,"Ġpersist":12437,"Ġhallucinations":12438,"ĠPNs":12439,"Ġmeditation":12440,"Ġfalling":12441,"Ġcollect":12442,"ĠVO":12443,"ĠStructural":12444,"oxif":12445,"Ġankle":12446,"Ġcalculations":12447,"ĠMRS":12448,"Ġdemographics":12449,"ÂµM":12450,"Ġoriginate":12451,"Ġ77":12452,"Ġargum":12453,"ĠUnfortunately":12454,"ĠCross":12455,"Ġ88":12456,"Ġeut":12457,"ĠVector":12458,"orepinephrine":12459,"ĠtdTomato":12460,"Ġsliding":12461,"lational":12462,"Ġdisapp":12463,"cue":12464,"run":12465,"Ġpersisted":12466,"Ġqualitatively":12467,"Work":12468,"Ġglomeruli":12469,"taking":12470,"ĠAcquisition":12471,"Ġbinocular":12472,"140":12473,"Ġopposing":12474,"Ġ83":12475,"ĠHem":12476,"tiation":12477,"ĠPython":12478,"ĠRap":12479,"ĠmTORC":12480,"encephalography":12481,"asping":12482,"ĠHL":12483,"Ġrewarded":12484,"ĠAE":12485,"ĠLee":12486,"Ġconfer":12487,"Ġ79":12488,"amid":12489,"uvate":12490,"Ġances":12491,"Ġmounting":12492,"plane":12493,"atid":12494,"Ġpeer":12495,"Similar":12496,"Ġturning":12497,"advant":12498,"Ġreticulum":12499,"Ġstring":12500,"Ġcolliculus":12501,"Ġhemorrhagic":12502,"ĠEGTA":12503,"ager":12504,"Following":12505,"Ġ98":12506,"Î¼L":12507,"Ġintriguing":12508,"Ġdimer":12509,"Ġunderestim":12510,"Ġintracerebral":12511,"patients":12512,"iagen":12513,"orange":12514,"ĠGPR":12515,"guided":12516,"ona":12517,"Ġcocktail":12518,"ĠRL":12519,"Ġknee":12520,"hai":12521,"MB":12522,"ĠSociety":12523,"ĠbvFTD":12524,"ĠHIF":12525,"Ġlifestyle":12526,"Ass":12527,"Ġunfamiliar":12528,"oflu":12529,"Ġmicrob":12530,"Ġsubpopulation":12531,"Ġmalign":12532,"Ġfeeling":12533,"illa":12534,"Ġmillisecond":12535,"ĠTB":12536,"ci":12537,"Ġstiffness":12538,"ortium":12539,"Ġhol":12540,"Leica":12541,"ĠCCR":12542,"ĠCK":12543,"Ġvertebrate":12544,"Ġbladder":12545,"QTL":12546,"Ġdog":12547,"Ġprefer":12548,"Ġglobus":12549,"ĠIr":12550,"ĠLG":12551,"Ġlowered":12552,"Ġmodern":12553,"Ġrecon":12554,"ologist":12555,"ocardi":12556,"Ġhelped":12557,"she":12558,"Ġreproducible":12559,"Ġremember":12560,"ĠUV":12561,"Ġphospholip":12562,"Ġla":12563,"Ġorienting":12564,"oresis":12565,"Ġprogramming":12566,"ilepsy":12567,"ida":12568,"Ġglutamine":12569,"ĠResponses":12570,"VE":12571,"Ġorbital":12572,"ĠÃ":12573,"Ġsterile":12574,"ĠBiosciences":12575,"Ġurine":12576,"outs":12577,"Ġvertebrates":12578,"Ġpull":12579,"Ġcit":12580,"formatic":12581,"Ġeligible":12582,"accade":12583,"Interestingly":12584,"Ġbulk":12585,"Ġcoverslips":12586,"132":12587,"Ġcomfort":12588,"Ġfibres":12589,"ymptomatic":12590,"orin":12591,"ĠFWE":12592,"tening":12593,"Ġdistinguishing":12594,"Ġdehydro":12595,"si":12596,"Ġviable":12597,"Ġventricles":12598,"Ġsensing":12599,"Ġstratified":12600,"Ġfocuses":12601,"Ġtracked":12602,"ĠSMN":12603,"Ġportions":12604,"130":12605,"Ġopportunities":12606,"ĠThose":12607,"resholding":12608,"Ġtranslated":12609,"tigo":12610,"asy":12611,"ĠDV":12612,"transformed":12613,"ĠPAC":12614,"ĠRES":12615,"ĠmRS":12616,"ĠDiego":12617,"ĠIniti":12618,"Ġaugmented":12619,"mitting":12620,"Ġsequentially":12621,"Ġ2010":12622,"Ġelusive":12623,"Ġmasked":12624,"011":12625,"Ġenzymatic":12626,"achnoid":12627,"ulo":12628,"Ġ140":12629,"Ġchaper":12630,"Ġproteo":12631,"ĠCCK":12632,"Ġnational":12633,"Ġsaw":12634,"Ġsimulate":12635,"FL":12636,"ĠHLA":12637,"iforn":12638,"HCO":12639,"ĠAltogether":12640,"ROIs":12641,"Ġadjustments":12642,"emotional":12643,"Akt":12644,"ĠRac":12645,"Ġneurofibrillary":12646,"first":12647,"Clinical":12648,"Ġintran":12649,"Ġsubscales":12650,"ĠACE":12651,"uled":12652,"Ġupright":12653,"iciency":12654,"Ġimpacted":12655,"Ġoculomotor":12656,"Ġparkinsonism":12657,"]).":12658,"ĠRB":12659,"Ġnaturalistic":12660,"orous":12661,"Ġillumin":12662,"ĠTen":12663,"Ġglycer":12664,"Ġreceiver":12665,"dromal":12666,"eps":12667,"stac":12668,"ĠThough":12669,"Ġlooked":12670,"Ġtruncated":12671,"Ġcyclic":12672,"Ġretain":12673,"Neur":12674,"Ġrecycl":12675,"Ġinversely":12676,"etamine":12677,"Ġindependence":12678,"appe":12679,"Ġpositivity":12680,"Ġconformation":12681,"Ġmoderately":12682,"Ġpow":12683,"Ġanterograde":12684,"ischem":12685,"Ġcyto":12686,"Ġdenoted":12687,"Each":12688,"Ġmicrocirc":12689,"Ġoperant":12690,"Ġconception":12691,"clusive":12692,"Ġverb":12693,"ophysin":12694,"Ġconcussion":12695,"izziness":12696,"vivo":12697,"Ġexplanations":12698,"ĠAustr":12699,"Ġbif":12700,"Ġcomprise":12701,"ĠMagnetic":12702,"iliary":12703,"Ġvigilance":12704,"ypically":12705,"Ġaspir":12706,"Ġpredomin":12707,"Ġassuming":12708,"NG":12709,"ĠAZ":12710,"Ġbenz":12711,"Ġcaffeine":12712,"icate":12713,"Ġannotation":12714,"ĠSpecific":12715,"256":12716,"ĠVBM":12717,"Ġoxidase":12718,"Ġdistortion":12719,"ĠField":12720,"ĠNeuroscience":12721,"Ġchronically":12722,"Ġ240":12723,"isons":12724,"Ġpluripo":12725,"ING":12726,"Ġcircumstances":12727,"ĠDRE":12728,"ĠFMRP":12729,"Ġexpand":12730,"ĠTrial":12731,"Ġ81":12732,"session":12733,"ĠOPC":12734,"Ġrelatives":12735,"ĠPPAR":12736,"current":12737,"ĠDown":12738,"olimbic":12739,"ĠAUD":12740,"opulation":12741,"Ġboys":12742,"series":12743,"Ġdepicting":12744,"Ġneurosc":12745,"Ġdepicts":12746,"124":12747,"yelinated":12748,"Ġdynamical":12749,"Ġreaders":12750,"Ġluciferase":12751,"Ġtrade":12752,"ĠECoG":12753,"Ġacutely":12754,"Ġattract":12755,"ords":12756,"ĠCoun":12757,"ĠFre":12758,"ĠBal":12759,"rhyth":12760,"ĠRather":12761,"Ġcurvature":12762,"upper":12763,"Ġsensations":12764,"limbic":12765,"Ġhematoma":12766,"Ġensembles":12767,"Ġpac":12768,"013":12769,"ĠGa":12770,"Ġuncover":12771,"Hu":12772,"Ġquiet":12773,"Ġpreoperative":12774,"Ġ2021":12775,"Ġcontents":12776,"Ġnames":12777,"Ġdeflection":12778,"Both":12779,"gliosis":12780,"Ġstrip":12781,"antom":12782,"eled":12783,"five":12784,"Ġpossibilities":12785,"UTR":12786,"Ġgrand":12787,"Ġoutper":12788,"âĢ²,":12789,"Ġpromise":12790,"supervised":12791,"Ġaggra":12792,"ingly":12793,"Ġ87":12794,"Ġmerged":12795,"Ġ97":12796,"Ġproteasome":12797,"Ġrelay":12798,"Ġscrambled":12799,"fat":12800,"ĠFDG":12801,"Ġbic":12802,"ĠEL":12803,"Ġimmunostained":12804,"Ġwalls":12805,"otics":12806,"center":12807,"place":12808,"inescence":12809,"Ġmicroscopic":12810,"sol":12811,"Ġaccumulate":12812,"ĠPER":12813,"ĠapoE":12814,"Ġsplice":12815,"Ġgrasp":12816,"otoxin":12817,"Ġcatechol":12818,"ippocampus":12819,"tite":12820,"ĠProcedure":12821,"ICH":12822,"Ġtruth":12823,"Ġcapabilities":12824,"Ġchow":12825,"Ġdissection":12826,"tinguish":12827,"ĠProcessing":12828,"ĠZn":12829,"character":12830,"oxifen":12831,"ongue":12832,"ĠMCP":12833,"Ġstrokes":12834,"Ġoste":12835,"WHM":12836,"ĠSu":12837,"IPSCs":12838,"180":12839,"ulators":12840,"ationship":12841,"variate":12842,"ĠADNI":12843,"lege":12844,"Ġencountered":12845,"arth":12846,"Ġclones":12847,"Ġneuroblast":12848,"Ġsolve":12849,"Ġdefective":12850,"Ġoffered":12851,"Ġdefinitions":12852,"Ġfilaments":12853,"ĠLondon":12854,"ĠLiu":12855,"ĠSame":12856,"Ġ92":12857,"illaries":12858,"Ġbp":12859,"Ġperfor":12860,"Ġacetate":12861,"ote":12862,"oside":12863,"ĠGray":12864,"Ġbreast":12865,"Ġdistinctive":12866,"ĠASC":12867,"Ġbeha":12868,"Ġpsychiat":12869,"From":12870,"ĠVL":12871,"Ġoperate":12872,"enriched":12873,"conf":12874,"surgery":12875,"ĠMorph":12876,"Ġblank":12877,"Ġgastrointestinal":12878,"amoxifen":12879,"endi":12880,"Ġintracortical":12881,"cluster":12882,"Ġplateau":12883,"Cr":12884,"ĠLes":12885,"contrast":12886,"efined":12887,"Ġexplains":12888,"Ġuniquely":12889,"GP":12890,"tization":12891,"paw":12892,"Ġcub":12893,";&":12894,"dens":12895,"Ġcontinues":12896,"ĠSmith":12897,"accharide":12898,"oni":12899,"caudal":12900,"Ġreuptake":12901,"ĠCentral":12902,"Ġdedicated":12903,"Ġheavily":12904,"ĠLower":12905,"Ġfragmentation":12906,"ĠECM":12907,"Ġjudge":12908,"monary":12909,"Ġacademic":12910,"Po":12911,"Ġtherm":12912,"Ġcontrad":12913,"CBF":12914,"ĠÂ":12915,"pA":12916,"Ġassignment":12917,"Ġmodulators":12918,"Ġglucocorticoid":12919,"Ġaddressing":12920,"Ġsummed":12921,"ĠOrgan":12922,"Ġdegenerative":12923,"Ġpermeabil":12924,"ĠSSRI":12925,"spe":12926,"ionic":12927,"Ġdaytime":12928,"Ġventrolateral":12929,"Ġglauc":12930,"Ġdivergent":12931,"Ġhyperpolarization":12932,"mT":12933,"Ġtang":12934,"Ġ130":12935,"Ġstarts":12936,"hippocampal":12937,"Ġlon":12938,"east":12939,"mis":12940,"spike":12941,"Ġthinning":12942,"WAS":12943,"Ġros":12944,"Ġcascades":12945,"BOLD":12946,"ĠLys":12947,"haus":12948,"Ġtherapeutics":12949,"plies":12950,"Ġdeclines":12951,"Ġmodulator":12952,"Ġsummarizes":12953,"opolys":12954,"DTI":12955,"Ġeccentric":12956,"Ġwavelet":12957,"ĠSERT":12958,"Ġinterquartile":12959,"ĠSil":12960,"ĠPPA":12961,"ĠNPC":12962,"MCAO":12963,"Ġlateralized":12964,"Ġweighting":12965,"Ġdisadvant":12966,"azep":12967,"botic":12968,"ĠFBS":12969,"Ġnotice":12970,"ĠNav":12971,"Ġsteroid":12972,"Ġpositioning":12973,"ĠBI":12974,"ĠKim":12975,"PPA":12976,"adherin":12977,"Ġglutathione":12978,"Ġpruning":12979,"Ġrows":12980,"pic":12981,"arginal":12982,"Ġdeploy":12983,"anal":12984,"Ġestablishment":12985,"Ġconservative":12986,"ĠHippocampal":12987,"Ġidentifies":12988,"ĠHO":12989,"immunore":12990,"Ġepileptogenic":12991,"Ġpne":12992,"Ġbiophysical":12993,"Ġreflexes":12994,"Ġrestraint":12995,"Ġsuffered":12996,"ĠBas":12997,"orative":12998,"ĠCase":12999,"Ġwhiskers":13000,"ĠEDSS":13001,"ĠCAA":13002,"Ġappreci":13003,"ptomycin":13004,"Ġdegraded":13005,"umps":13006,"arose":13007,"Ġpreservation":13008,"ĠTX":13009,"Ġalleviate":13010,"Ġreticular":13011,"ĠFG":13012,"Ġmaladaptive":13013,"bind":13014,"tivities":13015,"/+":13016,"018":13017,"Ġfused":13018,"ĠCurrently":13019,"Ġinterpersonal":13020,"Ġimmunity":13021,"Ġequip":13022,"ocytochemistry":13023,"155":13024,"metic":13025,"ĠGenes":13026,"Ġapparently":13027,"ĠBNST":13028,"Ġneurodevelopment":13029,"phenyl":13030,"Ġpolymer":13031,"Ġspasticity":13032,"oken":13033,"ĠHE":13034,"aled":13035,"Ġsubnetwork":13036,"Ġjour":13037,"Ġstopped":13038,"014":13039,"Ġsuperimposed":13040,"Ġobstac":13041,"Ġinstruments":13042,"Ġamyotrophic":13043,"Ġattend":13044,"Ġaven":13045,"orption":13046,"ibco":13047,"Ġinnov":13048,"ĠLoss":13049,"152":13050,"Ġremarkably":13051,"Ġquantifying":13052,"Ġdiagonal":13053,"Ġcapsaicin":13054,"Ġhydrogen":13055,"Ġspeeds":13056,"anguages":13057,"ettes":13058,"ĠHMGB":13059,"Ġcontinuum":13060,"ĠJohn":13061,"vations":13062,"Ġoutline":13063,"between":13064,"priately":13065,"ozapine":13066,"Ġarrangement":13067,"ĠGluR":13068,"Ġtension":13069,"ĠHor":13070,"Ġhydroxylase":13071,"Ġswallow":13072,"Ġpostulated":13073,"Ġvisuomotor":13074,"ystag":13075,"Ġodorant":13076,"Ġwells":13077,"ĠImmunofluorescence":13078,"ĠPU":13079,"Prim":13080,"Ġillustration":13081,"Ġiterations":13082,"vidin":13083,"Ġabstinence":13084,"Fl":13085,"MV":13086,"Ġexerted":13087,"Multi":13088,"uns":13089,"portion":13090,"ĠLE":13091,"early":13092,"ersed":13093,"late":13094,"ration":13095,"Gu":13096,"aden":13097,"Ġapathy":13098,"Ġstimulates":13099,"Differen":13100,"za":13101,"orical":13102,"Ġmarks":13103,"Ġcongenital":13104,"Ġeasier":13105,"ogens":13106,"Ġinnervate":13107,"Ġcannabinoid":13108,"Ġeuthan":13109,"Ġdimensionality":13110,"ĠSex":13111,"ĠSynap":13112,"ĠBPD":13113,"Ġoligomer":13114,"Ġinterpreting":13115,"ĠGmb":13116,"ĠLocal":13117,"Ġcycling":13118,"ĠCluster":13119,"Ġ700":13120,"Ġastroglial":13121,"ĠNorth":13122,"Ġhypomet":13123,"tect":13124,"generated":13125,"PCA":13126,"Ġunpleasant":13127,"Ġmonos":13128,"ĠAtlas":13129,"pub":13130,"Ġautoan":13131,"dB":13132,"Ġproxy":13133,"ĠhM":13134,"ĠAng":13135,"urring":13136,"Ġdro":13137,"Ġgraf":13138,"ysical":13139,"Ġconsist":13140,"Ġtranscardi":13141,"ĠSouth":13142,"ympathetic":13143,"Ge":13144,"Ġvisceral":13145,"Ġtransmitted":13146,"Ġ2014":13147,"Ġplatelet":13148,"relin":13149,"appropriate":13150,"Ġsustain":13151,"loc":13152,"Ġinfrared":13153,"atening":13154,"ĠNMOSD":13155,"obarbital":13156,"ĠCYP":13157,"ĠSign":13158,"Ġuna":13159,"Ġlabelled":13160,"Ġanalgesia":13161,"Ġcords":13162,"Ġevolved":13163,"ĠSchool":13164,"HB":13165,"vic":13166,"ĠPav":13167,"nRH":13168,"Ġpercept":13169,"Ġcontractions":13170,"Ġcapillaries":13171,"Ġplasmids":13172,"Ġsuicidal":13173,"Ġtrust":13174,"Ġanger":13175,"SK":13176,"Ġinfusions":13177,"Ġbasolateral":13178,"ĠRBD":13179,"ĠMale":13180,"Ġphyl":13181,"Ġcompetitive":13182,"alesional":13183,"ĠSpan":13184,"Ġlanguages":13185,"resented":13186,"azard":13187,"connectivity":13188,"ĠĊĠĠĊĊĠĠ":13189,"Ġbis":13190,"ĠCRP":13191,"ĠReHo":13192,"Ġworms":13193,"Rep":13194,"Ġsurve":13195,"ĠLevels":13196,"Ġchoosing":13197,"ĠWal":13198,"Ġendpoint":13199,"Ġrandomization":13200,"Ġmicrotubules":13201,"RM":13202,"VTA":13203,"ĠWritten":13204,"Ġpursuit":13205,"omat":13206,"NIH":13207,"ĠOlympus":13208,"Ġmuc":13209,"Ġoddball":13210,"ĠGmbH":13211,"hi":13212,"Alzheimer":13213,"sour":13214,"024":13215,"person":13216,"amplitude":13217,"XN":13218,"ĠSupporting":13219,"Ġsubiculum":13220,"iang":13221,"MEG":13222,"acers":13223,"Ġweakly":13224,"Ġanxio":13225,"prise":13226,"aryn":13227,"ĠPINK":13228,"Ġtopographic":13229,"CF":13230,"ĠUSV":13231,"rick":13232,"Ġorganisms":13233,"ĠNfL":13234,"xins":13235,"Ġleakage":13236,"ĠOE":13237,"localized":13238,"tte":13239,"ticism":13240,"Ġtexture":13241,"emia":13242,"ostatin":13243,"Ġsymptomatology":13244,"Ġrobot":13245,"Ġprofessional":13246,"Ġ[(":13247,"hodopsin":13248,"Dawley":13249,"Ġclaus":13250,"Ġ125":13251,"ĠIndividuals":13252,"uming":13253,"Ġdistractors":13254,"Ste":13255,"armos":13256,"Ġdeclined":13257,"ĠMeasures":13258,"ĠRy":13259,"ĠCore":13260,"Ġfri":13261,"ĠNaHCO":13262,"ocellular":13263,"Ġestradiol":13264,"Ġbouts":13265,"COVA":13266,"Ġlocalize":13267,"Ġdeeply":13268,"grative":13269,"Ġincision":13270,"Ġ[âĪĴ":13271,"Ġphysically":13272,"Ġthresholding":13273,"Ġpolygenic":13274,"Ġattenuates":13275,"ĠFast":13276,"coded":13277,"carinic":13278,"Of":13279,"ĠGPCR":13280,"Ġunconscious":13281,"Ġpreprocessed":13282,"ĠIntra":13283,"oon":13284,"Ġdescriptions":13285,"ĠMSCs":13286,"Ġhope":13287,"ĠExp":13288,"Ġtriplic":13289,"ovisual":13290,"Ġswitched":13291,"Neu":13292,"Ġbeat":13293,"plots":13294,"Ġrelief":13295,"asia":13296,"Ġparalysis":13297,"Ġhomogeneity":13298,"Ġstand":13299,"Ġperinatal":13300,"Ġwire":13301,"omain":13302,"Ġ+/-":13303,"Ġperis":13304,"issl":13305,"Ġlaterality":13306,"Ġrecol":13307,"Ġfasting":13308,"Ġbrady":13309,"Ġreserve":13310,"Ġanhedonia":13311,"146":13312,"According":13313,"ĠNucle":13314,"uary":13315,"ĠEtOH":13316,"Functional":13317,"iplin":13318,"Ġfilament":13319,"zyme":13320,"spl":13321,"iman":13322,"ĠMain":13323,"Ġhyperexcitability":13324,"rati":13325,"orient":13326,"Ġdehydrogenase":13327,"ACT":13328,"Ġbiosyn":13329,"Ġpromoters":13330,"tactic":13331,"Ġincorporate":13332,"ĠVT":13333,"Ġdesynchron":13334,"Ġfibro":13335,"Roche":13336,"ĠYFP":13337,"Ġchart":13338,"ucl":13339,"Ġstressor":13340,"Research":13341,"bindin":13342,"ĠHer":13343,"Ġadherence":13344,"Ġintu":13345,"izumab":13346,"ĠChe":13347,"ĠStimulus":13348,"ĠâĨĴ":13349,"Ġgliomas":13350,"ĠItaly":13351,"ĠmtDNA":13352,"Ġweaken":13353,"Ġadmitted":13354,"Ġenhancer":13355,"Ġincorporating":13356,"otted":13357,"optimal":13358,"Control":13359,"surgical":13360,"ĠPPC":13361,"Ġseek":13362,"ĠSlc":13363,"omed":13364,"Ġreproduce":13365,"Ġcave":13366,"Ġdepict":13367,"488":13368,"Ġmodelling":13369,"STS":13370,"Ġdisinhibition":13371,"Ġpurely":13372,"dys":13373,"ĠECT":13374,"Ġutilize":13375,"ĠObser":13376,"artic":13377,"Ġgrooming":13378,"ĠDen":13379,"Ġnicotinic":13380,"atable":13381,"Ġends":13382,"ĠPhosph":13383,"glyc":13384,"Ġspherical":13385,"ĠSn":13386,"retest":13387,"ĠSymptom":13388,"reflex":13389,"Ġenlarge":13390,"Ġinsoluble":13391,"etus":13392,"ella":13393,"Ġ110":13394,"phag":13395,"Ġpositron":13396,"itzer":13397,"ĠAdministration":13398,"iplinary":13399,"Ġmesh":13400,"ĠPos":13401,"Ġassayed":13402,"Ġlap":13403,"Ġgirls":13404,"Ġassembl":13405,"ystagmus":13406,"Ġbegins":13407,"otides":13408,"projec":13409,"Ġdiges":13410,"Ġlysosomes":13411,"LO":13412,"Ġmagnitudes":13413,"Cy":13414,"thick":13415,"Ġworkflow":13416,"exposure":13417,"Ġsulfate":13418,"nel":13419,"ĠAH":13420,"Ġobese":13421,"Ġflight":13422,"ĠCollege":13423,"Ġvirtually":13424,"inely":13425,"flurane":13426,"Ġrearing":13427,"Ġraise":13428,"Ġhole":13429,"ĠDetection":13430,"Ġsplen":13431,"Ġtemplates":13432,"ĠTween":13433,"tibody":13434,"ĠĊĠĠĠĠĠĠ":13435,"Ġdescriptive":13436,"orov":13437,"Ġrigid":13438,"ĠTemporal":13439,"ĠpS":13440,"ĠRever":13441,"ĠLB":13442,"Ġproperly":13443,"tiles":13444,"Ġvertigo":13445,"Ġmarrow":13446,"ĠIllumina":13447,"iception":13448,"Ġfolding":13449,"Ġbiopsy":13450,"Ġanticipatory":13451,"Ġgate":13452,"ĠVNS":13453,"Ġpreferential":13454,"NMDAR":13455,"LTD":13456,"ithmetic":13457,"Ġcingulum":13458,"Ġgh":13459,"hold":13460,"ocentric":13461,"Ġhete":13462,"opus":13463,"Ġdesignated":13464,"ĠICP":13465,"Ġcolour":13466,"iotics":13467,"yes":13468,"Ġunderlies":13469,"spi":13470,"ĠReduced":13471,"Ġcatalog":13472,"Ġbehaviorally":13473,"Ġhindlimb":13474,"Ġoverlaid":13475,"Ġmasking":13476,"Post":13477,"termined":13478,"Er":13479,"Ġgenotyping":13480,"Ġarranged":13481,"Ġure":13482,"ĠTPJ":13483,"Ġsyllables":13484,"ĠEvaluation":13485,"ĠCho":13486,"ostimulation":13487,"MPFC":13488,"Ġlie":13489,"Ġreapp":13490,"Ġendocannab":13491,"ago":13492,"Ġdependency":13493,"Ġentering":13494,"Ġpostcentral":13495,"endix":13496,"chymal":13497,"appeared":13498,"Ġrisky":13499,"Ġdpi":13500,"ĠBa":13501,"ĠKey":13502,"cil":13503,"ifornia":13504,"Ġhaem":13505,"Ġconstitutes":13506,"ĠMeta":13507,"geal":13508,"ito":13509,"burgh":13510,"ĠFlow":13511,"ĠPit":13512,"ĠLRP":13513,"rite":13514,"lan":13515,"Ġtongue":13516,"erule":13517,"ostat":13518,"Ġsurvive":13519,"Ġadaptations":13520,"Ġdisruptions":13521,"my":13522,"Ġassist":13523,"Ġtransplanted":13524,"Ġstretch":13525,"tracking":13526,"Ġsyllable":13527,"ambig":13528,"Ġapproximation":13529,"Studies":13530,"ĠWest":13531,"Ġholds":13532,"Ġart":13533,"Ġrear":13534,"stack":13535,"Ġturns":13536,"ĠRemark":13537,"Ġlosses":13538,"urance":13539,"ĠĠĊĠĠĊ":13540,"WA":13541,"Ġmisfolded":13542,"Ġachieving":13543,"Ġpregnant":13544,"ĠFST":13545,"Ġhomogenates":13546,"ĠAMPK":13547,"ĠCirc":13548,"Ġavoiding":13549,"Ġtib":13550,"Ġnorepinephrine":13551,"Ġviruses":13552,"aters":13553,"quality":13554,"Ġ93":13555,"ĠDistribution":13556,"ĠItalian":13557,"Ġplug":13558,"Ġrecycling":13559,"othalamic":13560,"Ġmigrate":13561,"ĠGSH":13562,"Ġration":13563,"Ġmitophagy":13564,"Ġpairing":13565,"azole":13566,"ĠCorrelations":13567,"ĠMHC":13568,"Ġdizziness":13569,"Ġnitrogen":13570,"Ġprodromal":13571,"Ġmanifested":13572,"ticularly":13573,"Ġnoting":13574,"Ġharbor":13575,"Ġunde":13576,"Ġderivative":13577,"Ġepilepticus":13578,"file":13579,"tz":13580,"Ġanxious":13581,"Ġvon":13582,"Ġdefinite":13583,"Ġdefe":13584,"ĠLSD":13585,"Ins":13586,"Ġastrogliosis":13587,"DE":13588,"Ġsple":13589,"ĠGI":13590,"Ġconverge":13591,"ĠArea":13592,"Ġlies":13593,"Ġincome":13594,"Ġintrathecal":13595,"Ġcame":13596,"ogo":13597,"Ġcontamination":13598,"Ġembryo":13599,"ĠrsFC":13600,"022":13601,"sever":13602,"Ġgaps":13603,"ĠDevices":13604,"BBB":13605,"Uni":13606,"timate":13607,"ĠColor":13608,"ĠMovement":13609,"Ġdiscriminative":13610,"voxel":13611,"Ġ2013":13612,"Ġvocalizations":13613,"Ġdemonstration":13614,"fos":13615,"Ġfelt":13616,"MPs":13617,"operated":13618,"Ġclimbing":13619,"Ġsocially":13620,"Ġinternalization":13621,"onucle":13622,"Ġcursor":13623,"ographs":13624,"Ġstance":13625,"Ġspoken":13626,"Ġsmallest":13627,"icit":13628,"PSD":13629,"plemental":13630,"Ġcathodal":13631,"ostatic":13632,"lovian":13633,"Ġsway":13634,"regn":13635,"Ġpenicillin":13636,"Ġmorbidity":13637,"odily":13638,"ĠBel":13639,"ĠRecordings":13640,"sum":13641,"Ġalert":13642,"Ġsuited":13643,"Ġaccommod":13644,"Ġnocice":13645,"activating":13646,"Ġmetall":13647,"lights":13648,"ĠHPC":13649,"ĠFz":13650,"ĠExpl":13651,"Ġfibrillary":13652,"Ġbond":13653,"Dep":13654,"maximum":13655,"rile":13656,"ĠMEPs":13657,"icted":13658,"Ġservice":13659,"Ġbatch":13660,"Ġinsec":13661,"Ġcarg":13662,"irable":13663,"ĠSmall":13664,"itted":13665,"Ġconvolutional":13666,"Ġunpredictable":13667,"Ġlick":13668,"develop":13669,"ĠCas":13670,"fitting":13671,"Ġnotic":13672,"Tra":13673,"ĠJanuary":13674,"Ġsent":13675,"Ġunus":13676,"Ġabsorb":13677,"ĠAuditory":13678,"Ġattit":13679,"Ġsquared":13680,"Ġpractices":13681,"self":13682,"Ġneonates":13683,"ĠGDNF":13684,"Ġextrap":13685,"drug":13686,"Ġathletes":13687,"Ġhydroph":13688,"By":13689,"Ġ(-":13690,"Ġhanded":13691,"Ġmicrov":13692,"yelitis":13693,"statis":13694,"Ġhits":13695,"Second":13696,"Ġdimensional":13697,"ĠHal":13698,"Ġsem":13699,"disciplinary":13700,"arith":13701,"ĠHamilton":13702,"Ġhed":13703,"admin":13704,"Many":13705,"Ġincoming":13706,"ADD":13707,"Ġdisrupts":13708,"timulus":13709,"Ġendoplasmic":13710,"Lab":13711,"ulos":13712,"phasis":13713,"Ġstimulator":13714,"overlap":13715,"Ġaz":13716,"Ġkain":13717,"attention":13718,"Ġglycop":13719,"Ġelectromy":13720,"Ġkg":13721,"Ġinterferon":13722,"ocities":13723,"ĠTrials":13724,"Ġutilization":13725,"uj":13726,"ĠQuality":13727,"ĠCu":13728,"Ġdiscrepancies":13729,"Ġrota":13730,"Ġpurple":13731,"lastic":13732,"Ġinnervated":13733,"Ġperspec":13734,"Ġoptogene":13735,"hl":13736,"Ġdissimilar":13737,"uf":13738,"ĠFrance":13739,"duct":13740,"dominal":13741,"iving":13742,"Ġantipsychotics":13743,"Ġtransduced":13744,"105":13745,"206":13746,"Ġkinematics":13747,"ĠExamples":13748,"Ïĩ":13749,"identified":13750,"ĠPol":13751,"ĠGold":13752,"Ġinsults":13753,"ĠImp":13754,"Ġreconstructions":13755,"ĠCRH":13756,"Ġrepresentational":13757,"Ġfill":13758,"ĠCTR":13759,"ĠAdap":13760,"lases":13761,"itals":13762,"bour":13763,"ĠTHC":13764,"Ġarchitect":13765,"arox":13766,"Ġdevelops":13767,"Ġirrit":13768,"âĢ¦":13769,"lice":13770,"Ġconstants":13771,"gligible":13772,"Ġprotects":13773,"drome":13774,"Ġphone":13775,"Ġperiventricular":13776,"Ġshortest":13777,"Ġdorsomedial":13778,"Ġsuperoxide":13779,"Ġperspectives":13780,"Ġbinge":13781,"degree":13782,")).":13783,"abotropic":13784,"Ġaudiovisual":13785,"Ġchromatography":13786,"Ġhaben":13787,"section":13788,"ĠPlus":13789,"ĠEO":13790,"UP":13791,"Ġcarb":13792,"Ġfavo":13793,"ĠResting":13794,"Ġseeding":13795,"Ġton":13796,"Ġanomal":13797,"Ġ91":13798,"Ġdilation":13799,"Most":13800,"Ġlysed":13801,"Ġinteroceptive":13802,"EPSP":13803,"Ġbott":13804,"ĠEthical":13805,"vs":13806,"Ġunstable":13807,"Ġelabor":13808,"Ġnoteworthy":13809,"Ġsymmetry":13810,"Ġgeometry":13811,"ADHD":13812,"ĠMass":13813,"olet":13814,"lective":13815,"Ġsecret":13816,"Ġcorrections":13817,"ĠAssoci":13818,"ĠJapanese":13819,"Ġformalin":13820,"reactive":13821,
[...]
