{
  "version": "1.0",
  "truncation": {
    "direction": "Right",
    "max_length": 1023,
    "strategy": "LongestFirst",
    "stride": 0
  },
  "padding": null,
  "added_tokens": [
    {
      "id": 0,
      "content": "<|endoftext|>",
      "single_word": false,
      "lstrip": false,
      "rstrip": false,
      "normalized": true,
      "special": true
    }
  ],
  "normalizer": null,
  "pre_tokenizer": {
    "type": "ByteLevel",
    "add_prefix_space": false,
    "trim_offsets": true,
    "use_regex": true
  },
  "post_processor": {
    "type": "ByteLevel",
    "add_prefix_space": true,
    "trim_offsets": false,
    "use_regex": true
  },
  "decoder": {
    "type": "ByteLevel",
    "add_prefix_space": true,
    "trim_offsets": true,
    "use_regex": true
  },
  "model": {
    "type": "BPE",
    "dropout": null,
    "unk_token": null,
    "continuing_subword_prefix": "",
    "end_of_word_suffix": "",
    "fuse_unk": false,
    "byte_fallback": false,
    "vocab": {
      "<|endoftext|>": 0,
      "!": 1,
      "\"": 2,
      "#": 3,
      "$": 4,
      "%": 5,
      "&": 6,
      "'": 7,
      "(": 8,
      ")": 9,
      "*": 10,
      "+": 11,
      ",": 12,
      "-": 13,
      ".": 14,
      "/": 15,
      "0": 16,
      "1": 17,
      "2": 18,
      "3": 19,
      "4": 20,
      "5": 21,
      "6": 22,
      "7": 23,
      "8": 24,
      "9": 25,
      ":": 26,
      ";": 27,
      "<": 28,
      "=": 29,
      ">": 30,
      "?": 31,
      "@": 32,
      "A": 33,
      "B": 34,
      "C": 35,
      "D": 36,
      "E": 37,
      "F": 38,
      "G": 39,
      "H": 40,
      "I": 41,
      "J": 42,
      "K": 43,
      "L": 44,
      "M": 45,
      "N": 46,
      "O": 47,
      "P": 48,
      "Q": 49,
      "R": 50,
      "S": 51,
      "T": 52,
      "U": 53,
      "V": 54,
      "W": 55,
      "X": 56,
      "Y": 57,
      "Z": 58,
      "[": 59,
      "\\": 60,
      "]": 61,
      "^": 62,
      "_": 63,
      "`": 64,
      "a": 65,
      "b": 66,
      "c": 67,
      "d": 68,
      "e": 69,
      "f": 70,
      "g": 71,
      "h": 72,
      "i": 73,
      "j": 74,
      "k": 75,
      "l": 76,
      "m": 77,
      "n": 78,
      "o": 79,
      "p": 80,
      "q": 81,
      "r": 82,
      "s": 83,
      "t": 84,
      "u": 85,
      "v": 86,
      "w": 87,
      "x": 88,
      "y": 89,
      "z": 90,
      "{": 91,
      "|": 92,
      "}": 93,
      "~": 94,
      "¡": 95,
      "¢": 96,
      "£": 97,
      "¤": 98,
      "¥": 99,
      "¦": 100,
      "§": 101,
      "¨": 102,
      "©": 103,
      "ª": 104,
      "«": 105,
      "¬": 106,
      "®": 107,
      "¯": 108,
      "°": 109,
      "±": 110,
      "²": 111,
      "³": 112,
      "´": 113,
      "µ": 114,
      "¶": 115,
      "·": 116,
      "¸": 117,
      "¹": 118,
      "º": 119,
      "»": 120,
      "¼": 121,
      "½": 122,
      "¾": 123,
      "¿": 124,
      "À": 125,
      "Á": 126,
      "Â": 127,
      "Ã": 128,
      "Ä": 129,
      "Å": 130,
      "Æ": 131,
      "Ç": 132,
      "È": 133,
      "É": 134,
      "Ê": 135,
      "Ë": 136,
      "Ì": 137,
      "Í": 138,
      "Î": 139,
      "Ï": 140,
      "Ð": 141,
      "Ñ": 142,
      "Ò": 143,
      "Ó": 144,
      "Ô": 145,
      "Õ": 146,
      "Ö": 147,
      "×": 148,
      "Ø": 149,
      "Ù": 150,
      "Ú": 151,
      "Û": 152,
      "Ü": 153,
      "Ý": 154,
      "Þ": 155,
      "ß": 156,
      "à": 157,
      "á": 158,
      "â": 159,
      "ã": 160,
      "ä": 161,
      "å": 162,
      "æ": 163,
      "ç": 164,
      "è": 165,
      "é": 166,
      "ê": 167,
      "ë": 168,
      "ì": 169,
      "í": 170,
      "î": 171,
      "ï": 172,
      "ð": 173,
      "ñ": 174,
      "ò": 175,
      "ó": 176,
      "ô": 177,
      "õ": 178,
      "ö": 179,
      "÷": 180,
      "ø": 181,
      "ù": 182,
      "ú": 183,
      "û": 184,
      "ü": 185,
      "ý": 186,
      "þ": 187,
      "ÿ": 188,
      "Ā": 189,
      "ā": 190,
      "Ă": 191,
      "ă": 192,
      "Ą": 193,
      "ą": 194,
      "Ć": 195,
      "ć": 196,
      "Ĉ": 197,
      "ĉ": 198,
      "Ċ": 199,
      "ċ": 200,
      "Č": 201,
      "č": 202,
      "Ď": 203,
      "ď": 204,
      "Đ": 205,
      "đ": 206,
      "Ē": 207,
      "ē": 208,
      "Ĕ": 209,
      "ĕ": 210,
      "Ė": 211,
      "ė": 212,
      "Ę": 213,
      "ę": 214,
      "Ě": 215,
      "ě": 216,
      "Ĝ": 217,
      "ĝ": 218,
      "Ğ": 219,
      "ğ": 220,
      "Ġ": 221,
      "ġ": 222,
      "Ģ": 223,
      "ģ": 224,
      "Ĥ": 225,
      "ĥ": 226,
      "Ħ": 227,
      "ħ": 228,
      "Ĩ": 229,
      "ĩ": 230,
      "Ī": 231,
      "ī": 232,
      "Ĭ": 233,
      "ĭ": 234,
      "Į": 235,
      "į": 236,
      "İ": 237,
      "ı": 238,
      "Ĳ": 239,
      "ĳ": 240,
      "Ĵ": 241,
      "ĵ": 242,
      "Ķ": 243,
      "ķ": 244,
      "ĸ": 245,
      "Ĺ": 246,
      "ĺ": 247,
      "Ļ": 248,
      "ļ": 249,
      "Ľ": 250,
      "ľ": 251,
      "Ŀ": 252,
      "ŀ": 253,
      "Ł": 254,
      "ł": 255,
      "Ń": 256,
      "Ġt": 257,
      "in": 258,
      "Ġa": 259,
      "re": 260,
      "on": 261,
      "he": 262,
      "ti": 263,
      "Ġs": 264,
      "te": 265,
      "Ġthe": 266,
      "al": 267,
      "Ġo": 268,
      "Ġc": 269,
      "en": 270,
      "Ġin": 271,
      "or": 272,
      "Ġp": 273,
      "Ġw": 274,
      "Ġan": 275,
      "es": 276,
      "er": 277,
      "Ġof": 278,
      "tion": 279,
      "ed": 280,
      "Ġm": 281,
      "ro": 282,
      "Ġd": 283,
      "is": 284,
      "Ġf": 285,
      "an": 286,
      "Ġand": 287,
      "it": 288,
      "ing": 289,
      "Ġb": 290,
      "ic": 291,
      "Ġ(": 292,
      "as": 293,
      "ar": 294,
      "Ġre": 295,
      "at": 296,
      "Ġe": 297,
      "ĠĠ": 298,
      "le": 299,
      "Ġto": 300,
      "Ġn": 301,
      "ate": 302,
      "ent": 303,
      "ation": 304,
      "el": 305,
      "us": 306,
      "ec": 307,
      "ul": 308,
      "Ġth": 309,
      "ur": 310,
      "im": 311,
      "ac": 312,
      "ly": 313,
      "om": 314,
      "ere": 315,
      "ig": 316,
      "Ġh": 317,
      "ve": 318,
      "ĠT": 319,
      "ter": 320,
      "Ġl": 321,
      "ith": 322,
      "âĢ": 323,
      "res": 324,
      "un": 325,
      "Ġcon": 326,
      "et": 327,
      "Ġwith": 328,
      "ol": 329,
      "os": 330,
      "id": 331,
      "ce": 332,
      "ĠĊ": 333,
      "Ġ)": 334,
      "Ġg": 335,
      "if": 336,
      "Ġst": 337,
      "am": 338,
      "ow": 339,
      "ot": 340,
      "ĠA": 341,
      "Ġfor": 342,
      "tic": 343,
      "Ġas": 344,
      "ts": 345,
      "Ġal": 346,
      "Ġv": 347,
      "Ġex": 348,
      "il": 349,
      "ra": 350,
      "ated": 351,
      "Ġthat": 352,
      "ted": 353,
      "Ġpro": 354,
      "oc": 355,
      "od": 356,
      "ĠS": 357,
      "ĠC": 358,
      "ity": 359,
      "Ġis": 360,
      "ion": 361,
      "uc": 362,
      "ri": 363,
      "ut": 364,
      "Ġwere": 365,
      "Ġne": 366,
      "Ġwas": 367,
      "Ġon": 368,
      "Ġbe": 369,
      "Ġac": 370,
      "ud": 371,
      "Ġde": 372,
      "ĠI": 373,
      "ĠP": 374,
      "se": 375,
      "ati": 376,
      "ver": 377,
      "um": 378,
      "ag": 379,
      "Ġ).": 380,
      "ĠThe": 381,
      "ĠM": 382,
      "ys": 383,
      "ment": 384,
      "up": 385,
      "Ġres": 386,
      "her": 387,
      "ir": 388,
      "og": 389,
      "ab": 390,
      "Ġby": 391,
      "Ġcom": 392,
      "ell": 393,
      "Ġ1": 394,
      "##": 395,
      "ĠF": 396,
      "red": 397,
      "tiv": 398,
      "tr": 399,
      "qu": 400,
      "Ġare": 401,
      "ess": 402,
      "rom": 403,
      "Ġr": 404,
      "op": 405,
      "ff": 406,
      "ant": 407,
      "Ġat": 408,
      "Ġor": 409,
      "ain": 410,
      "Ġexp": 411,
      "Ġim": 412,
      "âĢī": 413,
      "ical": 414,
      "Ġdis": 415,
      "Ġus": 416,
      "ĠĊĠĠ": 417,
      "ress": 418,
      "ons": 419,
      "ign": 420,
      "ip": 421,
      "ĠD": 422,
      "Ġcomp": 423,
      "iz": 424,
      "ay": 425,
      "Ġsh": 426,
      "orm": 427,
      "ub": 428,
      "Ġch": 429,
      "ine": 430,
      "ad": 431,
      "Ġper": 432,
      "Ġwh": 433,
      "ore": 434,
      "igh": 435,
      "ten": 436,
      "Ġfrom": 437,
      "ure": 438,
      "Ġle": 439,
      "Ġse": 440,
      "Ġinc": 441,
      "di": 442,
      "Ġsp": 443,
      "tive": 444,
      "Âł": 445,
      ").": 446,
      "ĠH": 447,
      "etw": 448,
      "Ġcor": 449,
      "und": 450,
      "ĠR": 451,
      "ĠN": 452,
      "ific": 453,
      "vel": 454,
      "Ġstud": 455,
      "ĠB": 456,
      "tro": 457,
      "ap": 458,
      "iff": 459,
      "ents": 460,
      "Ġwe": 461,
      ".,": 462,
      "rain": 463,
      "ies": 464,
      "eren": 465,
      "ction": 466,
      "ĠE": 467,
      "ory": 468,
      "00": 469,
      "Ġsign": 470,
      "Ġ2": 471,
      "Ġet": 472,
      "ous": 473,
      "Ġ;": 474,
      "ĠIn": 475,
      "Ġdiff": 476,
      "por": 477,
      "ations": 478,
      "ase": 479,
      "ug": 480,
      "vi": 481,
      "Ġneur": 482,
      "Ġme": 483,
      "st": 484,
      "th": 485,
      "ch": 486,
      "Ġpar": 487,
      "ffec": 488,
      "duc": 489,
      "Ġcell": 490,
      "Ġad": 491,
      "pl": 492,
      "ĠG": 493,
      "Ġ,": 494,
      "ib": 495,
      "Ġ0": 496,
      "ĠW": 497,
      "yp": 498,
      "est": 499,
      "ther": 500,
      "form": 501,
      "ence": 502,
      "ran": 503,
      "),": 504,
      "tim": 505,
      "Ġmod": 506,
      "ding": 507,
      "Ġnot": 508,
      "Ġdifferen": 509,
      "Ġpre": 510,
      "ph": 511,
      "een": 512,
      "Ġco": 513,
      "etween": 514,
      "Ġshow": 515,
      "Ġthis": 516,
      "ge": 517,
      "Ġbetween": 518,
      "ual": 519,
      "ich": 520,
      "Ġen": 521,
      "ved": 522,
      "ance": 523,
      "Ġactiv": 524,
      "Ġsub": 525,
      "Ġreg": 526,
      "Ġ=": 527,
      "Ġass": 528,
      "Ġmic": 529,
      "ers": 530,
      "ĠL": 531,
      "Ġgen": 532,
      "Ġresp": 533,
      "tions": 534,
      "Ġpos": 535,
      "ased": 536,
      "vid": 537,
      "ors": 538,
      "ach": 539,
      "unction": 540,
      "jec": 541,
      "yn": 542,
      "lec": 543,
      "Ġeffec": 544,
      "Ġanal": 545,
      "Ġwhich": 546,
      "Ġgro": 547,
      "Ġinter": 548,
      "pt": 549,
      "Ġpati": 550,
      "ting": 551,
      "Ġcl": 552,
      "ally": 553,
      "Ġbrain": 554,
      "de": 555,
      "olog": 556,
      "oci": 557,
      "Ġrec": 558,
      "ave": 559,
      "ĠĊĊ": 560,
      "Ġhe": 561,
      "age": 562,
      "ren": 563,
      "ight": 564,
      "Ġ3": 565,
      "Ġsignific": 566,
      "ke": 567,
      "ĠO": 568,
      "ens": 569,
      "Ġap": 570,
      "and": 571,
      "Ġob": 572,
      "ression": 573,
      "ia": 574,
      "act": 575,
      "uro": 576,
      "Ġwhe": 577,
      "Ġ[": 578,
      "ple": 579,
      "ata": 580,
      "Ġsc": 581,
      "ular": 582,
      "Ġab": 583,
      "ue": 584,
      "als": 585,
      "Ġsignificant": 586,
      "Ġgroup": 587,
      "low": 588,
      "ari": 589,
      "âĢĵ": 590,
      "Ġhave": 591,
      "Ġincre": 592,
      "Ġit": 593,
      "pro": 594,
      "trol": 595,
      "Ġstudy": 596,
      "ative": 597,
      "Ġfunction": 598,
      "so": 599,
      "Ġpatients": 600,
      "ong": 601,
      "Ġpo": 602,
      "ulation": 603,
      "em": 604,
      "Ġpl": 605,
      "ath": 606,
      "Ġusing": 607,
      "Ġcons": 608,
      "Ġcells": 609,
      "Ġresul": 610,
      "Ġrel": 611,
      "Ġtim": 612,
      "rans": 613,
      "end": 614,
      "ang": 615,
      "Ġalso": 616,
      "able": 617,
      "Ġanalys": 618,
      "ĠTh": 619,
      "ary": 620,
      "rib": 621,
      "Ġneuro": 622,
      "Ġcontrol": 623,
      "Ġdi": 624,
      "ral": 625,
      "enc": 626,
      "Ġun": 627,
      "ates": 628,
      "cess": 629,
      "Ġno": 630,
      "Ġcan": 631,
      "Ġdur": 632,
      "Ġtrans": 633,
      "Ġmodel": 634,
      "to": 635,
      "tical": 636,
      "fter": 637,
      "Ġthese": 638,
      "Ġstim": 639,
      "Ġpres": 640,
      "tem": 641,
      "Ġdata": 642,
      "ord": 643,
      "Ġneurons": 644,
      "all": 645,
      "uld": 646,
      "oth": 647,
      "ni": 648,
      "Ġfo": 649,
      "Ġ5": 650,
      "rel": 651,
      "ility": 652,
      "ating": 653,
      "Ġused": 654,
      "ork": 655,
      "Ġ]": 656,
      "dition": 657,
      "ard": 658,
      "Ġlevel": 659,
      "ely": 660,
      "Ġro": 661,
      "lud": 662,
      "ial": 663,
      "Ġph": 664,
      "ures": 665,
      "ugh": 666,
      "wo": 667,
      "Ġeach": 668,
      "Ġmice": 669,
      "Ġperform": 670,
      "Ġam": 671,
      "ied": 672,
      "ions": 673,
      "Ġmay": 674,
      "tif": 675,
      "tain": 676,
      "###": 677,
      "Ġpartic": 678,
      "Ġ4": 679,
      "Ġstudies": 680,
      "ros": 681,
      "ome": 682,
      "ven": 683,
      "Ġdec": 684,
      "Ġ),": 685,
      "ill": 686,
      "ame": 687,
      "Ġbeen": 688,
      "Ġtime": 689,
      "Ġmo": 690,
      "Ġinf": 691,
      "Ġinv": 692,
      "tal": 693,
      "Ġduring": 694,
      "ile": 695,
      "Ġhas": 696,
      "ech": 697,
      "duced": 698,
      "Ġafter": 699,
      "Ġmet": 700,
      "ha": 701,
      "Ġassoci": 702,
      "ct": 703,
      "ser": 704,
      "val": 705,
      "Ġtwo": 706,
      "ron": 707,
      "ĠV": 708,
      "Ġbut": 709,
      "Ġstr": 710,
      "min": 711,
      "Ġvari": 712,
      "ized": 713,
      "ants": 714,
      "Ġrep": 715,
      "ared": 716,
      "Ġactivity": 717,
      "Ġexper": 718,
      "Ġspec": 719,
      "Ġanalysis": 720,
      "Ġall": 721,
      "Ġboth": 722,
      "ces": 723,
      "uch": 724,
      "tial": 725,
      "Ġmore": 726,
      "Ġund": 727,
      "ask": 728,
      "Ġother": 729,
      "Ġtre": 730,
      "ose": 731,
      "Ġk": 732,
      "Ġ.": 733,
      "ak": 734,
      "ite": 735,
      "Ġind": 736,
      "Ġacc": 737,
      "Ġprote": 738,
      "havi": 739,
      "ĠÎ": 740,
      "Ġthan": 741,
      "ever": 742,
      "ond": 743,
      "ive": 744,
      "Ġsyn": 745,
      "ep": 746,
      "ĠWe": 747,
      "ĠU": 748,
      "ms": 749,
      "ear": 750,
      "port": 751,
      "ast": 752,
      "ack": 753,
      "Ġinclud": 754,
      "ree": 755,
      "Ġresults": 756,
      "ological": 757,
      "hib": 758,
      "ĠThis": 759,
      "Ġunder": 760,
      "ass": 761,
      "lu": 762,
      "ost": 763,
      "mo": 764,
      "Ġprocess": 765,
      "Ġobser": 766,
      "Ġdifferent": 767,
      "Ġtheir": 768,
      "The": 769,
      "Ġbl": 770,
      "Ġmeas": 771,
      "Ġexpression": 772,
      "tex": 773,
      "arg": 774,
      "Ġover": 775,
      "ogni": 776,
      "trib": 777,
      "ollow": 778,
      "ber": 779,
      "Ġval": 780,
      "Ġsup": 781,
      "ugg": 782,
      "NA": 783,
      "gen": 784,
      "Ġbehavi": 785,
      "out": 786,
      "Ġsim": 787,
      "Ġsugg": 788,
      "Ġar": 789,
      "Ġhigh": 790,
      "cept": 791,
      "âĢĻ": 792,
      "Ġmem": 793,
      "Ġdes": 794,
      "Ġour": 795,
      "âĢĲ": 796,
      "Ġpath": 797,
      "per": 798,
      "Ġfin": 799,
      "Ġtest": 800,
      "Ġindic": 801,
      "Ġparticip": 802,
      "tern": 803,
      "aus": 804,
      "Ġdep": 805,
      "Ġfound": 806,
      "velop": 807,
      "tribu": 808,
      "Ġtask": 809,
      "ystem": 810,
      "Ġfollow": 811,
      "pec": 812,
      "Ġnum": 813,
      "Ġstimul": 814,
      "owever": 815,
      "onal": 816,
      "ide": 817,
      "Ġeffect": 818,
      "Ġag": 819,
      "ox": 820,
      "Ġqu": 821,
      "ist": 822,
      "ew": 823,
      "Ġeffects": 824,
      "Ġ].": 825,
      "iti": 826,
      "edi": 827,
      "ft": 828,
      "Ġprotein": 829,
      "tivity": 830,
      "ult": 831,
      "ases": 832,
      "ition": 833,
      "ace": 834,
      "atment": 835,
      "ark": 836,
      "onse": 837,
      "Ġout": 838,
      "ĠK": 839,
      "ues": 840,
      "ann": 841,
      "ability": 842,
      "Ġone": 843,
      "ym": 844,
      "atory": 845,
      "nec": 846,
      "Ġcompared": 847,
      "iss": 848,
      "cl": 849,
      "Ġlow": 850,
      "otor": 851,
      "ross": 852,
      "Ġexperim": 853,
      "Ġloc": 854,
      "ll": 855,
      "hed": 856,
      "Ġsuch": 857,
      "Ġanti": 858,
      "vious": 859,
      "ĠâĢ": 860,
      "Ġhyp": 861,
      "tin": 862,
      "Ġsystem": 863,
      "Ġy": 864,
      "etwork": 865,
      "Ġfir": 866,
      "Ġdevelop": 867,
      "Ġimp": 868,
      "hes": 869,
      "Ġlevels": 870,
      "ays": 871,
      "one": 872,
      "lic": 873,
      "Ġ6": 874,
      "Ġdef": 875,
      "iden": 876,
      "Ġchang": 877,
      "urther": 878,
      "01": 879,
      "fore": 880,
      "ale": 881,
      "mun": 882,
      "Ġvis": 883,
      "Ġdem": 884,
      "quenc": 885,
      "Ġcorrel": 886,
      "Ġdise": 887,
      "tes": 888,
      "ization": 889,
      "Ġcogni": 890,
      "Ġiden": 891,
      "Ġresponse": 892,
      "divid": 893,
      "Ġ<": 894,
      "Ġthere": 895,
      "Ġsec": 896,
      "Ġassociated": 897,
      "Ġincreased": 898,
      "ail": 899,
      "amp": 900,
      "Ġgl": 901,
      "Ġtri": 902,
      "ype": 903,
      "Ġpoten": 904,
      "ric": 905,
      "dividual": 906,
      "Ġsubjec": 907,
      "Ġtreatment": 908,
      "Ġnetwork": 909,
      "Ġinto": 910,
      "Ġra": 911,
      "Ġ10": 912,
      "Ġconnec": 913,
      "der": 914,
      "Ġpr": 915,
      "ans": 916,
      "Ġimag": 917,
      "uct": 918,
      "Ġgener": 919,
      "Ġfact": 920,
      "Ġappro": 921,
      "ne": 922,
      "Ġnon": 923,
      "ater": 924,
      "Ġobserved": 925,
      "Ġsens": 926,
      "Ġonly": 927,
      "urren": 928,
      "ments": 929,
      "are": 930,
      "amm": 931,
      "Ġbehavior": 932,
      "Ġrat": 933,
      "Ġso": 934,
      "Ġcould": 935,
      "ormal": 936,
      "Ġinhib": 937,
      "Â±": 938,
      "Ġexam": 939,
      "Ġchanges": 940,
      "hod": 941,
      "hen": 942,
      "Ġshowed": 943,
      "Ġnumber": 944,
      "its": 945,
      "Ġman": 946,
      "own": 947,
      "ock": 948,
      "Ġtr": 949,
      "Ġwhen": 950,
      "echan": 951,
      "Ġfe": 952,
      "Ġshown": 953,
      "ise": 954,
      "Ġindividual": 955,
      "inical": 956,
      "Ġprevious": 957,
      "ilar": 958,
      "Ġrepor": 959,
      "RI": 960,
      "Ġrepres": 961,
      "sy": 962,
      "Ġcortex": 963,
      "old": 964,
      "Ġsignificantly": 965,
      "yl": 966,
      "Ġpred": 967,
      "Ġwithin": 968,
      "Ġinte": 969,
      "Ġage": 970,
      "Ġop": 971,
      "Ġmechan": 972,
      "dep": 973,
      "ior": 974,
      "Ġmat": 975,
      "Ġmul": 976,
      "poc": 977,
      "ined": 978,
      "cy": 979,
      "Ġmicro": 980,
      "ĠHowever": 981,
      "endent": 982,
      "Ġcomple": 983,
      "Ġwell": 984,
      "cent": 985,
      "ning": 986,
      "Ġidentif": 987,
      "dings": 988,
      "ould": 989,
      "air": 990,
      "Ġsam": 991,
      "âĢĿ": 992,
      "Ġperformed": 993,
      "tent": 994,
      "Ġpost": 995,
      "Ġcognitive": 996,
      "Ġparticipants": 997,
      "Ġgene": 998,
      "ange": 999,
      "Ġins": 1000,
      "Ġanim": 1001,
      "ired": 1002,
      "Ġcol": 1003,
      "Ġup": 1004,
      "Ġregions": 1005,
      "inal": 1006,
      "action": 1007,
      "les": 1008,
      "ob": 1009,
      "ize": 1010,
      "ulated": 1011,
      "par": 1012,
      "Ġhig": 1013,
      "ild": 1014,
      "itive": 1015,
      "Ġdifferences": 1016,
      "ters": 1017,
      "Ġconf": 1018,
      "cc": 1019,
      "Ġsur": 1020,
      "Ġprovid": 1021,
      "Ġli": 1022,
      "ced": 1023,
      "Ġsynap": 1024,
      "esti": 1025,
      "ateral": 1026,
      "Ġactivation": 1027,
      "Ġsignal": 1028,
      "Ġmin": 1029,
      "ology": 1030,
      "Ġrespons": 1031,
      "05": 1032,
      "ough": 1033,
      "Ġfunctional": 1034,
      "ix": 1035,
      "ĠâĢľ": 1036,
      "erg": 1037,
      "Ġdecre": 1038,
      "Ġhad": 1039,
      "Ġfirst": 1040,
      "Ġ7": 1041,
      "Ġits": 1042,
      "ented": 1043,
      "ood": 1044,
      "onstr": 1045,
      "duction": 1046,
      "Ġref": 1047,
      "rough": 1048,
      "Ġdisease": 1049,
      "ward": 1050,
      "ippoc": 1051,
      "Ġfre": 1052,
      "ippocamp": 1053,
      "Ġtem": 1054,
      "ered": 1055,
      "reg": 1056,
      "Fig": 1057,
      "Ġinform": 1058,
      "Ġvisual": 1059,
      "ores": 1060,
      "Ġ-": 1061,
      "ĠFor": 1062,
      "pos": 1063,
      "Ġassess": 1064,
      "oun": 1065,
      "vo": 1066,
      "Ġpresent": 1067,
      "Ġhum": 1068,
      "Ġbi": 1069,
      "Ġmean": 1070,
      "tively": 1071,
      "vers": 1072,
      "Ġrecept": 1073,
      "Ġwhere": 1074,
      "ĠThese": 1075,
      "Ġma": 1076,
      "hem": 1077,
      "Ġmechanis": 1078,
      "ici": 1079,
      "Ġmon": 1080,
      "ible": 1081,
      "Ġcompar": 1082,
      "ĠAD": 1083,
      "atic": 1084,
      "10": 1085,
      "Ġgroups": 1086,
      "Ġinvol": 1087,
      "Ġelec": 1088,
      "arget": 1089,
      "Ġclinical": 1090,
      "ature": 1091,
      "Ġaut": 1092,
      "Ġbas": 1093,
      "rect": 1094,
      "ogen": 1095,
      "Ġpat": 1096,
      "urrent": 1097,
      "Ġsuggest": 1098,
      "Ġmotor": 1099,
      "gl": 1100,
      "Ġaddition": 1101,
      "Ġmain": 1102,
      "Ġmemory": 1103,
      "Ġpredic": 1104,
      "âĪ": 1105,
      "Ġthrough": 1106,
      "dependent": 1107,
      "Ġmulti": 1108,
      "Ġacross": 1109,
      "Ġhigher": 1110,
      "ereb": 1111,
      "Ġvol": 1112,
      "Ġhippocamp": 1113,
      "estig": 1114,
      "ĠAn": 1115,
      "usion": 1116,
      "ving": 1117,
      "Ġem": 1118,
      "Ġthree": 1119,
      "ental": 1120,
      "atis": 1121,
      "Ġreported": 1122,
      "Ġstruct": 1123,
      "Ġcal": 1124,
      "Ġmost": 1125,
      "ĠSt": 1126,
      "li": 1127,
      "Ġmethod": 1128,
      "agn": 1129,
      "Ġsimilar": 1130,
      "ucle": 1131,
      "Ġinvestig": 1132,
      "ines": 1133,
      "acter": 1134,
      "tained": 1135,
      "Ġsame": 1136,
      "arch": 1137,
      "ities": 1138,
      "In": 1139,
      "ured": 1140,
      "osis": 1141,
      "over": 1142,
      "Ġrole": 1143,
      "Ġtarget": 1144,
      "Ġ9": 1145,
      "Ġes": 1146,
      "ĠĊĠĠĊ": 1147,
      "trac": 1148,
      "Ġdete": 1149,
      "itud": 1150,
      "Ġspecific": 1151,
      "Ġkn": 1152,
      "Ġform": 1153,
      "alth": 1154,
      "Ġexpl": 1155,
      "Ġneural": 1156,
      "plic": 1157,
      "Ġdemonstr": 1158,
      "Ġpattern": 1159,
      "ry": 1160,
      "Ġdesc": 1161,
      "ution": 1162,
      "Ġlong": 1163,
      "Ġleft": 1164,
      "Ġear": 1165,
      "Ġdisc": 1166,
      "Ġstimulation": 1167,
      "Ġ8": 1168,
      "Ġdid": 1169,
      "Ġaffec": 1170,
      "Ġincluding": 1171,
      "Ġthey": 1172,
      "Ġresponses": 1173,
      "rap": 1174,
      "Ġser": 1175,
      "Ġright": 1176,
      "ited": 1177,
      "Ġocc": 1178,
      "Cs": 1179,
      "ural": 1180,
      "els": 1181,
      "Ġsym": 1182,
      "sc": 1183,
      "Ġincrease": 1184,
      "Ġcontr": 1185,
      "raph": 1186,
      "Ġimport": 1187,
      "Ġdevelopment": 1188,
      "Ġchar": 1189,
      "Ġexc": 1190,
      "Ġlear": 1191,
      "Ġrepresent": 1192,
      "Ġdo": 1193,
      "Ġpotential": 1194,
      "ically": 1195,
      "Ġneuronal": 1196,
      "Ġwhile": 1197,
      "mon": 1198,
      "Ġdeter": 1199,
      "Ġinformation": 1200,
      "PS": 1201,
      "Ġprim": 1202,
      "Ġprob": 1203,
      "Ġdisord": 1204,
      "CA": 1205,
      "lamm": 1206,
      "Ġcy": 1207,
      "ause": 1208,
      "Ġcondition": 1209,
      "ptom": 1210,
      "Ġcortical": 1211,
      "EG": 1212,
      "Ġrem": 1213,
      "oph": 1214,
      "Ġcereb": 1215,
      "quency": 1216,
      "Î²": 1217,
      "Ġimmun": 1218,
      "âĪĴ": 1219,
      "Ġset": 1220,
      "ption": 1221,
      "Ġposs": 1222,
      "sych": 1223,
      "ex": 1224,
      "Ġrespec": 1225,
      "SD": 1226,
      "ort": 1227,
      "tens": 1228,
      "ears": 1229,
      "Ġax": 1230,
      "Ġfindings": 1231,
      "isk": 1232,
      "Ġevid": 1233,
      "Ġuse": 1234,
      "Ġperformance": 1235,
      "Ġthen": 1236,
      "ind": 1237,
      "ĠFig": 1238,
      "Ġnormal": 1239,
      "ination": 1240,
      "Ġfollowing": 1241,
      "Ġrese": 1242,
      "ĠAl": 1243,
      "ins": 1244,
      "Ġend": 1245,
      "iel": 1246,
      "gr": 1247,
      "Ġtrain": 1248,
      "Ġcalc": 1249,
      "Ġi": 1250,
      "Ġmedi": 1251,
      "Ġep": 1252,
      "Ġsubjects": 1253,
      "Ġcurrent": 1254,
      "Ġfurther": 1255,
      "ness": 1256,
      "ked": 1257,
      "Ġcharacter": 1258,
      "Ġol": 1259,
      "way": 1260,
      "ouse": 1261,
      "ditions": 1262,
      "Ġwho": 1263,
      "ressed": 1264,
      "ĠAs": 1265,
      "ĠTo": 1266,
      "Ġline": 1267,
      "Ġmodels": 1268,
      "Ġconsis": 1269,
      "ÃĹ": 1270,
      "ording": 1271,
      "ingle": 1272,
      "ĠÂ±": 1273,
      "Ġhuman": 1274,
      "poral": 1275,
      "Ġconditions": 1276,
      "Ġtes": 1277,
      "Ġmus": 1278,
      "Ġbased": 1279,
      "ield": 1280,
      "Ġlim": 1281,
      "Ġatten": 1282,
      "cted": 1283,
      "irc": 1284,
      "ute": 1285,
      "Ġver": 1286,
      "RNA": 1287,
      "Ġthose": 1288,
      "Ġvi": 1289,
      "ody": 1290,
      "Ġrele": 1291,
      "itory": 1292,
      "ves": 1293,
      "tit": 1294,
      "Ġwhether": 1295,
      "Ġsome": 1296,
      "rontal": 1297,
      "vement": 1298,
      "Ġgre": 1299,
      "Ġdescrib": 1300,
      "our": 1301,
      "xim": 1302,
      "related": 1303,
      "Ġrats": 1304,
      "20": 1305,
      "Ġreve": 1306,
      "Ġclass": 1307,
      "Ġsever": 1308,
      "Ġtrials": 1309,
      "king": 1310,
      "AP": 1311,
      "Ġapp": 1312,
      "arge": 1313,
      "ypes": 1314,
      "Ġimpro": 1315,
      "Ġconsid": 1316,
      "Ġreduced": 1317,
      "FC": 1318,
      "Ġregion": 1319,
      "view": 1320,
      "tered": 1321,
      "valu": 1322,
      "Ġvalues": 1323,
      "led": 1324,
      "ĠCon": 1325,
      "amic": 1326,
      "Ġmut": 1327,
      "Ġaver": 1328,
      "Ġsingle": 1329,
      "set": 1330,
      "ults": 1331,
      "Ġhealth": 1332,
      "Ġelectro": 1333,
      "Ġrequ": 1334,
      "Ġsymptom": 1335,
      "Ġprocessing": 1336,
      "Ġsm": 1337,
      "entral": 1338,
      "Ġconnectivity": 1339,
      "'s": 1340,
      "spec": 1341,
      "Ġlearning": 1342,
      "ived": 1343,
      "Ġpoin": 1344,
      "Ġanimals": 1345,
      "ysi": 1346,
      "MS": 1347,
      "Ġimportant": 1348,
      "ane": 1349,
      "ently": 1350,
      "Ġany": 1351,
      "hip": 1352,
      "cri": 1353,
      "Ġevidence": 1354,
      "ice": 1355,
      "ĠPD": 1356,
      "Ġwork": 1357,
      "ĠThere": 1358,
      "cle": 1359,
      "Ġcontrols": 1360,
      "Ġcontribu": 1361,
      "Ġpop": 1362,
      "yr": 1363,
      "001": 1364,
      "&#": 1365,
      "ffici": 1366,
      "Ġnucle": 1367,
      "Ġreveal": 1368,
      "Ġdel": 1369,
      "Ġbec": 1370,
      "Ġtotal": 1371,
      "istic": 1372,
      "ful": 1373,
      "Ġperi": 1374,
      "Ġmed": 1375,
      "Ġcirc": 1376,
      "Ġstimuli": 1377,
      "terior": 1378,
      "though": 1379,
      "Ġsmall": 1380,
      "Ġfrequency": 1381,
      "Ġev": 1382,
      "Ġsugges": 1383,
      "Ġevalu": 1384,
      "Ġ20": 1385,
      "12": 1386,
      "Ġwould": 1387,
      "Ġdr": 1388,
      "Ġvs": 1389,
      "Ġgenes": 1390,
      "Ġampl": 1391,
      "Ġdistribu": 1392,
      "ocial": 1393,
      "AB": 1394,
      "tional": 1395,
      "Ġtra": 1396,
      "Ġvolum": 1397,
      "Ġmultiple": 1398,
      "ately": 1399,
      "Ġresearch": 1400,
      "Ġcri": 1401,
      "ef": 1402,
      "Ġdifference": 1403,
      "olution": 1404,
      "ta": 1405,
      "ateg": 1406,
      "Ġrelated": 1407,
      "ither": 1408,
      "Ġter": 1409,
      "Ġlower": 1410,
      "Ġstress": 1411,
      "Â°": 1412,
      "Ġselec": 1413,
      "vely": 1414,
      "Ġdue": 1415,
      "Ġrate": 1416,
      "Ġlead": 1417,
      "Ġanaly": 1418,
      "Ġanalyses": 1419,
      "Ġsecond": 1420,
      "Ġstatis": 1421,
      "Ġmouse": 1422,
      "Ġstimulus": 1423,
      "Ġsynaptic": 1424,
      "Ġmicrogl": 1425,
      "oss": 1426,
      "Ġrisk": 1427,
      "Ġmeasure": 1428,
      "Ġneg": 1429,
      "Ġpe": 1430,
      "ĠÎ¼": 1431,
      "Ġrelations": 1432,
      "fer": 1433,
      "Ġtiss": 1434,
      "Ġremain": 1435,
      "Ġspati": 1436,
      "ek": 1437,
      "50": 1438,
      "rection": 1439,
      "ĠJ": 1440,
      "Ġearly": 1441,
      "put": 1442,
      "ĠSc": 1443,
      "han": 1444,
      "Ġbehavioral": 1445,
      "com": 1446,
      "Ġcomplex": 1447,
      "FP": 1448,
      "eline": 1449,
      "oid": 1450,
      "Ġtemporal": 1451,
      "resp": 1452,
      "leep": 1453,
      "zed": 1454,
      "andard": 1455,
      "con": 1456,
      "line": 1457,
      "Ġmechanisms": 1458,
      "Ġmark": 1459,
      "CI": 1460,
      "eration": 1461,
      "Ġidentified": 1462,
      "Ġcar": 1463,
      "ject": 1464,
      "ulate": 1465,
      "OV": 1466,
      "ish": 1467,
      "iven": 1468,
      "iet": 1469,
      "PA": 1470,
      "Ġbefore": 1471,
      "ication": 1472,
      "Ġcomparis": 1473,
      "000": 1474,
      "SA": 1475,
      "ational": 1476,
      "Ġfactors": 1477,
      "Ġrespectively": 1478,
      "Ġj": 1479,
      "Ġrelationship": 1480,
      "ages": 1481,
      "Ġareas": 1482,
      "Ġner": 1483,
      "gth": 1484,
      "Ġarea": 1485,
      "Ġperiod": 1486,
      "Ġimaging": 1487,
      "Ġdys": 1488,
      "Ġste": 1489,
      "uce": 1490,
      "EM": 1491,
      "Ġreceptor": 1492,
      "Ġsampl": 1493,
      "BS": 1494,
      "CS": 1495,
      "Ġdescribed": 1496,
      "Ġwill": 1497,
      "Ġblock": 1498,
      "Ġtherap": 1499,
      "ĠIt": 1500,
      "Ġincluded": 1501,
      "Ġestim": 1502,
      "Ġmight": 1503,
      "stan": 1504,
      "Ġplas": 1505,
      "ales": 1506,
      "resh": 1507,
      "itude": 1508,
      "ĠEx": 1509,
      "Ġcompon": 1510,
      "Ġclus": 1511,
      "Ġinjec": 1512,
      "Ġlocal": 1513,
      "ĠRes": 1514,
      "Ġcomb": 1515,
      "ĠCh": 1516,
      "amine": 1517,
      "Ġchild": 1518,
      "err": 1519,
      "round": 1520,
      "Ġtraining": 1521,
      "Ġstrong": 1522,
      "Ġparame": 1523,
      "Ġ12": 1524,
      "ade": 1525,
      "ĠĠĠ": 1526,
      "Ġsize": 1527,
      "Ġwithout": 1528,
      "induced": 1529,
      "ĠCA": 1530,
      "Ġexperiments": 1531,
      "Ġabs": 1532,
      "ust": 1533,
      "ma": 1534,
      "Ġpain": 1535,
      "ergic": 1536,
      "Ġhem": 1537,
      "och": 1538,
      "Ġconduc": 1539,
      "rest": 1540,
      "medi": 1541,
      "Ġdiagn": 1542,
      "Ġchann": 1543,
      "jur": 1544,
      "Ġpreviously": 1545,
      "Ġpresented": 1546,
      "Ġcap": 1547,
      "Ġchange": 1548,
      "Ġdirect": 1549,
      "ĠâĢĵ": 1550,
      "Ġcorrelation": 1551,
      "Ġcontrast": 1552,
      "Ġimages": 1553,
      "ograph": 1554,
      "ĠFurther": 1555,
      "man": 1556,
      "Ġgra": 1557,
      "Ġstate": 1558,
      "acy": 1559,
      "Ġinflu": 1560,
      "Ġsleep": 1561,
      "orph": 1562,
      "ound": 1563,
      "istr": 1564,
      "Ġcaus": 1565,
      "Ġsample": 1566,
      "ĠIm": 1567,
      "osph": 1568,
      "Ġlab": 1569,
      "ified": 1570,
      "atures": 1571,
      "elf": 1572,
      "tre": 1573,
      "RP": 1574,
      "Ġstandard": 1575,
      "Ġinvolved": 1576,
      "Ġpsych": 1577,
      "Ġpositive": 1578,
      "Ġdom": 1579,
      "Ġeither": 1580,
      "based": 1581,
      "Ġhypot": 1582,
      "Ġoccur": 1583,
      "Ġexpos": 1584,
      "asc": 1585,
      "Ġsocial": 1586,
      "Ġquan": 1587,
      "gan": 1588,
      "Ġphase": 1589,
      "ĠAll": 1590,
      "MRI": 1591,
      "Ġz": 1592,
      "ĠNe": 1593,
      "Ġrevealed": 1594,
      "ect": 1595,
      "ium": 1596,
      "Ġloss": 1597,
      "Ġflu": 1598,
      "inf": 1599,
      "AT": 1600,
      "ger": 1601,
      "Ġrepe": 1602,
      "Ġsymptoms": 1603,
      "Ġantib": 1604,
      "plement": 1605,
      "mit": 1606,
      "Ġnew": 1607,
      "Ġmeasured": 1608,
      "atal": 1609,
      "Ġfac": 1610,
      "Ġif": 1611,
      "Ġphen": 1612,
      "Ġdecreased": 1613,
      "ties": 1614,
      "Ġindividuals": 1615,
      "Ġobtained": 1616,
      "Ġimpair": 1617,
      "Ġastro": 1618,
      "11": 1619,
      "Ġinteraction": 1620,
      "Ġhow": 1621,
      "taining": 1622,
      "reshold": 1623,
      "Ġpossible": 1624,
      "aired": 1625,
      "Ġ30": 1626,
      "au": 1627,
      "Ġallow": 1628,
      "Ġmemb": 1629,
      "Ġexcit": 1630,
      "Ġbar": 1631,
      "tially": 1632,
      "ian": 1633,
      "Ġparticular": 1634,
      "Ġmap": 1635,
      "ower": 1636,
      "jury": 1637,
      "centr": 1638,
      "Ġlarg": 1639,
      "Ġspatial": 1640,
      "Ġfr": 1641,
      "Ġstro": 1642,
      "Ġprog": 1643,
      "Ġseveral": 1644,
      "NS": 1645,
      "ital": 1646,
      "ished": 1647,
      "Ġbet": 1648,
      "DA": 1649,
      "Ġreview": 1650,
      "ily": 1651,
      "uit": 1652,
      "Ġhypothes": 1653,
      "Ġlarge": 1654,
      "NF": 1655,
      "ull": 1656,
      "Ġcommon": 1657,
      "Ġvalue": 1658,
      "Ġaverage": 1659,
      "ected": 1660,
      "ie": 1661,
      "Ġprocesses": 1662,
      "Ġdisorders": 1663,
      "ynamic": 1664,
      "Ġless": 1665,
      "Ġneed": 1666,
      "iron": 1667,
      "Ġdist": 1668,
      "erence": 1669,
      "Ġconcentr": 1670,
      "ĠĊĊĊ": 1671,
      "Ġfem": 1672,
      "Ġaccur": 1673,
      "ysiological": 1674,
      "ĠâĪĴ": 1675,
      "tra": 1676,
      "CC": 1677,
      "Ġfib": 1678,
      "Ġtype": 1679,
      "Ġrece": 1680,
      "Ġlik": 1681,
      "Ġmeasures": 1682,
      "Ġfactor": 1683,
      "Ġhippocampus": 1684,
      "Ġsite": 1685,
      "ĠCS": 1686,
      "Ġemo": 1687,
      "Ġdemonstrated": 1688,
      "Ġspe": 1689,
      "Ġprimary": 1690,
      "ience": 1691,
      "Ġpatient": 1692,
      "Ġscores": 1693,
      "lammatory": 1694,
      "ov": 1695,
      "vail": 1696,
      "sequ": 1697,
      "of": 1698,
      "Ġconsistent": 1699,
      "Ġstroke": 1700,
      "Ġles": 1701,
      "vant": 1702,
      "Ġhealthy": 1703,
      "Ġfield": 1704,
      "Ġproteins": 1705,
      "CR": 1706,
      "Ġabout": 1707,
      "Ġpref": 1708,
      "rial": 1709,
      "Ġvers": 1710,
      "Ġfeatures": 1711,
      "Ġbaseline": 1712,
      "Ġtissue": 1713,
      "Ġmolec": 1714,
      "key": 1715,
      "Ġexpressed": 1716,
      "Ġfour": 1717,
      "ĠCa": 1718,
      "Ġfoc": 1719,
      "uss": 1720,
      "Ġcle": 1721,
      "Ġshould": 1722,
      "Ġsess": 1723,
      "Ġacqu": 1724,
      "Ġsignaling": 1725,
      "We": 1726,
      "Ġdetermin": 1727,
      "Ġdesign": 1728,
      "Ġastrocy": 1729,
      "lex": 1730,
      "Ġrecord": 1731,
      "Ġms": 1732,
      "ling": 1733,
      "Ġcorresp": 1734,
      "ification": 1735,
      "Ġnegative": 1736,
      "Ġyears": 1737,
      "Ġdrug": 1738,
      "ove": 1739,
      "####": 1740,
      "ĠAN": 1741,
      "Ġdays": 1742,
      "Ġred": 1743,
      "lying": 1744,
      "Ġapproach": 1745,
      "Ġvolume": 1746,
      "til": 1747,
      "las": 1748,
      "aneous": 1749,
      "Ġindicate": 1750,
      "Ġonset": 1751,
      "ision": 1752,
      "ency": 1753,
      "Ġpart": 1754,
      "atively": 1755,
      "Ġinjury": 1756,
      "pre": 1757,
      "Ġindependent": 1758,
      "ĠMore": 1759,
      "AD": 1760,
      "Ġsensory": 1761,
      "andom": 1762,
      "Ġorder": 1763,
      "jor": 1764,
      "Ġvia": 1765,
      "ded": 1766,
      "tero": 1767,
      "Ġlay": 1768,
      "art": 1769,
      "Ġanalyzed": 1770,
      "ĠThus": 1771,
      "hy": 1772,
      "Ġrelative": 1773,
      "Ġgeneral": 1774,
      "ĠIL": 1775,
      "Ġsepar": 1776,
      "ator": 1777,
      "ick": 1778,
      "ule": 1779,
      "ism": 1780,
      "Ġpopulation": 1781,
      "Ġday": 1782,
      "ynap": 1783,
      "Ġexperimental": 1784,
      "Ġprovide": 1785,
      "cer": 1786,
      "plied": 1787,
      "ner": 1788,
      "RS": 1789,
      "Ġblood": 1790,
      "vere": 1791,
      "ABA": 1792,
      "Ġbin": 1793,
      "abol": 1794,
      "Ġsamples": 1795,
      "Ġthreshold": 1796,
      "CT": 1797,
      "Ġhand": 1798,
      "ĠEEG": 1799,
      "ĠCom": 1800,
      "25": 1801,
      "Ġhippocampal": 1802,
      "ellular": 1803,
      "Ġexample": 1804,
      "ĠÎ±": 1805,
      "see": 1806,
      "Ġele": 1807,
      "Ġrange": 1808,
      "Ġmicroglia": 1809,
      "Ġpower": 1810,
      "Ġpatterns": 1811,
      "Ġbecause": 1812,
      "rior": 1813,
      "Ġreceptors": 1814,
      "other": 1815,
      "Ġreflec": 1816,
      "Ġlate": 1817,
      "row": 1818,
      "Ġerr": 1819,
      "more": 1820,
      "15": 1821,
      "Ġmajor": 1822,
      "Ġinhibition": 1823,
      "ĠAP": 1824,
      "amin": 1825,
      "ĠÃĹ": 1826,
      "Ġspi": 1827,
      "co": 1828,
      "Ġintegr": 1829,
      "me": 1830,
      "Ġmembran": 1831,
      "Ġneuron": 1832,
      "yg": 1833,
      "ways": 1834,
      "ality": 1835,
      "Ġaud": 1836,
      "Ġtrial": 1837,
      "MP": 1838,
      "av": 1839,
      "ulations": 1840,
      "13": 1841,
      "Ġscore": 1842,
      "OVA": 1843,
      "itor": 1844,
      "Ġ*": 1845,
      "Ġrandom": 1846,
      "Ġfl": 1847,
      "utam": 1848,
      "Ġgenetic": 1849,
      "ĠRe": 1850,
      "Ġmatter": 1851,
      "Ġresult": 1852,
      "Ġknown": 1853,
      "Ġabove": 1854,
      "Ġnetworks": 1855,
      "ĠAd": 1856,
      "toc": 1857,
      "ĠZ": 1858,
      "Ġcult": 1859,
      "Ġamong": 1860,
      "like": 1861,
      "Ġsignals": 1862,
      "ĠFigure": 1863,
      "olar": 1864,
      "Ġparameters": 1865,
      "Ġlight": 1866,
      "Ġlikely": 1867,
      "ĠQ": 1868,
      "ĠOur": 1869,
      "14": 1870,
      "Ġattention": 1871,
      "irm": 1872,
      "asing": 1873,
      "Ġconducted": 1874,
      "specific": 1875,
      "yel": 1876,
      "Ġmid": 1877,
      "Ġdistribution": 1878,
      "TP": 1879,
      "oding": 1880,
      "alys": 1881,
      "Ġel": 1882,
      "Ġgreater": 1883,
      "rim": 1884,
      "ocy": 1885,
      "Ġavail": 1886,
      "ire": 1887,
      "term": 1888,
      "Ġ15": 1889,
      "Ġpresence": 1890,
      "Ġtranscri": 1891,
      "ilateral": 1892,
      "Ġintens": 1893,
      "Ġ24": 1894,
      "Ġstri": 1895,
      "Ġchildren": 1896,
      "Ġequ": 1897,
      "Ġdispl": 1898,
      "log": 1899,
      "ored": 1900,
      "Ġhyper": 1901,
      "ince": 1902,
      "II": 1903,
      "ilep": 1904,
      "ynaptic": 1905,
      "ĠMRI": 1906,
      "Ġbel": 1907,
      "Ġhead": 1908,
      "Ġlin": 1909,
      "viron": 1910,
      "Ġamplitude": 1911,
      "Ġanimal": 1912,
      "ses": 1913,
      "Ġ100": 1914,
      "Ġsuper": 1915,
      "Ġcentral": 1916,
      "otype": 1917,
      "Ġcases": 1918,
      "Figure": 1919,
      "Ġ50": 1920,
      "Ġconsidered": 1921,
      "Ġtech": 1922,
      "reen": 1923,
      "19": 1924,
      "Ġcontex": 1925,
      "Ġinduced": 1926,
      "Ġreward": 1927,
      "ĠGABA": 1928,
      "Ġauth": 1929,
      "Ġenc": 1930,
      "Ġhist": 1931,
      "Ġweek": 1932,
      "AS": 1933,
      "Ġmany": 1934,
      "ission": 1935,
      "Ġdefic": 1936,
      "Ġproper": 1937,
      "uts": 1938,
      "iv": 1939,
      "cor": 1940,
      "Ġcalculated": 1941,
      "Ġox": 1942,
      "Ġgiven": 1943,
      "Ġassociation": 1944,
      "ĠRO": 1945,
      "que": 1946,
      "aren": 1947,
      "Ġadmin": 1948,
      "Ġphosph": 1949,
      "roup": 1950,
      "Ġdynamic": 1951,
      "Ġfunctions": 1952,
      "Ġtasks": 1953,
      "Ġmethods": 1954,
      "ably": 1955,
      "Ġdat": 1956,
      "endri": 1957,
      "Ġcoun": 1958,
      "Ġalter": 1959,
      "here": 1960,
      "ĠY": 1961,
      "roph": 1962,
      "Ġconfirm": 1963,
      "Ġrati": 1964,
      "cence": 1965,
      "Ġpathway": 1966,
      "Ġbody": 1967,
      "Ġeven": 1968,
      "ĠMS": 1969,
      "onding": 1970,
      "Ġfrontal": 1971,
      "ronic": 1972,
      "inc": 1973,
      "Ġfollowed": 1974,
      "ether": 1975,
      "Ġrecorded": 1976,
      "Ġprior": 1977,
      "Ġsuggesting": 1978,
      "Ġindicated": 1979,
      "Ġexhib": 1980,
      "normal": 1981,
      "posed": 1982,
      "Ġdeg": 1983,
      "Ġdop": 1984,
      "Ġtypes": 1985,
      "face": 1986,
      "ount": 1987,
      "aging": 1988,
      "des": 1989,
      "Ġdomain": 1990,
      "isp": 1991,
      "ĠNo": 1992,
      "Ġdens": 1993,
      "30": 1994,
      "actions": 1995,
      "Ġthus": 1996,
      "Ġinterest": 1997,
      "Ġapplied": 1998,
      "Ġmetabol": 1999,
      "Ġdet": 2000,
      "Ġpeak": 2001,
      "Ġtested": 2002,
      "the": 2003,
      "esis": 2004,
      "Î±": 2005,
      "Ġmit": 2006,
      "fficient": 2007,
      "tis": 2008,
      "Ġlo": 2009,
      "ables": 2010,
      "ixed": 2011,
      "ĠPro": 2012,
      "Ġself": 2013,
      "Ġwhereas": 2014,
      "Ġorgan": 2015,
      "uff": 2016,
      "ax": 2017,
      "ĠAÎ²": 2018,
      "Ġcerebell": 2019,
      "ping": 2020,
      "function": 2021,
      "Ġduration": 2022,
      "ths": 2023,
      "Ġcross": 2024,
      "Ġexperiment": 2025,
      "Ġsex": 2026,
      "ĠData": 2027,
      "Ġfam": 2028,
      "Ġadult": 2029,
      "we": 2030,
      "Ġproced": 2031,
      "ĠFurthermore": 2032,
      "itivity": 2033,
      "Ġextrac": 2034,
      "Ġdown": 2035,
      "Ġassessed": 2036,
      "istration": 2037,
      "To": 2038,
      "Ġdepression": 2039,
      "come": 2040,
      "pression": 2041,
      "Ġcase": 2042,
      "ife": 2043,
      "Ġtimes": 2044,
      "ressing": 2045,
      "erc": 2046,
      "Ġenviron": 2047,
      "uture": 2048,
      "vation": 2049,
      "Ġmovement": 2050,
      "Ġshows": 2051,
      "odies": 2052,
      "Ġidentify": 2053,
      "Ġseiz": 2054,
      "nal": 2055,
      "Ġpers": 2056,
      "Ġmechanism": 2057,
      "ware": 2058,
      "Ġfil": 2059,
      "ĠCD": 2060,
      "Ġfocus": 2061,
      "Ġseg": 2062,
      "Ġdefined": 2063,
      "Ġtests": 2064,
      "Ġtop": 2065,
      "Ġprof": 2066,
      "ually": 2067,
      "ics": 2068,
      "LS": 2069,
      "Ġagain": 2070,
      "Ġneurop": 2071,
      "rected": 2072,
      "Ġstain": 2073,
      "aking": 2074,
      "Ġdendri": 2075,
      "18": 2076,
      "ilit": 2077,
      "Ġsum": 2078,
      "Ġdors": 2079,
      "Ġinput": 2080,
      "Ġmembrane": 2081,
      "Ġed": 2082,
      "tically": 2083,
      "Ġsequ": 2084,
      "Ġhowever": 2085,
      "Ġauditory": 2086,
      "Ġreduction": 2087,
      "Ġnovel": 2088,
      "ĠTherefore": 2089,
      "Ġprec": 2090,
      "ayed": 2091,
      "Ġcharacteristic": 2092,
      "Ġmorph": 2093,
      "arm": 2094,
      "Ġaccording": 2095,
      "ĠHz": 2096,
      "Ġwhite": 2097,
      "Ġrecent": 2098,
      "type": 2099,
      "ĠOn": 2100,
      "Ġaction": 2101,
      "Ġepilep": 2102,
      "back": 2103,
      "17": 2104,
      "Ġleast": 2105,
      "Ġsuc": 2106,
      "Ġpoint": 2107,
      "Ġneurode": 2108,
      "Ġcontext": 2109,
      "Ġexamined": 2110,
      "ris": 2111,
      "erative": 2112,
      "plementary": 2113,
      "ĠMoreover": 2114,
      "ĠWh": 2115,
      "ST": 2116,
      "Ġexposure": 2117,
      "Ġcorrelated": 2118,
      "ticity": 2119,
      "Ġey": 2120,
      "Ġimage": 2121,
      "Ġdecrease": 2122,
      "Ġbeing": 2123,
      "Ġshowing": 2124,
      "Ġmm": 2125,
      "lished": 2126,
      "ochond": 2127,
      "Ġremo": 2128,
      "ĠANOVA": 2129,
      "16": 2130,
      "tics": 2131,
      "oin": 2132,
      "ection": 2133,
      "Ġavailable": 2134,
      "Ġadap": 2135,
      "Ġdam": 2136,
      "ressive": 2137,
      "lection": 2138,
      "Ġdistin": 2139,
      "Ġauthors": 2140,
      "Ġability": 2141,
      "Ġill": 2142,
      "Ġlateral": 2143,
      "Î¼": 2144,
      "Ġfeed": 2145,
      "Ġchronic": 2146,
      "BI": 2147,
      "Ġnec": 2148,
      "Ġstep": 2149,
      "Ġcluster": 2150,
      "uring": 2151,
      "ĠAfter": 2152,
      "Ġgyr": 2153,
      "atom": 2154,
      "Ġanx": 2155,
      "Ġsupport": 2156,
      "ascular": 2157,
      "truc": 2158,
      "Ġdirection": 2159,
      "onic": 2160,
      "40": 2161,
      "</": 2162,
      "Ġenhan": 2163,
      "ength": 2164,
      "test": 2165,
      "verse": 2166,
      "%)": 2167,
      "ocal": 2168,
      "Ġcerebral": 2169,
      "Ġ],": 2170,
      "inally": 2171,
      "Ġadj": 2172,
      "Ġinvestigated": 2173,
      "ĠSN": 2174,
      "iety": 2175,
      "aged": 2176,
      "Ġdetected": 2177,
      "OR": 2178,
      "ET": 2179,
      "Ġclear": 2180,
      "Ġpub": 2181,
      "alysis": 2182,
      "Ġwhole": 2183,
      "lation": 2184,
      "Ġques": 2185,
      "Ġpoly": 2186,
      "Ġperce": 2187,
      "Ġcontin": 2188,
      "Ġgyrus": 2189,
      "Ġslic": 2190,
      "rop": 2191,
      "Ġspinal": 2192,
      "Ġcomparison": 2193,
      "tocol": 2194,
      "Ġstructure": 2195,
      "ticip": 2196,
      "bl": 2197,
      "ibility": 2198,
      "Ġstatistical": 2199,
      "Ġpathways": 2200,
      "mine": 2201,
      "100": 2202,
      "overy": 2203,
      "ĠRNA": 2204,
      "Ġrelease": 2205,
      "Ġacid": 2206,
      "eu": 2207,
      "Ġdisorder": 2208,
      "Ġdri": 2209,
      "Ġquantif": 2210,
      "estab": 2211,
      "Ġ&": 2212,
      "Ġsl": 2213,
      "tation": 2214,
      "Ġmaxim": 2215,
      "ode": 2216,
      "cop": 2217,
      "trans": 2218,
      "Ġpair": 2219,
      "Ġrequired": 2220,
      "oles": 2221,
      "Ġincreases": 2222,
      "Ns": 2223,
      "Cl": 2224,
      "Ġadults": 2225,
      "Ġimpairment": 2226,
      "Ġpromo": 2227,
      "Ġfiring": 2228,
      "Ġsuggests": 2229,
      "ĠSD": 2230,
      "ze": 2231,
      "Ġdetermined": 2232,
      "ĠWT": 2233,
      "Ġregul": 2234,
      "Ġread": 2235,
      "Ġunderlying": 2236,
      "Ġeff": 2237,
      "itro": 2238,
      "Ġprovided": 2239,
      "ram": 2240,
      "Ġnerve": 2241,
      "Ġsom": 2242,
      "PFC": 2243,
      "ifically": 2244,
      "Ġdetail": 2245,
      "Ġ+": 2246,
      "Ġstrateg": 2247,
      "ier": 2248,
      "ĠUni": 2249,
      "Ġabnormal": 2250,
      "Ġglutam": 2251,
      "Ġenvironment": 2252,
      "Ġratio": 2253,
      "Ġsee": 2254,
      "âĢĶ": 2255,
      "sp": 2256,
      "Ġdetermine": 2257,
      "TA": 2258,
      "Ġorig": 2259,
      "ĠMet": 2260,
      "Ġaccuracy": 2261,
      "Ġsubject": 2262,
      "fact": 2263,
      "Ġmitochond": 2264,
      "Ġgrow": 2265,
      "Ġsti": 2266,
      "Ġintensity": 2267,
      "clusion": 2268,
      "Ġactive": 2269,
      "Ġabsence": 2270,
      "Ġback": 2271,
      "ĠASD": 2272,
      "ĠmRNA": 2273,
      "lammation": 2274,
      "Ġsuppor": 2275,
      "io": 2276,
      "CD": 2277,
      "Ġacute": 2278,
      "Ġprotocol": 2279,
      "Ġtreated": 2280,
      "Ġcriter": 2281,
      "Ġdensity": 2282,
      "Ġbetter": 2283,
      "Ġpan": 2284,
      "Ġlabel": 2285,
      "âĢ¯": 2286,
      "Ġsal": 2287,
      "ĠResults": 2288,
      "Ġneurolog": 2289,
      "Ġtherefore": 2290,
      "Ġvox": 2291,
      "Ġprojec": 2292,
      "mission": 2293,
      "Ġposition": 2294,
      "ĠAlthough": 2295,
      "Ġastrocytes": 2296,
      "Ġlarger": 2297,
      "Ġ>": 2298,
      "ĠfMRI": 2299,
      "Ġword": 2300,
      "vements": 2301,
      "Ġstructural": 2302,
      "chem": 2303,
      "aced": 2304,
      "ĠX": 2305,
      "Ġvalid": 2306,
      "activ": 2307,
      "ĠDis": 2308,
      "met": 2309,
      "Ġchannels": 2310,
      "ĠAt": 2311,
      "Ġsus": 2312,
      "very": 2313,
      "Ġexplain": 2314,
      "Ġvivo": 2315,
      "ftware": 2316,
      "ipher": 2317,
      "Ġben": 2318,
      "sub": 2319,
      "ĠNM": 2320,
      "Ġnucleus": 2321,
      "Ġanterior": 2322,
      "brain": 2323,
      "Ġband": 2324,
      "ules": 2325,
      "Ġhighly": 2326,
      "Ch": 2327,
      "Ġdeficits": 2328,
      "less": 2329,
      "Ġproperties": 2330,
      "iting": 2331,
      "Ġimplic": 2332,
      "Ġ25": 2333,
      "Ġinde": 2334,
      "Ġsour": 2335,
      "ĠCI": 2336,
      "Ġinjection": 2337,
      "Ġoff": 2338,
      "Ġcur": 2339,
      "Ġvery": 2340,
      "Ġdoes": 2341,
      "hyl": 2342,
      "ĠĠĊ": 2343,
      "Ġplay": 2344,
      "Ġmuscle": 2345,
      "Ġmicros": 2346,
      "Ġadditional": 2347,
      "izing": 2348,
      "ty": 2349,
      "Ġoutcome": 2350,
      "Ġinfluence": 2351,
      "Ġmale": 2352,
      "Ġmade": 2353,
      "Ġanxiety": 2354,
      "22": 2355,
      "Ġtau": 2356,
      "Ġgu": 2357,
      "rup": 2358,
      "Ġcollec": 2359,
      "Ġsections": 2360,
      "ton": 2361,
      "ots": 2362,
      "voked": 2363,
      "Ġsubsequ": 2364,
      "Ġcoh": 2365,
      "Ġevents": 2366,
      "Ġagg": 2367,
      "Ġview": 2368,
      "Ġincreasing": 2369,
      "Ġretin": 2370,
      "ĠHere": 2371,
      "Ġkey": 2372,
      "Ġcorresponding": 2373,
      "Ġaffected": 2374,
      "osp": 2375,
      "upplementary": 2376,
      "Ġcomponents": 2377,
      "uted": 2378,
      "Ġshort": 2379,
      "Ġbinding": 2380,
      "Ġintr": 2381,
      "Ġcho": 2382,
      "Ġinhibitory": 2383,
      "enter": 2384,
      "aset": 2385,
      "Ġvarious": 2386,
      "Ġdysfunction": 2387,
      "Ġlinear": 2388,
      "Ġincub": 2389,
      "ĠInte": 2390,
      "str": 2391,
      "Ġimpact": 2392,
      "Ġsch": 2393,
      "Ġlack": 2394,
      "standing": 2395,
      "acts": 2396,
      "Ġhemisp": 2397,
      "atric": 2398,
      "imens": 2399,
      "Ġplace": 2400,
      "wise": 2401,
      "Ġdifferenti": 2402,
      "resting": 2403,
      "Ġadd": 2404,
      "Ġthem": 2405,
      "scill": 2406,
      "lap": 2407,
      "Ġintrac": 2408,
      "Ġpoints": 2409,
      "Ġinterven": 2410,
      "dal": 2411,
      "Ġapplic": 2412,
      "Ġdistinct": 2413,
      "aken": 2414,
      "80": 2415,
      "Ġhypothesis": 2416,
      "Ġgo": 2417,
      "Ġ14": 2418,
      "Ġder": 2419,
      "vent": 2420,
      "Ġmolecular": 2421,
      "200": 2422,
      "RT": 2423,
      "Ġbrains": 2424,
      "ories": 2425,
      "ĠST": 2426,
      "ene": 2427,
      "ious": 2428,
      "Ġsensitivity": 2429,
      "Ġsuggested": 2430,
      "Ġaffect": 2431,
      "Ġtesting": 2432,
      "Ġslow": 2433,
      "Ġpredict": 2434,
      "comes": 2435,
      ");": 2436,
      "Ġpur": 2437,
      "ygdal": 2438,
      "alam": 2439,
      "Ġplasticity": 2440,
      "enti": 2441,
      "Ġsurface": 2442,
      "versity": 2443,
      "Ġerror": 2444,
      "EP": 2445,
      "Ġwid": 2446,
      "Ġinteractions": 2447,
      "urn": 2448,
      "Ġestab": 2449,
      "ordings": 2450,
      "Ġoscill": 2451,
      "Ġlayer": 2452,
      "angu": 2453,
      "Ġhel": 2454,
      "orescence": 2455,
      "ĠÎ²": 2456,
      "Ġobjec": 2457,
      "Ġstill": 2458,
      "lys": 2459,
      "Ġperipher": 2460,
      "Ġindicating": 2461,
      "Ġposterior": 2462,
      "Ġgenerated": 2463,
      "itial": 2464,
      "neur": 2465,
      "Ġhom": 2466,
      "Ġregulation": 2467,
      "Ġmi": 2468,
      "mm": 2469,
      "Ġtyp": 2470,
      "GF": 2471,
      "active": 2472,
      "Ġalong": 2473,
      "Ġdataset": 2474,
      "cep": 2475,
      "ĠPar": 2476,
      "Ġcateg": 2477,
      "Ġsk": 2478,
      "Ġfuture": 2479,
      "Ġneurodegen": 2480,
      "osed": 2481,
      "Ġdiffic": 2482,
      "tric": 2483,
      "ont": 2484,
      "Ġvariables": 2485,
      "uous": 2486,
      "MA": 2487,
      "Ġstren": 2488,
      "Ġdiseases": 2489,
      "Ġaccum": 2490,
      "Ġcomponent": 2491,
      "Ġthough": 2492,
      "ĠDA": 2493,
      "Ġlength": 2494,
      "Ġlob": 2495,
      "Ġinvestigate": 2496,
      "treated": 2497,
      "Ġresulting": 2498,
      "go": 2499,
      "inant": 2500,
      "omet": 2501,
      "Ġcritical": 2502,
      "Ġoutcomes": 2503,
      "Ġsumm": 2504,
      "pha": 2505,
      "ĠCl": 2506,
      "Ġdamage": 2507,
      "Ġrepeated": 2508,
      "Ġ16": 2509,
      "Ġvir": 2510,
      "Ġsequence": 2511,
      "Ġtoward": 2512,
      "Ġalthough": 2513,
      "Ġoften": 2514,
      "ake": 2515,
      "mic": 2516,
      "ES": 2517,
      "Ġsystems": 2518,
      "Ġminim": 2519,
      "ised": 2520,
      "Ġdorsal": 2521,
      "ential": 2522,
      "Ġagainst": 2523,
      "Ġamygdal": 2524,
      "Ġformation": 2525,
      "Ġdirectly": 2526,
      "ĠSim": 2527,
      "ched": 2528,
      "ĠâĢĺ": 2529,
      "Ġregression": 2530,
      "Ġprol": 2531,
      "Ġyoun": 2532,
      "ĠMD": 2533,
      "Ġcord": 2534,
      "Ġartic": 2535,
      "Ġtool": 2536,
      "kg": 2537,
      "dle": 2538,
      "ued": 2539,
      "Ġlife": 2540,
      "Ġsevere": 2541,
      "omen": 2542,
      "atus": 2543,
      "Ġcontaining": 2544,
      "Ġsoftware": 2545,
      "Ġaim": 2546,
      "Ġrecordings": 2547,
      "Ġinitial": 2548,
      "group": 2549,
      "Ġhetero": 2550,
      "Ġsw": 2551,
      "Ġdiagnosis": 2552,
      "Ġrap": 2553,
      "Ġcortic": 2554,
      "Ġemotional": 2555,
      "imer": 2556,
      "Ġret": 2557,
      "Ġantibody": 2558,
      "Ġselected": 2559,
      "SP": 2560,
      "Ġfew": 2561,
      "Rs": 2562,
      "Ġconsider": 2563,
      "Ġseen": 2564,
      "Ġopen": 2565,
      "not": 2566,
      "ĠROI": 2567,
      "43": 2568,
      "anguage": 2569,
      "ĠNeuro": 2570,
      "pan": 2571,
      "Ġcellular": 2572,
      "Ġfemale": 2573,
      "Ġexpected": 2574,
      "Ġnecess": 2575,
      "Ġoverall": 2576,
      "Ġmonths": 2577,
      "oy": 2578,
      "Ġdetection": 2579,
      "Ġphys": 2580,
      "Ġconcentration": 2581,
      "Ġcharacteristics": 2582,
      "Ġactivated": 2583,
      "Ġlaten": 2584,
      "Ġcyt": 2585,
      "ict": 2586,
      "Ġcomparisons": 2587,
      "Ġsession": 2588,
      "Ġprefrontal": 2589,
      "Ġbur": 2590,
      "Ġdepend": 2591,
      "ially": 2592,
      "Ġoptim": 2593,
      "Ġemb": 2594,
      "Ġtechni": 2595,
      "ĠScale": 2596,
      "odes": 2597,
      "Ġprop": 2598,
      "Ġsequenc": 2599,
      "ienc": 2600,
      "ators": 2601,
      "epti": 2602,
      "duces": 2603,
      "Ġparticipant": 2604,
      "Th": 2605,
      "Ġunderstanding": 2606,
      "Ġcriteria": 2607,
      "Ġglob": 2608,
      "Ġproposed": 2609,
      "Ġpercent": 2610,
      "Ġang": 2611,
      "Ġsynapses": 2612,
      "Ġcontribute": 2613,
      "ĠBD": 2614,
      "by": 2615,
      "Ġlesion": 2616,
      "tag": 2617,
      "Ġcarri": 2618,
      "ances": 2619,
      "cell": 2620,
      "Ġside": 2621,
      "Ġmagn": 2622,
      "Ġamygdala": 2623,
      "Ġtherapeu": 2624,
      "ighted": 2625,
      "Ġeye": 2626,
      "Ġexclud": 2627,
      "âī": 2628,
      "Ġspace": 2629,
      "ream": 2630,
      "24": 2631,
      "Ġnoise": 2632,
      "Ġrecording": 2633,
      "Ġinterpre": 2634,
      "ques": 2635,
      "ru": 2636,
      "Ġlines": 2637,
      "phal": 2638,
      "Ġreli": 2639,
      "opath": 2640,
      "ler": 2641,
      "chron": 2642,
      "isition": 2643,
      "Hz": 2644,
      "Ġweeks": 2645,
      "Ġcomplete": 2646,
      "Ġiniti": 2647,
      "NI": 2648,
      "Ġfive": 2649,
      "Ġreal": 2650,
      "Ġaff": 2651,
      "Ġevaluated": 2652,
      "Ġlocation": 2653,
      "ography": 2654,
      "Ġrather": 2655,
      "Ġindicates": 2656,
      "lict": 2657,
      "Ġtog": 2658,
      "Ġlimit": 2659,
      "utive": 2660,
      "Ġrelevant": 2661,
      "clus": 2662,
      "Ġtogether": 2663,
      "rid": 2664,
      "Ġ95": 2665,
      "ird": 2666,
      "Ġsites": 2667,
      "ify": 2668,
      "Ġinflammatory": 2669,
      "95": 2670,
      "LD": 2671,
      "Ġbenef": 2672,
      "Ġepilepsy": 2673,
      "aw": 2674,
      "Ġneurological": 2675,
      "Ġhere": 2676,
      "Ġconnections": 2677,
      "anner": 2678,
      "HT": 2679,
      "Ġstructures": 2680,
      "Ġmyel": 2681,
      "ights": 2682,
      "Ġmotion": 2683,
      "ophren": 2684,
      "cles": 2685,
      "izophren": 2686,
      "puts": 2687,
      "Ġparad": 2688,
      "indow": 2689,
      "Ġsignificance": 2690,
      "atum": 2691,
      "ĠUSA": 2692,
      "Ġadministration": 2693,
      "Ġsu": 2694,
      "ĠHe": 2695,
      "Ġisol": 2696,
      "Ġsolution": 2697,
      "Ġscale": 2698,
      "Ġconst": 2699,
      "Ġchannel": 2700,
      "uffer": 2701,
      "ists": 2702,
      "Ġsuccess": 2703,
      "for": 2704,
      "ground": 2705,
      "LA": 2706,
      "Ġ18": 2707,
      "Ġbehaviors": 2708,
      "hods": 2709,
      "Ġproble": 2710,
      "ld": 2711,
      "uble": 2712,
      "60": 2713,
      "Ġcollected": 2714,
      "%,": 2715,
      "Ġperipheral": 2716,
      "Ġcre": 2717,
      "HD": 2718,
      "ĠDNA": 2719,
      "Ġquestion": 2720,
      "ĠTable": 2721,
      "Ġtranscription": 2722,
      "Ġknow": 2723,
      "acc": 2724,
      "Ġsurvi": 2725,
      "Ġlanguage": 2726,
      "ped": 2727,
      "ĠÎ¼m": 2728,
      "ĠĊĠ": 2729,
      "ient": 2730,
      "PD": 2731,
      "Ġ40": 2732,
      "Ġrates": 2733,
      "Ġlimited": 2734,
      "Ġ**": 2735,
      "Ġantibodies": 2736,
      "omic": 2737,
      "Ġindex": 2738,
      "Ġischem": 2739,
      "Ġrun": 2740,
      "agne": 2741,
      "MT": 2742,
      "ĠWhile": 2743,
      "osom": 2744,
      "Ġimpaired": 2745,
      "21": 2746,
      "iatric": 2747,
      "ogenesis": 2748,
      "SC": 2749,
      "Ġstage": 2750,
      "ĠAddition": 2751,
      "Ġconc": 2752,
      "ges": 2753,
      "Ġach": 2754,
      "Ġunderst": 2755,
      "Ġdopamine": 2756,
      "ĠPre": 2757,
      "Ġdetect": 2758,
      "read": 2759,
      "bo": 2760,
      "icle": 2761,
      "Ġpotenti": 2762,
      "gor": 2763,
      "mediated": 2764,
      "Ġcommun": 2765,
      "ĠStud": 2766,
      "Ġcorrelations": 2767,
      "Ġfeedback": 2768,
      "Ġanatom": 2769,
      "void": 2770,
      "Ġwater": 2771,
      "ĠCSF": 2772,
      "Ġstrength": 2773,
      "Ġtherapy": 2774,
      "rix": 2775,
      "ĠRec": 2776,
      "Ġcare": 2777,
      "izophrenia": 2778,
      "ussion": 2779,
      "27": 2780,
      "Ġlater": 2781,
      "na": 2782,
      "Ġrecovery": 2783,
      "Ġachie": 2784,
      "ĠNa": 2785,
      "Ġphysiological": 2786,
      "ĠOne": 2787,
      "gene": 2788,
      "Ġmovements": 2789,
      "izes": 2790,
      "03": 2791,
      "Ġaltered": 2792,
      "Ġvariability": 2793,
      "Ġfit": 2794,
      "Ġdemonstrate": 2795,
      "tosis": 2796,
      "mented": 2797,
      "Ġu": 2798,
      "Ġdeath": 2799,
      "IP": 2800,
      "Ġtermin": 2801,
      "Ġcorrect": 2802,
      "mb": 2803,
      "Ġdiscrim": 2804,
      "Ġconfirmed": 2805,
      "Ġversus": 2806,
      "ctive": 2807,
      "inson": 2808,
      "gorith": 2809,
      "Ġmig": 2810,
      "Ġ19": 2811,
      "Ġmodulation": 2812,
      "Ġdistance": 2813,
      "ecutive": 2814,
      "ety": 2815,
      "Ġquality": 2816,
      "trum": 2817,
      "hol": 2818,
      "ring": 2819,
      "Ġact": 2820,
      "Ġcharacterized": 2821,
      "Ġ13": 2822,
      "Ġexcitatory": 2823,
      "Ġfacilit": 2824,
      "Ġanother": 2825,
      "sing": 2826,
      "Ġinclude": 2827,
      "MN": 2828,
      "Ġparadig": 2829,
      "ĠSp": 2830,
      "itu": 2831,
      "drom": 2832,
      "Ġalterations": 2833,
      "As": 2834,
      "Ġbiom": 2835,
      "Ġtherapeutic": 2836,
      "ĠmM": 2837,
      "Ġstaining": 2838,
      "Ġscreen": 2839,
      "tok": 2840,
      "Ġcour": 2841,
      "Ġdisrup": 2842,
      "ĠMe": 2843,
      "vated": 2844,
      "perim": 2845,
      "Ġphosphory": 2846,
      "Ġca": 2847,
      "Ġtemper": 2848,
      "Ġimmune": 2849,
      "pite": 2850,
      "Ġassessment": 2851,
      "ips": 2852,
      "23": 2853,
      "alamus": 2854,
      "Ġsince": 2855,
      "Ġod": 2856,
      "ok": 2857,
      "Ġoverlap": 2858,
      "Ġpul": 2859,
      "26": 2860,
      "Ġdiss": 2861,
      "Ġolder": 2862,
      "Ġtrig": 2863,
      "Âµ": 2864,
      "Ġreceived": 2865,
      "ĠWM": 2866,
      "ticipants": 2867,
      "activity": 2868,
      "urb": 2869,
      "Ġable": 2870,
      "irst": 2871,
      "Ġhumans": 2872,
      "bal": 2873,
      "Ġventral": 2874,
      "Ps": 2875,
      "ĠFinally": 2876,
      "aches": 2877,
      "Ġenhanced": 2878,
      "Ġacquisition": 2879,
      "Ġalgorith": 2880,
      "Ġcaused": 2881,
      "Ġdeveloped": 2882,
      "Ġeffective": 2883,
      "Ġsol": 2884,
      "inflammatory": 2885,
      "Ġsubstan": 2886,
      "Ġfeature": 2887,
      "Ġfear": 2888,
      "abil": 2889,
      "ional": 2890,
      "idence": 2891,
      "Ġglutamate": 2892,
      "ĠSC": 2893,
      "Ġweight": 2894,
      "ID": 2895,
      "arily": 2896,
      "af": 2897,
      "AG": 2898,
      "Ġlesions": 2899,
      "regulation": 2900,
      "ognition": 2901,
      "Ġintra": 2902,
      "Ġspike": 2903,
      "Ġwild": 2904,
      "Ġmac": 2905,
      "29": 2906,
      "Ġrelatively": 2907,
      "TR": 2908,
      "Ġreport": 2909,
      "Ġradi": 2910,
      "Ġdynamics": 2911,
      "raw": 2912,
      "allen": 2913,
      "Ġstates": 2914,
      "Ġremains": 2915,
      "Ġshif": 2916,
      "Ġresting": 2917,
      "Ġwindow": 2918,
      "Ġbilateral": 2919,
      "positive": 2920,
      "Ġcohort": 2921,
      "istent": 2922,
      "Ġapproved": 2923,
      "ĠIns": 2924,
      "kn": 2925,
      "Ġgrowth": 2926,
      "Ġcause": 2927,
      "Ġ60": 2928,
      "ducing": 2929,
      "Ġelectr": 2930,
      "ĠCO": 2931,
      "Ġrest": 2932,
      "Ġmicroscop": 2933,
      "rich": 2934,
      "Ġrapid": 2935,
      "Ġschizophrenia": 2936,
      "ĠCNS": 2937,
      "Ġ201": 2938,
      "Ġprocedure": 2939,
      "bit": 2940,
      "oh": 2941,
      "Ġfail": 2942,
      "Ġmitochondrial": 2943,
      "Ġliter": 2944,
      "Ġbelow": 2945,
      "Ġexperience": 2946,
      "ociated": 2947,
      "Ġpathology": 2948,
      "regulated": 2949,
      "ĠRT": 2950,
      "Ġ:": 2951,
      "ER": 2952,
      "Ġmg": 2953,
      "ontaneous": 2954,
      "Ġdevi": 2955,
      "rials": 2956,
      "bor": 2957,
      "Ġaxons": 2958,
      "ledge": 2959,
      "tein": 2960,
      "Ġmedial": 2961,
      "otypes": 2962,
      "yloid": 2963,
      "acti": 2964,
      "agnetic": 2965,
      "Ġcoord": 2966,
      "Ġproduction": 2967,
      "Ġparticularly": 2968,
      "take": 2969,
      "Ġcall": 2970,
      "Ġmarkers": 2971,
      "Ġent": 2972,
      "sup": 2973,
      "Ġseverity": 2974,
      "Ġspeed": 2975,
      "Ġcombined": 2976,
      "ĠAc": 2977,
      "ulating": 2978,
      "den": 2979,
      "oint": 2980,
      "Ġcer": 2981,
      "ĠCB": 2982,
      "rit": 2983,
      "arding": 2984,
      "Ġmen": 2985,
      "Ġobject": 2986,
      "45": 2987,
      "Ġclassification": 2988,
      "Ġfree": 2989,
      "Ġslices": 2990,
      "Ġpropor": 2991,
      "Ġrelationships": 2992,
      "Ġpariet": 2993,
      "Ġcircuit": 2994,
      "Ġpress": 2995,
      "Ġcoup": 2996,
      "ĠMethods": 2997,
      "Ġ11": 2998,
      "ustr": 2999,
      "atter": 3000,
      "Ġglobal": 3001,
      "ĠSP": 3002,
      "Ġrob": 3003,
      "Ġcont": 3004,
      "Ġori": 3005,
      "entia": 3006,
      "Ġdifficult": 3007,
      "Ġoper": 3008,
      "idal": 3009,
      "Ġflow": 3010,
      "Ġevent": 3011,
      "Ġinterneur": 3012,
      "ibr": 3013,
      "Ġfull": 3014,
      "Ġinputs": 3015,
      "Ġmiddle": 3016,
      "ott": 3017,
      "Ġrepresents": 3018,
      "Ġterms": 3019,
      "Ġfinding": 3020,
      "bers": 3021,
      "Ġdose": 3022,
      "Ġcytok": 3023,
      "time": 3024,
      "Ġfemales": 3025,
      "Ġextens": 3026,
      "Ġchallen": 3027,
      "ostic": 3028,
      "Ġolig": 3029,
      "AC": 3030,
      "Ġsessions": 3031,
      "Ġexten": 3032,
      "onist": 3033,
      "Ġalpha": 3034,
      "Ġseem": 3035,
      "Ġplaced": 3036,
      "Ġdecision": 3037,
      "ank": 3038,
      "Ġassum": 3039,
      "70": 3040,
      "Ġaltern": 3041,
      "Ġve": 3042,
      "Ġcomm": 3043,
      "Ġrod": 3044,
      "Ġcalcium": 3045,
      "Ġknock": 3046,
      "Ġ200": 3047,
      "ople": 3048,
      "restingly": 3049,
      "Ġapproxim": 3050,
      "Ġmatrix": 3051,
      "Ġhy": 3052,
      "Ġvitro": 3053,
      "encephal": 3054,
      "ili": 3055,
      "sh": 3056,
      "ray": 3057,
      "Ġtemperature": 3058,
      "Ġbasal": 3059,
      "SS": 3060,
      "âĢ²": 3061,
      "ĠIC": 3062,
      "tific": 3063,
      "bi": 3064,
      "Ġaspec": 3065,
      "ĠSimilar": 3066,
      "Ġphysical": 3067,
      "pecially": 3068,
      "genic": 3069,
      "Ġsubsequent": 3070,
      "Ġinfer": 3071,
      "Ġthick": 3072,
      "Ġsecondary": 3073,
      "ole": 3074,
      "ceptual": 3075,
      "aring": 3076,
      "Ġreas": 3077,
      "Ġgray": 3078,
      "75": 3079,
      "0001": 3080,
      "Ġliterature": 3081,
      "ĠLe": 3082,
      "28": 3083,
      "Ġtargets": 3084,
      "Ġcoe": 3085,
      "Ġvariable": 3086,
      "Ġserum": 3087,
      "Ġbiological": 3088,
      "Ġtum": 3089,
      "Ġbiomark": 3090,
      "Ġavoid": 3091,
      "dro": 3092,
      "Ġcr": 3093,
      "ĠER": 3094,
      "Ġnormalized": 3095,
      "ula": 3096,
      "Ġpredicted": 3097,
      "Ġprobability": 3098,
      "Ġmental": 3099,
      "PC": 3100,
      "Ġprovides": 3101,
      "Ġphot": 3102,
      "Ġfood": 3103,
      "ides": 3104,
      "syn": 3105,
      "Ġperception": 3106,
      "ĠStatis": 3107,
      "Ġitem": 3108,
      "Ġelectrodes": 3109,
      "Ġrespond": 3110,
      "Ġinterval": 3111,
      "Ġfinal": 3112,
      "Ġspeech": 3113,
      "Ġvariance": 3114,
      "level": 3115,
      "othe": 3116,
      "vari": 3117,
      "Ġpopulations": 3118,
      "Ġdegree": 3119,
      "Ġhome": 3120,
      "Ġinflammation": 3121,
      "ogenous": 3122,
      "Ġestimated": 3123,
      "zhe": 3124,
      "Ġincubated": 3125,
      "35": 3126,
      "utis": 3127,
      "ink": 3128,
      "Ġwor": 3129,
      "Ġdendritic": 3130,
      "ĠEach": 3131,
      "ogenic": 3132,
      "Ġparietal": 3133,
      "ĠUniversity": 3134,
      "Ġspontaneous": 3135,
      "Ġnerv": 3136,
      "ulin": 3137,
      "ape": 3138,
      "Ġsection": 3139,
      "Ġspecies": 3140,
      "ĠUn": 3141,
      "zheimer": 3142,
      "ching": 3143,
      "Ġgain": 3144,
      "ochem": 3145,
      "OD": 3146,
      "istered": 3147,
      "ploy": 3148,
      "be": 3149,
      "ĠCor": 3150,
      "truct": 3151,
      "Ġaround": 3152,
      "hyth": 3153,
      "ense": 3154,
      "TD": 3155,
      "Ġtransfer": 3156,
      "ĠPBS": 3157,
      "duce": 3158,
      "Ġseries": 3159,
      "Ġreduce": 3160,
      "cript": 3161,
      "ĠCR": 3162,
      "Ġsound": 3163,
      "Ġhemisphere": 3164,
      "BP": 3165,
      "Ġclusters": 3166,
      "Ġleading": 3167,
      "Ġmutations": 3168,
      "Ġsource": 3169,
      "Ġuni": 3170,
      "Ġspecifically": 3171,
      "odal": 3172,
      "Ġhighl": 3173,
      "Ġframe": 3174,
      "Ġcorrection": 3175,
      "isher": 3176,
      "Ġsegment": 3177,
      "econd": 3178,
      "Ġx": 3179,
      "Ġconcentrations": 3180,
      "armac": 3181,
      "ĠNMDA": 3182,
      "Ġespecially": 3183,
      "az": 3184,
      "Ġknowledge": 3185,
      "ending": 3186,
      "heren": 3187,
      "Ġmeans": 3188,
      "GFP": 3189,
      "Ġnervous": 3190,
      "alamic": 3191,
      "Ġelectrode": 3192,
      "ones": 3193,
      "Ġstriatum": 3194,
      "Ġmales": 3195,
      "Ġmaps": 3196,
      "Ġacquired": 3197,
      "IV": 3198,
      "cohol": 3199,
      "angl": 3200,
      "Ġstatus": 3201,
      "uration": 3202,
      "ensory": 3203,
      "Ġaggreg": 3204,
      "Ġreflect": 3205,
      "Ġstar": 3206,
      "Ġutil": 3207,
      "erate": 3208,
      "troduction": 3209,
      "Ġstudied": 3210,
      "Ġcombination": 3211,
      "Ġimprove": 3212,
      "Ġga": 3213,
      "xt": 3214,
      "Ġsix": 3215,
      "down": 3216,
      "For": 3217,
      "Ġdementia": 3218,
      "ien": 3219,
      "Ġevoked": 3220,
      "gery": 3221,
      "ĠSh": 3222,
      "Ġgluc": 3223,
      "MD": 3224,
      "lo": 3225,
      "physiological": 3226,
      "Ġapplication": 3227,
      "ĠWhen": 3228,
      "Ġimproved": 3229,
      "Ġpeople": 3230,
      "Ġproduced": 3231,
      "Ġarticle": 3232,
      "ĠDisc": 3233,
      "Ġappear": 3234,
      "Ġevery": 3235,
      "tage": 3236,
      "ĠSub": 3237,
      "Ġinfluenc": 3238,
      "Ġrobust": 3239,
      "lab": 3240,
      "Ġrecognition": 3241,
      "ĠAm": 3242,
      "Ġlimb": 3243,
      "Ġbars": 3244,
      "tle": 3245,
      "ĠBe": 3246,
      "state": 3247,
      "Ġphenotype": 3248,
      "Ġlit": 3249,
      "Ġantag": 3250,
      "Ġsuperior": 3251,
      "Ġmaximum": 3252,
      "ĠEn": 3253,
      "AV": 3254,
      "Ġlocated": 3255,
      "ml": 3256,
      "Ġeng": 3257,
      "Ġsynchron": 3258,
      "stim": 3259,
      "Ġmuch": 3260,
      "Ġyoung": 3261,
      "Ġlip": 3262,
      "Ġinternal": 3263,
      "ires": 3264,
      "Ġadoles": 3265,
      "Ġprom": 3266,
      "anc": 3267,
      "Ġvect": 3268,
      "Ġcourse": 3269,
      "OS": 3270,
      "pe": 3271,
      "ogene": 3272,
      "Ġversion": 3273,
      "aterials": 3274,
      "ĠPh": 3275,
      "Ġhelp": 3276,
      "Ġposi": 3277,
      "ocor": 3278,
      "Ġseizures": 3279,
      "Ġcontinuous": 3280,
      "Ġmutant": 3281,
      "Ġaccount": 3282,
      "aces": 3283,
      "ĠII": 3284,
      "Ġlonger": 3285,
      "Ġexperienc": 3286,
      "Ġderived": 3287,
      "hance": 3288,
      "An": 3289,
      "Ġcomput": 3290,
      "Ġpyr": 3291,
      "42": 3292,
      "38": 3293,
      "Ġload": 3294,
      "Ġupon": 3295,
      "Ġexamine": 3296,
      "imin": 3297,
      "FA": 3298,
      "Ġpass": 3299,
      "ĠSA": 3300,
      "ĠDe": 3301,
      "Ġplasma": 3302,
      "Ġcerebellar": 3303,
      "arc": 3304,
      "ĠPT": 3305,
      "Ġfamily": 3306,
      "Ġstages": 3307,
      "Ġexhibited": 3308,
      "pared": 3309,
      "65": 3310,
      "oratory": 3311,
      "ĠFA": 3312,
      "Ġapproaches": 3313,
      "Ġencoding": 3314,
      "Ġsupp": 3315,
      "thes": 3316,
      "IC": 3317,
      "Ġaxonal": 3318,
      "ĠPark": 3319,
      "Ġplot": 3320,
      "Ġhal": 3321,
      "Ġoxid": 3322,
      "Ġthroughout": 3323,
      "rief": 3324,
      "Ġbias": 3325,
      "Ġalle": 3326,
      "rag": 3327,
      "ands": 3328,
      "ture": 3329,
      "ĠSe": 3330,
      "Ġassociations": 3331,
      "Ġorient": 3332,
      "Ġ/": 3333,
      "etal": 3334,
      "Ġvariants": 3335,
      "Ġprediction": 3336,
      "Ġneeded": 3337,
      "Ġelevated": 3338,
      "Ġaccess": 3339,
      "imaging": 3340,
      "Ġlinked": 3341,
      "Ġworking": 3342,
      "Ġsyndrom": 3343,
      "Ġcerebellum": 3344,
      "Ġprogression": 3345,
      "Ġess": 3346,
      "Ġmarker": 3347,
      "ices": 3348,
      "Ġelic": 3349,
      "Ġmedium": 3350,
      "Ġrecently": 3351,
      "ĠWith": 3352,
      "CL": 3353,
      "Ġadv": 3354,
      "xic": 3355,
      "Ġdiscuss": 3356,
      "right": 3357,
      "Ġmicroglial": 3358,
      "Ġseizure": 3359,
      "pri": 3360,
      "ĠExperim": 3361,
      "ats": 3362,
      "ĠAlzheimer": 3363,
      "Ġresid": 3364,
      "Ġreference": 3365,
      "Ġenhance": 3366,
      "Ġvoxel": 3367,
      "Ġcycle": 3368,
      "Ġdiffer": 3369,
      "Ġinduce": 3370,
      "Ġmainly": 3371,
      "Ġdevelopmental": 3372,
      "Ġaging": 3373,
      "factory": 3374,
      "Ġlink": 3375,
      "tib": 3376,
      "ĠInterestingly": 3377,
      "ĠInde": 3378,
      "amma": 3379,
      "Ġresolution": 3380,
      "57": 3381,
      "Ġextent": 3382,
      "ĠCP": 3383,
      "ining": 3384,
      "Ġgangl": 3385,
      "associated": 3386,
      "Ġquantit": 3387,
      "Ġmeasurements": 3388,
      "ĠPV": 3389,
      "ĠALS": 3390,
      "90": 3391,
      "ĠFirst": 3392,
      "Ġpoor": 3393,
      "Ġdeep": 3394,
      "ively": 3395,
      "Ġbeta": 3396,
      "ĠĊĠĠĊĊ": 3397,
      "ĠCT": 3398,
      "Ġexcluded": 3399,
      "Ġstatistically": 3400,
      "Ġkin": 3401,
      "ĠInc": 3402,
      "Ġturn": 3403,
      "Ġfixed": 3404,
      "ĠSpec": 3405,
      "Ġleads": 3406,
      "ographic": 3407,
      "Ġnecessary": 3408,
      "ĠAp": 3409,
      "anning": 3410,
      "ĠPA": 3411,
      "Ġchoice": 3412,
      "ED": 3413,
      "hicle": 3414,
      "oton": 3415,
      "zym": 3416,
      "Ġsmo": 3417,
      "ĠCell": 3418,
      "incip": 3419,
      "hood": 3420,
      "Ġblue": 3421,
      "Ġface": 3422,
      "Ġnear": 3423,
      "aminergic": 3424,
      "orb": 3425,
      "Ġmanus": 3426,
      "Ġpercentage": 3427,
      "BM": 3428,
      "Ġemerg": 3429,
      "Ġwords": 3430,
      "Ġalcohol": 3431,
      ")-": 3432,
      "Ġfind": 3433,
      "Ġbal": 3434,
      "Ġbro": 3435,
      "Ġlike": 3436,
      "Ġcue": 3437,
      "Ġpepti": 3438,
      "Ġevaluate": 3439,
      "Ġmagnetic": 3440,
      "Ġamyloid": 3441,
      "Ġobserv": 3442,
      "Ġhistory": 3443,
      "Ġresulted": 3444,
      "ĠParticipants": 3445,
      "ĠHC": 3446,
      "Ġbest": 3447,
      "Ġway": 3448,
      "ĠĊĠĠĠĠ": 3449,
      "HC": 3450,
      "cortical": 3451,
      "Ġâī": 3452,
      "isten": 3453,
      "Ġpathological": 3454,
      "ĠTBI": 3455,
      "wh": 3456,
      "aving": 3457,
      "Ġfluorescence": 3458,
      "ising": 3459,
      "Ġrequire": 3460,
      "Ġdisplayed": 3461,
      "ĠBrain": 3462,
      "Ġparen": 3463,
      "ologies": 3464,
      "Ġenti": 3465,
      "Ġdependent": 3466,
      "Ġrhyth": 3467,
      "Ġrepresentation": 3468,
      "33": 3469,
      "Ġmanuscript": 3470,
      "Ġsubun": 3471,
      "uan": 3472,
      "Ġamount": 3473,
      "ĠCo": 3474,
      "Ġnuclei": 3475,
      "Ġstrongly": 3476,
      "uth": 3477,
      "rie": 3478,
      "Ġprolif": 3479,
      "].": 3480,
      "Ġinst": 3481,
      "Ġcognition": 3482,
      "activation": 3483,
      "Ġcues": 3484,
      "ĠNA": 3485,
      "Ġemploy": 3486,
      "Ġlog": 3487,
      "ulus": 3488,
      "known": 3489,
      "Ġinner": 3490,
      "estern": 3491,
      "Ġneurodegenerative": 3492,
      "Ġestablished": 3493,
      "Ġ17": 3494,
      "Ġintervention": 3495,
      "Ġimpl": 3496,
      "Ġinhibit": 3497,
      "Ġsensor": 3498,
      "NT": 3499,
      "spective": 3500,
      "Ġdecl": 3501,
      "ÂłĠ": 3502,
      "tract": 3503,
      "Ġpanel": 3504,
      "Ġarter": 3505,
      "Ġbuffer": 3506,
      "ergy": 3507,
      "ĠAr": 3508,
      "IS": 3509,
      "Ġregard": 3510,
      "uter": 3511,
      "Ġimmedi": 3512,
      "Ġselection": 3513,
      "uits": 3514,
      "Ġwave": 3515,
      "Ġsmaller": 3516,
      "Ġaxon": 3517,
      "ĠMA": 3518,
      "48": 3519,
      "Ġtransform": 3520,
      "Ġnext": 3521,
      "Ġlast": 3522,
      "ĠSupplementary": 3523,
      "Ġcontain": 3524,
      "antly": 3525,
      "Ġextracellular": 3526,
      "Ġreach": 3527,
      "ĠAnim": 3528,
      "ĠFC": 3529,
      "Ġrevers": 3530,
      "Ġdivid": 3531,
      "Ġcorrespond": 3532,
      "GC": 3533,
      "ottom": 3534,
      "Ġautis": 3535,
      "Ġdifferentiation": 3536,
      "Ġbackground": 3537,
      "Ġoxy": 3538,
      "Ġcomputed": 3539,
      "Ġanest": 3540,
      "ysiology": 3541,
      "Ġexerc": 3542,
      "Ġmediated": 3543,
      "ĠIntroduction": 3544,
      "alle": 3545,
      "Ġsham": 3546,
      "Ġreplic": 3547,
      "Ġautom": 3548,
      "igned": 3549,
      "Ġdelay": 3550,
      "ĠAdditionally": 3551,
      "ĠAnalysis": 3552,
      "Ġtransmission": 3553,
      "Ġactivities": 3554,
      "otyp": 3555,
      "mg": 3556,
      "Ġgly": 3557,
      "Ġoutput": 3558,
      "amidal": 3559,
      "Ġinterneurons": 3560,
      "Ġnumbers": 3561,
      "kin": 3562,
      "Ġillustr": 3563,
      "Ġlatency": 3564,
      "Ġothers": 3565,
      "ospital": 3566,
      "Ġful": 3567,
      "Ġrestric": 3568,
      "Ġlys": 3569,
      "Ġsurvival": 3570,
      "ĠKO": 3571,
      "resent": 3572,
      "ranial": 3573,
      "Ġtrack": 3574,
      "Ġmanip": 3575,
      "Ġlobe": 3576,
      "Ġsaline": 3577,
      "Ġdegen": 3578,
      "uls": 3579,
      "kes": 3580,
      "Ġfrequ": 3581,
      "ii": 3582,
      "Ġparadigm": 3583,
      "ĠThey": 3584,
      "Ġphosphorylation": 3585,
      "Ġbasis": 3586,
      "ĠÏ": 3587,
      "Ġmedian": 3588,
      "Ġalone": 3589,
      "Ġdrugs": 3590,
      "Ġdecline": 3591,
      "ĠDiscussion": 3592,
      "Ġanatomical": 3593,
      "Ġmyelin": 3594,
      "Ġsensitive": 3595,
      "ĠAM": 3596,
      "Ġassay": 3597,
      "icacy": 3598,
      "Ġcapac": 3599,
      "Ġreaction": 3600,
      "Ġinstruc": 3601,
      "Ġtend": 3602,
      "ultaneous": 3603,
      "omotor": 3604,
      "Ġentire": 3605,
      "ĠBi": 3606,
      "ĠUsing": 3607,
      "Ġimprovement": 3608,
      "ĠStatistical": 3609,
      "son": 3610,
      "Ġpotentially": 3611,
      "Ġweak": 3612,
      "ternal": 3613,
      "Ġneut": 3614,
      "xa": 3615,
      "Ġdeveloping": 3616,
      "Ġselective": 3617,
      "Ġrecom": 3618,
      "Ġneuropath": 3619,
      "Al": 3620,
      "gram": 3621,
      "iles": 3622,
      "Ġcent": 3623,
      "36": 3624,
      "Ġattenu": 3625,
      "ĠNF": 3626,
      "Ġda": 3627,
      "Ġsurgery": 3628,
      "Ġinjected": 3629,
      "All": 3630,
      "Ġmonitor": 3631,
      "Ġlas": 3632,
      "rad": 3633,
      "ĠBDNF": 3634,
      "Ġprincip": 3635,
      "Ġolfactory": 3636,
      "ĠCons": 3637,
      "Ġfibers": 3638,
      "rec": 3639,
      "off": 3640,
      "BB": 3641,
      "Ġheterogene": 3642,
      "ĠmiR": 3643,
      "day": 3644,
      "Ġexpressing": 3645,
      "ĠParkinson": 3646,
      "Ġcing": 3647,
      "Ġpharmac": 3648,
      "Ġthickness": 3649,
      "Ġuntil": 3650,
      "Ġsitu": 3651,
      "ĠPer": 3652,
      "MG": 3653,
      "Ġche": 3654,
      "Ġinferior": 3655,
      "derived": 3656,
      "Ġbroad": 3657,
      "fold": 3658,
      "Ġmild": 3659,
      "Ġconver": 3660,
      "Ġcannot": 3661,
      "Ġwhat": 3662,
      "Ġdig": 3663,
      "requency": 3664,
      "Ġgraph": 3665,
      "Ġnat": 3666,
      "Ġvoltage": 3667,
      "Ġintegration": 3668,
      "Ġpsychiatric": 3669,
      "IN": 3670,
      "Ġintracellular": 3671,
      "ings": 3672,
      "Ġhor": 3673,
      "Ġrang": 3674,
      "Ġcarried": 3675,
      "ext": 3676,
      "RG": 3677,
      "Ġclos": 3678,
      "Ġ48": 3679,
      "ĠRep": 3680,
      "itudinal": 3681,
      "Ġremoved": 3682,
      "Ġstrategy": 3683,
      "Ġeffici": 3684,
      "Ġapop": 3685,
      "Ġembry": 3686,
      "Ġproportion": 3687,
      "went": 3688,
      "lier": 3689,
      "67": 3690,
      "KO": 3691,
      "Ġbre": 3692,
      "Ġsuccessful": 3693,
      "Ġextracted": 3694,
      "Ġmutation": 3695,
      "Ġoriginal": 3696,
      "Ġalgorithm": 3697,
      "Ġpairs": 3698,
      "Ġroom": 3699,
      "ope": 3700,
      "Ġstrategies": 3701,
      "Ġtract": 3702,
      "Ġaspects": 3703,
      "Ġtaken": 3704,
      "Ġcenter": 3705,
      "omer": 3706,
      "04": 3707,
      "priate": 3708,
      "Ġessential": 3709,
      "ignific": 3710,
      "ĠAPP": 3711,
      "Ġischemic": 3712,
      "Ġcardi": 3713,
      "ĠMT": 3714,
      "no": 3715,
      "Ġcircuits": 3716,
      "ĠTR": 3717,
      "ĠInstit": 3718,
      "Ġguid": 3719,
      "ĠAb": 3720,
      "Ġposts": 3721,
      "Ġaccumulation": 3722,
      "Ġcorrected": 3723,
      "quencies": 3724,
      "Ġpap": 3725,
      "Ġhalf": 3726,
      "Ġpossibility": 3727,
      "Ġold": 3728,
      "Ġdiffusion": 3729,
      "Ġemotion": 3730,
      "urrents": 3731,
      "Ġdimens": 3732,
      "oral": 3733,
      "Ġfas": 3734,
      "Ġdev": 3735,
      "ĠSch": 3736,
      "Ġpyramidal": 3737,
      "Ġcoordin": 3738,
      "Ġfocused": 3739,
      "Ġtypically": 3740,
      "ĠIndeed": 3741,
      "usted": 3742,
      "Ġenzym": 3743,
      "This": 3744,
      "Ġepis": 3745,
      "ĠBl": 3746,
      "troph": 3747,
      "onance": 3748,
      "ĠPC": 3749,
      "Ġcolor": 3750,
      "Ġyet": 3751,
      "oma": 3752,
      "atin": 3753,
      "ĠAss": 3754,
      "Ġpresentation": 3755,
      "Ġcut": 3756,
      "Ġmy": 3757,
      "Ġtheta": 3758,
      "Ġpressure": 3759,
      "earch": 3760,
      "ĠSE": 3761,
      "ou": 3762,
      "ĠDuring": 3763,
      "ĠĊĠĊĠ": 3764,
      "Ġfilter": 3765,
      "Ġapproximately": 3766,
      "Ġvehicle": 3767,
      "Ġpotentials": 3768,
      "tingu": 3769,
      "Ġexposed": 3770,
      "ĠIf": 3771,
      "Ġfix": 3772,
      "exp": 3773,
      "ophag": 3774,
      "Ġdesigned": 3775,
      "Ġaccom": 3776,
      "TI": 3777,
      "Ġretrie": 3778,
      "Ġevaluation": 3779,
      "Ġmeta": 3780,
      "Ġoscillations": 3781,
      "stream": 3782,
      "Ġsynthes": 3783,
      "igma": 3784,
      "Ġinvolvement": 3785,
      "Ġdomains": 3786,
      "Ġint": 3787,
      "Ġarrow": 3788,
      "SI": 3789,
      "Ġproduce": 3790,
      "PR": 3791,
      "Ġisolated": 3792,
      "Ġcertain": 3793,
      "Ġrs": 3794,
      "ĠLPS": 3795,
      "Ġfrequencies": 3796,
      "Ġsimultaneous": 3797,
      "work": 3798,
      "Ġefficacy": 3799,
      "Ġcultures": 3800,
      "odel": 3801,
      "Ġgran": 3802,
      "Ġglial": 3803,
      "Ġtechniques": 3804,
      "umin": 3805,
      "Ġcore": 3806,
      "Ġinhibitor": 3807,
      "Ġmake": 3808,
      "ĠTD": 3809,
      "mor": 3810,
      "control": 3811,
      "Ġfraction": 3812,
      "PCR": 3813,
      "Wh": 3814,
      "MI": 3815,
      "Ġfron": 3816,
      "Ġir": 3817,
      "Ġimportance": 3818,
      "ours": 3819,
      "tead": 3820,
      "Ġerrors": 3821,
      "Ġglucose": 3822,
      "Ġconflict": 3823,
      "Ġmanner": 3824,
      "Ġdaily": 3825,
      "ĠAcc": 3826,
      "Ġneurotrans": 3827,
      "Ġsyndrome": 3828,
      "Ġsequences": 3829,
      "atients": 3830,
      "Ġadded": 3831,
      "rin": 3832,
      "Ġabnormalities": 3833,
      "Ġdopaminergic": 3834,
      "Ġmigr": 3835,
      "ĠGlu": 3836,
      "],": 3837,
      "PI": 3838,
      "utes": 3839,
      "ria": 3840,
      "Ġbound": 3841,
      "olin": 3842,
      "Ġprevent": 3843,
      "DCS": 3844,
      "Ġvolumes": 3845,
      "Ġreports": 3846,
      "Ġide": 3847,
      "32": 3848,
      "itudes": 3849,
      "Ġexercise": 3850,
      "Ġpreval": 3851,
      "ns": 3852,
      "Ġtechn": 3853,
      "Ġdifferential": 3854,
      "ampl": 3855,
      "ached": 3856,
      "Ġens": 3857,
      "GG": 3858,
      "anced": 3859,
      "Ġcurrents": 3860,
      "Ġfast": 3861,
      "Ġiss": 3862,
      "Ġreason": 3863,
      "prote": 3864,
      "Ġsimple": 3865,
      "Ġscal": 3866,
      "insic": 3867,
      "Ġallowed": 3868,
      "natal": 3869,
      "Ġdisplay": 3870,
      "mental": 3871,
      "ĠBoth": 3872,
      "Ġneuroimaging": 3873,
      "Ġbo": 3874,
      "Ġexplore": 3875,
      "ientific": 3876,
      "Ġimplicated": 3877,
      "Ġseparate": 3878,
      "34": 3879,
      "ĠMed": 3880,
      "Ġoccurs": 3881,
      "BD": 3882,
      "Ġmarked": 3883,
      "ogn": 3884,
      "ifferen": 3885,
      "istry": 3886,
      "Ġinduction": 3887,
      "Ġregarding": 3888,
      "Ġtissues": 3889,
      "IF": 3890,
      "fusion": 3891,
      "app": 3892,
      "orts": 3893,
      "Ġthalamus": 3894,
      "Ġconstruc": 3895,
      "ĠTNF": 3896,
      "ae": 3897,
      "Ġprocedures": 3898,
      "Ġcontent": 3899,
      "Ġvent": 3900,
      "Ġprepar": 3901,
      "ĠMaterials": 3902,
      "ĠCN": 3903,
      "Ġexhibit": 3904,
      "Ġdele": 3905,
      "Ġden": 3906,
      "ĠSEM": 3907,
      "Ġparameter": 3908,
      "Ġves": 3909,
      "order": 3910,
      "Ġenergy": 3911,
      "omy": 3912,
      "Ġovere": 3913,
      "Ġinvolving": 3914,
      "onstruc": 3915,
      "Ġappe": 3916,
      "otic": 3917,
      "aine": 3918,
      "ĠGen": 3919,
      "Glu": 3920,
      "ĠTwo": 3921,
      "Ġmethyl": 3922,
      "ime": 3923,
      "Ġcontrolled": 3924,
      "Ġstable": 3925,
      "Ġdiagnostic": 3926,
      "Ġmixed": 3927,
      "Ġgood": 3928,
      "ĠSV": 3929,
      "ameter": 3930,
      "idation": 3931,
      "Ġrepeti": 3932,
      "imb": 3933,
      "clear": 3934,
      "Ġ21": 3935,
      "plemented": 3936,
      "Ġaveraged": 3937,
      "hens": 3938,
      "IR": 3939,
      "Ġgenerate": 3940,
      "Ġpaired": 3941,
      "ĠGABAergic": 3942,
      "Ġlabeled": 3943,
      "Ġchem": 3944,
      "Ġlayers": 3945,
      "Ġtraum": 3946,
      "Ġaxis": 3947,
      "ĠBy": 3948,
      "inning": 3949,
      "ogram": 3950,
      "99": 3951,
      "Ġobjects": 3952,
      "Ġunique": 3953,
      "ches": 3954,
      "Ġcompare": 3955,
      "hest": 3956,
      "traction": 3957,
      "ON": 3958,
      "Ġthought": 3959,
      "Ġmetabolism": 3960,
      "Ġ90": 3961,
      "erman": 3962,
      "St": 3963,
      "Ġincl": 3964,
      "Ġnor": 3965,
      "OLD": 3966,
      "Ġdeli": 3967,
      "47": 3968,
      "37": 3969,
      "atically": 3970,
      "oplas": 3971,
      "Ġsetting": 3972,
      "Ġlearn": 3973,
      "alateral": 3974,
      "urom": 3975,
      "Ġsubset": 3976,
      "mean": 3977,
      "ĠÎ¼M": 3978,
      "Ġfully": 3979,
      "Ġunclear": 3980,
      "Ġlongitudinal": 3981,
      "Ġatt": 3982,
      "ipital": 3983,
      "Ġculture": 3984,
      "Ġexternal": 3985,
      "Ġgenotype": 3986,
      "athe": 3987,
      "Ġvascular": 3988,
      "Ġmagnitude": 3989,
      "Ġmetabolic": 3990,
      "istance": 3991,
      "ged": 3992,
      "Ġupper": 3993,
      "Ġgamma": 3994,
      "LE": 3995,
      "oses": 3996,
      "Ġtrained": 3997,
      "ognitive": 3998,
      "icial": 3999,
      "cture": 4000,
      "week": 4001,
      "AN": 4002,
      "Ġnam": 4003,
      "Ġcomparing": 4004,
      "ging": 4005,
      "Ġexcitability": 4006,
      "lym": 4007,
      "ĠState": 4008,
      "Ġhoc": 4009,
      "Ġresonance": 4010,
      "Ġdouble": 4011,
      "Ġforms": 4012,
      "Ġunderstand": 4013,
      "Ġ&#": 4014,
      "Ġseman": 4015,
      "Ġunknown": 4016,
      "Ġremained": 4017,
      "tee": 4018,
      "Ġretro": 4019,
      "ĠSince": 4020,
      "rip": 4021,
      "Ġneuropsych": 4022,
      "etric": 4023,
      "Ġips": 4024,
      "version": 4025,
      "ample": 4026,
      "Ġnote": 4027,
      "Ġmetric": 4028,
      "idate": 4029,
      "Ġbalance": 4030,
      "use": 4031,
      "Ġvariation": 4032,
      "Ġke": 4033,
      "Ġplays": 4034,
      "ĠGM": 4035,
      "Ġgeneration": 4036,
      "Ġpool": 4037,
      "otrop": 4038,
      "Ġcauses": 4039,
      "process": 4040,
      "Ġatroph": 4041,
      "Ġobservation": 4042,
      "asp": 4043,
      "Ġblocks": 4044,
      "Ġspecificity": 4045,
      "Ġcm": 4046,
      "Ġrating": 4047,
      "ĠADHD": 4048,
      "Ġmotiv": 4049,
      "Ġbox": 4050,
      "Ġchrom": 4051,
      "Ġconsum": 4052,
      "ĠNote": 4053,
      "ĠIF": 4054,
      "Ġcingulate": 4055,
      "Ġitems": 4056,
      "Ġroles": 4057,
      "ĠDes": 4058,
      "Ġblot": 4059,
      "osition": 4060,
      "ocytes": 4061,
      "termin": 4062,
      "aps": 4063,
      "vals": 4064,
      "Ġsomat": 4065,
      "Ġ22": 4066,
      "Ġtransl": 4067,
      "Ġendogenous": 4068,
      "Ġflex": 4069,
      "ĠGFP": 4070,
      "Ġtreatments": 4071,
      "Ġproduc": 4072,
      "Ġorientation": 4073,
      "DR": 4074,
      "68": 4075,
      "ern": 4076,
      "Ġpublished": 4077,
      "endro": 4078,
      "ĠConf": 4079,
      "Ġasym": 4080,
      "frequency": 4081,
      "zing": 4082,
      "Ġgoal": 4083,
      "Ġbeg": 4084,
      "CP": 4085,
      "Ġhighest": 4086,
      "RNAs": 4087,
      "Ġhypoth": 4088,
      "iform": 4089,
      "lial": 4090,
      "Ġthird": 4091,
      "Ġstem": 4092,
      "Ġkinase": 4093,
      "Ġinfection": 4094,
      "cal": 4095,
      "Ġappropriate": 4096,
      "Ġcovari": 4097,
      "ĠLi": 4098,
      "Î¼m": 4099,
      "39": 4100,
      "Ġvary": 4101,
      "Ġobservations": 4102,
      "Ġorganization": 4103,
      "Ġrepro": 4104,
      "Ġvoxels": 4105,
      "let": 4106,
      "cious": 4107,
      "Ġdil": 4108,
      "Ġpracti": 4109,
      "Ġoccurred": 4110,
      "Ġretinal": 4111,
      "Ġactions": 4112,
      "Ġterm": 4113,
      "2009": 4114,
      "Ġrepresented": 4115,
      "Ġestimate": 4116,
      "LI": 4117,
      "pass": 4118,
      "ecause": 4119,
      "Ġvector": 4120,
      "Ġsecre": 4121,
      "Ġnature": 4122,
      "ocaine": 4123,
      "LR": 4124,
      "ĠÂµ": 4125,
      "Ġcompens": 4126,
      "Ġuseful": 4127,
      "ruit": 4128,
      "Ġodor": 4129,
      "ĠĊĊĠ": 4130,
      "LC": 4131,
      "ĠPr": 4132,
      "Ġunits": 4133,
      "Ġnumer": 4134,
      "Ġled": 4135,
      "ĠHD": 4136,
      "Ġappears": 4137,
      "Ġsearch": 4138,
      "oring": 4139,
      "Ġpublic": 4140,
      "Ġcontralateral": 4141,
      "Ġnatural": 4142,
      "ĠPS": 4143,
      "Ġcontribution": 4144,
      "ids": 4145,
      "Ġfore": 4146,
      "Ġfiber": 4147,
      "Ġtun": 4148,
      "Ġlocalization": 4149,
      "Ġcapacity": 4150,
      "itch": 4151,
      "Ġexecutive": 4152,
      "Ġgender": 4153,
      "Ġdistributed": 4154,
      "Ġparalle": 4155,
      "Ġrepresentations": 4156,
      "temporal": 4157,
      "Ġmorphology": 4158,
      "Ġwomen": 4159,
      "Ġmajority": 4160,
      "hanol": 4161,
      "clusions": 4162,
      "Ġconditioning": 4163,
      "Ġpostsynaptic": 4164,
      "Ġatrophy": 4165,
      "ĠpH": 4166,
      "Ġtumor": 4167,
      "asis": 4168,
      "Ġstart": 4169,
      "Ġconstant": 4170,
      "Ġcytokines": 4171,
      "Ġeduc": 4172,
      "ominant": 4173,
      "urs": 4174,
      "Ġconsent": 4175,
      "Ġvel": 4176,
      "rend": 4177,
      "Ġsufficient": 4178,
      "uman": 4179,
      "Ġproliferation": 4180,
      "Ġcaud": 4181,
      "Ġquantified": 4182,
      "rose": 4183,
      "Ġfig": 4184,
      "mM": 4185,
      "Ġmoderate": 4186,
      "Ġtraject": 4187,
      "immun": 4188,
      "agement": 4189,
      "Ġearlier": 4190,
      "Ġprojections": 4191,
      "Ġsil": 4192,
      "Ġinterf": 4193,
      "Ca": 4194,
      "semb": 4195,
      "Ġ37": 4196,
      "02": 4197,
      "ĠNot": 4198,
      "Ġonto": 4199,
      "ĠSecond": 4200,
      "Co": 4201,
      "Ġadministered": 4202,
      "tification": 4203,
      "Ġexplained": 4204,
      "genesis": 4205,
      "Ġoverex": 4206,
      "Ġrequires": 4207,
      "Ġgradi": 4208,
      "Ġmolecules": 4209,
      "Ġpup": 4210,
      "TT": 4211,
      "Ġoxidative": 4212,
      "Ġgenerally": 4213,
      "Ġinformed": 4214,
      "Ġcurve": 4215,
      "Ġcompre": 4216,
      "ĠEth": 4217,
      "eb": 4218,
      "Ġaged": 4219,
      "ĠOver": 4220,
      "oded": 4221,
      "ĠReg": 4222,
      "Ġte": 4223,
      "Ġyield": 4224,
      "Ġwal": 4225,
      "Ġsuppression": 4226,
      "FF": 4227,
      "ibly": 4228,
      "lin": 4229,
      "Ġul": 4230,
      "Ġnorm": 4231,
      "RO": 4232,
      "Ġdivided": 4233,
      "Ġexpress": 4234,
      "estib": 4235,
      "ĠImmun": 4236,
      "Ġ#": 4237,
      "Ġallows": 4238,
      "Ġprofile": 4239,
      "Ġintervals": 4240,
      "Ġcoupling": 4241,
      "Ġregulate": 4242,
      "Ġartif": 4243,
      "Ġdetails": 4244,
      "GA": 4245,
      "arent": 4246,
      "abe": 4247,
      "Ġmask": 4248,
      "Ġcruc": 4249,
      "Ġbiomarkers": 4250,
      "Ġhomeost": 4251,
      "Ġrespect": 4252,
      "gue": 4253,
      "Ġphenotypes": 4254,
      "Ġvide": 4255,
      "Ġdegeneration": 4256,
      "odendro": 4257,
      "Ġelectrical": 4258,
      "ritten": 4259,
      "ceptib": 4260,
      "Ġspectrum": 4261,
      "Ġrecru": 4262,
      "Ġamplitudes": 4263,
      "Ġmanif": 4264,
      "Ġlig": 4265,
      "Ġgreen": 4266,
      "Ġincor": 4267,
      "tention": 4268,
      "ĠGerman": 4269,
      "Ġow": 4270,
      "Ġdistingu": 4271,
      "mittee": 4272,
      "Ġmass": 4273,
      "Ġsets": 4274,
      "Ġfaces": 4275,
      "Ex": 4276,
      "Ġpresynaptic": 4277,
      "gra": 4278,
      "cin": 4279,
      "Ġcolum": 4280,
      "most": 4281,
      "ĠQuan": 4282,
      "Ġquantitative": 4283,
      "Ġpict": 4284,
      "ĠCol": 4285,
      "Ġrefer": 4286,
      "Ġperceptual": 4287,
      "Ġwidely": 4288,
      "Ġdiet": 4289,
      "rous": 4290,
      "BA": 4291,
      "Ġorigin": 4292,
      "Ġmeasurement": 4293,
      "Ġidentification": 4294,
      "Ġcounter": 4295,
      "hab": 4296,
      "Ġdetailed": 4297,
      "Our": 4298,
      "Ġ80": 4299,
      "osensory": 4300,
      "Ġlargely": 4301,
      "Ġaw": 4302,
      "Ġbran": 4303,
      "Ġrandomly": 4304,
      "ĠROIs": 4305,
      "ino": 4306,
      "Ġmamm": 4307,
      "argeted": 4308,
      "Ġestimates": 4309,
      "Ġoppos": 4310,
      "CM": 4311,
      "tral": 4312,
      "Ġrecei": 4313,
      "Ġnoted": 4314,
      "Ġsupported": 4315,
      "Ġpreference": 4316,
      "Ġnuclear": 4317,
      "Ġdepressive": 4318,
      "Ġconcer": 4319,
      "Ġclose": 4320,
      "plate": 4321,
      "ohist": 4322,
      "ĠERP": 4323,
      "iliar": 4324,
      "Ġsteps": 4325,
      "orescent": 4326,
      "Ġrecruit": 4327,
      "SM": 4328,
      "Ġmust": 4329,
      "Ġpractice": 4330,
      "mark": 4331,
      "Ġperiods": 4332,
      "aries": 4333,
      "Ġconnected": 4334,
      "Ġcomprehens": 4335,
      "years": 4336,
      "Ġtiming": 4337,
      "Ġseparately": 4338,
      "ades": 4339,
      "Ġseed": 4340,
      "used": 4341,
      "mat": 4342,
      "gic": 4343,
      "ĠSimilarly": 4344,
      "ĠPFC": 4345,
      "RE": 4346,
      "Ġ);": 4347,
      "sec": 4348,
      "Ġdecreases": 4349,
      "Ġproblems": 4350,
      "lish": 4351,
      "Ġtrend": 4352,
      "Ġneurom": 4353,
      "Ġhaving": 4354,
      "ĠGF": 4355,
      "Ġpredictive": 4356,
      "Ġsemantic": 4357,
      "osen": 4358,
      "Ġslight": 4359,
      "âĢīĠ": 4360,
      "55": 4361,
      "Ġlimitations": 4362,
      "motor": 4363,
      "44": 4364,
      "Ġnodes": 4365,
      "Ġtypical": 4366,
      "Ġefficiency": 4367,
      "Ġprofiles": 4368,
      "raf": 4369,
      "Ġhearing": 4370,
      "Ġmaintained": 4371,
      "forms": 4372,
      "Ġproblem": 4373,
      "Ġoptimal": 4374,
      "Ġvess": 4375,
      "urrence": 4376,
      "ery": 4377,
      "Ġsizes": 4378,
      "ĠMCI": 4379,
      "Ġcommerc": 4380,
      "Ġadaptation": 4381,
      "Ġlocations": 4382,
      "Ġtransf": 4383,
      "Ġdeviation": 4384,
      "Ġresponsible": 4385,
      "Ġcrucial": 4386,
      "PSC": 4387,
      "etyl": 4388,
      "Ġsubstr": 4389,
      "Ġ***": 4390,
      "Ġdatasets": 4391,
      "Ġdiscrimination": 4392,
      "Ġreconstruc": 4393,
      "pir": 4394,
      "Ġdendrites": 4395,
      "ĠResearch": 4396,
      "ĠHealth": 4397,
      "ohistochem": 4398,
      "Ġfar": 4399,
      "Ġrepl": 4400,
      "Ġautism": 4401,
      "Ġneutral": 4402,
      "Ġinvestigation": 4403,
      "Ġparallel": 4404,
      "cular": 4405,
      "isting": 4406,
      "orbid": 4407,
      "Ġtub": 4408,
      "Ġintro": 4409,
      "Ġsen": 4410,
      "Ġstronger": 4411,
      "riched": 4412,
      "Ġconfidence": 4413,
      "resentative": 4414,
      "ordance": 4415,
      "Ġprogressive": 4416,
      "ocity": 4417,
      "Ġshor": 4418,
      "Ġshape": 4419,
      "Ġcompleted": 4420,
      "Ġsynapse": 4421,
      "Ġcomparable": 4422,
      "ĠGS": 4423,
      "Ġtransgenic": 4424,
      "going": 4425,
      "Ġlittle": 4426,
      "weighted": 4427,
      "Ġcommonly": 4428,
      "Cre": 4429,
      "Ġprobe": 4430,
      "ĠBOLD": 4431,
      "Ġoxygen": 4432,
      "Ġhypothesized": 4433,
      "Ġgait": 4434,
      "Ġcoefficient": 4435,
      "Ġneuroprote": 4436,
      "Ġrecogn": 4437,
      "ĠTr": 4438,
      "bin": 4439,
      "Ġsusceptib": 4440,
      "Ġ~": 4441,
      "Ġintrinsic": 4442,
      "Ġimpairments": 4443,
      "Ġcompound": 4444,
      "zyg": 4445,
      "EA": 4446,
      "pts": 4447,
      "Ġshift": 4448,
      "aterial": 4449,
      "Ġion": 4450,
      "Ġobjective": 4451,
      "Ġalternative": 4452,
      "Ġrecruited": 4453,
      "Ġadvant": 4454,
      "Ġpla": 4455,
      "def": 4456,
      "ready": 4457,
      "Ġremaining": 4458,
      "ĠSpecifically": 4459,
      "Ġobtain": 4460,
      "itation": 4461,
      "Supplementary": 4462,
      "Ġoligodendro": 4463,
      "Ġsqu": 4464,
      "osomal": 4465,
      "PSCs": 4466,
      "analysis": 4467,
      "osomes": 4468,
      "mod": 4469,
      "Ġapoptosis": 4470,
      "left": 4471,
      "scale": 4472,
      "Ġfluid": 4473,
      "ĠMR": 4474,
      "Ġstriatal": 4475,
      "Ġcontributed": 4476,
      "Ġemployed": 4477,
      "ĠDL": 4478,
      "ĠATP": 4479,
      "OVID": 4480,
      "Ġasked": 4481,
      "ĠLab": 4482,
      "Ġmedical": 4483,
      "inger": 4484,
      "Ġstrain": 4485,
      "Ġ28": 4486,
      "Ġfund": 4487,
      "point": 4488,
      "Ġfollows": 4489,
      "xin": 4490,
      "olic": 4491,
      "Ġachieved": 4492,
      "Ġprimarily": 4493,
      "31": 4494,
      "oration": 4495,
      "Ġtargeting": 4496,
      "oxic": 4497,
      "aff": 4498,
      "Ġphenomen": 4499,
      "CN": 4500,
      "Ġconsequ": 4501,
      "Ġbecome": 4502,
      "hers": 4503,
      "range": 4504,
      "Ġsubcortical": 4505,
      "mitted": 4506,
      "Ġexpect": 4507,
      "Ġvestib": 4508,
      "Ġdespite": 4509,
      "akes": 4510,
      "Ġmaking": 4511,
      "DNA": 4512,
      "Ġseroton": 4513,
      "Ġscan": 4514,
      "Ġcoheren": 4515,
      "Ġskill": 4516,
      "Ġinterpretation": 4517,
      "tail": 4518,
      "ero": 4519,
      "ĠEA": 4520,
      "Ġeas": 4521,
      "rising": 4522,
      "Ġsubgroup": 4523,
      "Ġlabeling": 4524,
      "Ġcocaine": 4525,
      "itis": 4526,
      "Ġtransport": 4527,
      "Ġalready": 4528,
      "ilities": 4529,
      "Ġcommunication": 4530,
      "Ġenvironmental": 4531,
      "Ġafferen": 4532,
      "portantly": 4533,
      "Ne": 4534,
      "Ġplat": 4535,
      "500": 4536,
      "izon": 4537,
      "Ġfunctioning": 4538,
      "Ġframework": 4539,
      "Ġpolym": 4540,
      "Ġmacroph": 4541,
      "ries": 4542,
      "operative": 4543,
      "Ġpromote": 4544,
      "ble": 4545,
      "46": 4546,
      "tual": 4547,
      "ancial": 4548,
      "Ġmodified": 4549,
      "vascular": 4550,
      "paired": 4551,
      "otal": 4552,
      "olved": 4553,
      "icro": 4554,
      "Ġspikes": 4555,
      "tribut": 4556,
      "Ġdefici": 4557,
      "Ġneurogenesis": 4558,
      "Ġsacc": 4559,
      "Ġtransient": 4560,
      "bbit": 4561,
      "Ġsummar": 4562,
      "ĠAT": 4563,
      "Ġpathoph": 4564,
      "ogether": 4565,
      "Ġrelation": 4566,
      "Ġretrieval": 4567,
      "Ġprogram": 4568,
      "GE": 4569,
      "ĠÎĶ": 4570,
      "CSF": 4571,
      "Ġmor": 4572,
      "ancy": 4573,
      "ĠDi": 4574,
      "Ġmuscles": 4575,
      "Ġsul": 4576,
      "SN": 4577,
      "direct": 4578,
      "Ġcultured": 4579,
      "gical": 4580,
      "tioned": 4581,
      "Ġmapping": 4582,
      "ĠMP": 4583,
      "verage": 4584,
      "Ġpaper": 4585,
      "Ġshe": 4586,
      "ĠAccording": 4587,
      "Table": 4588,
      "Ġpathogenesis": 4589,
      "Ġwa": 4590,
      "Ġautophag": 4591,
      "ditional": 4592,
      "erved": 4593,
      "Ġadjusted": 4594,
      "types": 4595,
      "fMRI": 4596,
      "Ġconsisted": 4597,
      "Ġvelocity": 4598,
      "Ġslice": 4599,
      "Ġwide": 4600,
      "Ġdiameter": 4601,
      "Ġattentional": 4602,
      "Ġaddress": 4603,
      "Ġaccompan": 4604,
      "Ġregional": 4605,
      "Ġmiss": 4606,
      "ites": 4607,
      "ert": 4608,
      "Ġmodul": 4609,
      "ided": 4610,
      "Ġtw": 4611,
      "imotor": 4612,
      "Ġdatab": 4613,
      "Ġfinancial": 4614,
      "ĠIg": 4615,
      "ĠMo": 4616,
      "Ġ500": 4617,
      "ah": 4618,
      "ometric": 4619,
      "ney": 4620,
      "ĠĠĠĠ": 4621,
      "Ġelectrophysiological": 4622,
      "tinction": 4623,
      "inn": 4624,
      "ometry": 4625,
      "ĠMDD": 4626,
      "brid": 4627,
      "Ġrespir": 4628,
      "vis": 4629,
      "car": 4630,
      "ĠtDCS": 4631,
      "Ġplate": 4632,
      "Ġcham": 4633,
      "ollowing": 4634,
      "Ġseems": 4635,
      "Ġoccipital": 4636,
      "Ġprevalence": 4637,
      "Ġput": 4638,
      "ĠRepresentative": 4639,
      "Ġstere": 4640,
      "Ġtranspor": 4641,
      "Ġpartial": 4642,
      "Ġwashed": 4643,
      "dom": 4644,
      "ĠWestern": 4645,
      "TC": 4646,
      "ĠTest": 4647,
      "Ġattribu": 4648,
      "Ġmodulate": 4649,
      "Ġrare": 4650,
      "Ġpreven": 4651,
      "Ġsummary": 4652,
      "Ġipsilateral": 4653,
      "Ġtechnique": 4654,
      "Ġforce": 4655,
      "Ġpharmacological": 4656,
      "ĠGroup": 4657,
      "rh": 4658,
      "Ġimmediately": 4659,
      "inflammation": 4660,
      "Ġganglia": 4661,
      "linear": 4662,
      "ignificant": 4663,
      "ĠAAV": 4664,
      "Ġmode": 4665,
      "NC": 4666,
      "night": 4667,
      "gi": 4668,
      "roni": 4669,
      "izontal": 4670,
      "Ġblack": 4671,
      "Ġvariety": 4672,
      "Ġantagonist": 4673,
      "luorescence": 4674,
      "72": 4675,
      "LM": 4676,
      "US": 4677,
      "Ġsaf": 4678,
      "Ġunit": 4679,
      "everal": 4680,
      "Ġiso": 4681,
      "Ġtheory": 4682,
      "Ġnic": 4683,
      "Ġnow": 4684,
      "Ġcommercial": 4685,
      "Ad": 4686,
      "Ġdefin": 4687,
      "Ġconstit": 4688,
      "Ġpun": 4689,
      "Ġarm": 4690,
      "%),": 4691,
      "ĠBecause": 4692,
      "onfer": 4693,
      "ĠPCR": 4694,
      "arrow": 4695,
      "ĠThen": 4696,
      "Ġ70": 4697,
      "Ġcompart": 4698,
      "Ġdraw": 4699,
      "Ġhab": 4700,
      "olarization": 4701,
      "emb": 4702,
      "Ġaccel": 4703,
      "uclein": 4704,
      "Ġsupporting": 4705,
      "Ġestablish": 4706,
      "Ġaffects": 4707,
      "opathy": 4708,
      "Ġmodulated": 4709,
      "free": 4710,
      "ariate": 4711,
      "days": 4712,
      "Ġneurodegeneration": 4713,
      "Ġcand": 4714,
      "isted": 4715,
      "Ġasymmet": 4716,
      "onferroni": 4717,
      "Ġexplored": 4718,
      "53": 4719,
      "Ġethanol": 4720,
      "OE": 4721,
      "Ġrecall": 4722,
      "top": 4723,
      "Ġunderwent": 4724,
      "ĠMean": 4725,
      "unt": 4726,
      "Ġbu": 4727,
      "Ġreading": 4728,
      "Ġtoxic": 4729,
      "lear": 4730,
      "ĠSO": 4731,
      "osome": 4732,
      "ĠâĪ": 4733,
      "ĠmT": 4734,
      "64": 4735,
      "month": 4736,
      "Ġpron": 4737,
      "Ġaimed": 4738,
      "Ġspecial": 4739,
      "Ġinsula": 4740,
      "with": 4741,
      "Ġprogen": 4742,
      "Ġsources": 4743,
      "Ġsynthesis": 4744,
      "Ġsensorimotor": 4745,
      "ĠImportantly": 4746,
      "habilit": 4747,
      "Ġfrag": 4748,
      "ying": 4749,
      "Ġdiscre": 4750,
      "Ġcomplexity": 4751,
      "Ġown": 4752,
      "ĠPatients": 4753,
      "Ġdelayed": 4754,
      "odium": 4755,
      "Ġtargeted": 4756,
      "ĠCOVID": 4757,
      "AM": 4758,
      "Ġtransition": 4759,
      "Ġhydro": 4760,
      "tenance": 4761,
      "ĠNP": 4762,
      "anted": 4763,
      "Ġappeared": 4764,
      "ĠCC": 4765,
      "kele": 4766,
      "phas": 4767,
      "aternal": 4768,
      "ĠTMS": 4769,
      "Ġplacebo": 4770,
      "ĠPrevious": 4771,
      "alse": 4772,
      "Ġmaintain": 4773,
      "Ġchosen": 4774,
      "eli": 4775,
      "Ġprojection": 4776,
      "TMS": 4777,
      "EC": 4778,
      "Ġregular": 4779,
      "Ġagree": 4780,
      "ĠGFAP": 4781,
      "Ġdone": 4782,
      "ĠGiven": 4783,
      "Ġdark": 4784,
      "Ġinterventions": 4785,
      "value": 4786,
      "Ġmonitoring": 4787,
      "illed": 4788,
      "Ġsurround": 4789,
      "98": 4790,
      "omes": 4791,
      "Ġthereby": 4792,
      "Ġangle": 4793,
      "Ġresearc": 4794,
      "ps": 4795,
      "lectro": 4796,
      "08": 4797,
      "Ġpeptide": 4798,
      "jects": 4799,
      "ĠOR": 4800,
      "lated": 4801,
      "Ġmis": 4802,
      "inations": 4803,
      "atergic": 4804,
      "Ġattem": 4805,
      "Ġfixation": 4806,
      "ĠAS": 4807,
      "Ġcoding": 4808,
      "Ġscans": 4809,
      "Ġpulse": 4810,
      "ĠLC": 4811,
      "clinical": 4812,
      "ricular": 4813,
      "ĠSuch": 4814,
      "Ġbip": 4815,
      "Ġconven": 4816,
      "uctu": 4817,
      "Ġpip": 4818,
      "oster": 4819,
      "dimens": 4820,
      "BL": 4821,
      "Ġequal": 4822,
      "Ġinstance": 4823,
      "Ġeight": 4824,
      "ĠSI": 4825,
      "Ġmedication": 4826,
      "ĠGermany": 4827,
      "label": 4828,
      "Î³": 4829,
      ".)": 4830,
      "treatment": 4831,
      "Ġregen": 4832,
      "ads": 4833,
      "Ġrepresentative": 4834,
      "Ġconscious": 4835,
      "ception": 4836,
      "Ġvirus": 4837,
      "iqu": 4838,
      "Ġgr": 4839,
      "ĠTrans": 4840,
      "turb": 4841,
      "wide": 4842,
      "Ġspine": 4843,
      "depress": 4844,
      "Ġextinction": 4845,
      "Ġconduct": 4846,
      "Ġfields": 4847,
      "ĠPI": 4848,
      "ror": 4849,
      "Ġstained": 4850,
      "OG": 4851,
      "Ġplots": 4852,
      "Ġpersonal": 4853,
      "66": 4854,
      "Ġmicroscope": 4855,
      "Ġmatched": 4856,
      "ĠOf": 4857,
      "Ġendothe": 4858,
      "Ġpositively": 4859,
      "yond": 4860,
      "Ġvestibular": 4861,
      "Re": 4862,
      "Ġinduces": 4863,
      "97": 4864,
      "Ġelicited": 4865,
      "Ġdeclare": 4866,
      "Ġhorm": 4867,
      "Ġsomatosensory": 4868,
      "Ġreviewed": 4869,
      "ering": 4870,
      "ĠNR": 4871,
      "Ġconclud": 4872,
      "Ġneurotransmit": 4873,
      "Ġcorrelates": 4874,
      "Ġoligodendrocy": 4875,
      "ogenetic": 4876,
      "box": 4877,
      "Ġnm": 4878,
      "Ġintegrity": 4879,
      "Ġpredominant": 4880,
      "Ġsubjective": 4881,
      "Ġresistance": 4882,
      "Ġburst": 4883,
      "Ġdisturb": 4884,
      "Ġdriven": 4885,
      "ĠSystem": 4886,
      "ĠEr": 4887,
      "SV": 4888,
      "Ġexact": 4889,
      "Ġmood": 4890,
      "arietal": 4891,
      "Ġaccoun": 4892,
      "Ġaccordance": 4893,
      "poch": 4894,
      "blue": 4895,
      "ĠStatement": 4896,
      "mal": 4897,
      "ool": 4898,
      "300": 4899,
      "Ġexplan": 4900,
      "Ġapparent": 4901,
      "Ġsimilarity": 4902,
      "Ġclustering": 4903,
      "Ġarch": 4904,
      "Ġblocked": 4905,
      "green": 4906,
      "sequenc": 4907,
      "ĠBBB": 4908,
      "Ġmaintenance": 4909,
      "mend": 4910,
      "oti": 4911,
      "Ġclearly": 4912,
      "Ġq": 4913,
      "itus": 4914,
      "field": 4915,
      "ina": 4916,
      "atch": 4917,
      "Ġregulated": 4918,
      "ĠPET": 4919,
      "Ġclassified": 4920,
      "uk": 4921,
      "Ġproviding": 4922,
      "Ġvariant": 4923,
      "Ġtone": 4924,
      "Ġinstead": 4925,
      "UC": 4926,
      "Ġbands": 4927,
      "unctional": 4928,
      "Ġwritten": 4929,
      "Ġgradient": 4930,
      "Ġarous": 4931,
      "mut": 4932,
      "Ġdownstream": 4933,
      "Ġbottom": 4934,
      "Ġcontained": 4935,
      "ĠDep": 4936,
      "path": 4937,
      "Ġ45": 4938,
      "Ġlatter": 4939,
      "Ġgli": 4940,
      "riefly": 4941,
      "theless": 4942,
      "elling": 4943,
      "Ġabund": 4944,
      "Ġplatform": 4945,
      "Ġintake": 4946,
      "Ġproxim": 4947,
      "Ġfluctu": 4948,
      "Ġcop": 4949,
      "Ġcategor": 4950,
      "olute": 4951,
      "Ġeducation": 4952,
      "Ġenriched": 4953,
      "Ġopposite": 4954,
      "Ġpromin": 4955,
      "Ġhar": 4956,
      "ĠUnited": 4957,
      "Ġcortices": 4958,
      "ifier": 4959,
      "Ġsubtypes": 4960,
      "vision": 4961,
      "infor": 4962,
      "Ġeth": 4963,
      "ĠBased": 4964,
      "Ġdiscussed": 4965,
      "ĠOther": 4966,
      "MC": 4967,
      "ĠPP": 4968,
      "Ġdiscrimin": 4969,
      "ĠIV": 4970,
      "Ġsegmentation": 4971,
      "ba": 4972,
      "ĠConflict": 4973,
      "ars": 4974,
      "lor": 4975,
      "ND": 4976,
      "Ġindirect": 4977,
      "ĠDMN": 4978,
      "Ġschem": 4979,
      "Ġmorphological": 4980,
      "Ġquestionna": 4981,
      "Ġidentical": 4982,
      "ival": 4983,
      "havioral": 4984,
      "troke": 4985,
      "Ġmitochondria": 4986,
      "habilitation": 4987,
      "93": 4988,
      "erated": 4989,
      "ophil": 4990,
      "62": 4991,
      "Ġimmunos": 4992,
      "Ġpreced": 4993,
      "Ġcurrently": 4994,
      "Ġmigration": 4995,
      "Ġmach": 4996,
      "ĠAMPA": 4997,
      "Ġusually": 4998,
      "Ġglutamatergic": 4999,
      "processing": 5000,
      "onists": 5001,
      "umb": 5002,
      "Ġcount": 5003,
      "Ġintact": 5004,
      "dimensional": 5005,
      "Ġextre": 5006,
      "ĠTH": 5007,
      "Ġdifferentially": 5008,
      "olinergic": 5009,
      "Ġtools": 5010,
      "Ġcontact": 5011,
      "Ġbasic": 5012,
      "ĠPO": 5013,
      "ĠSCI": 5014,
      "Ġovernight": 5015,
      "Ġhours": 5016,
      "ĠPK": 5017,
      "ĠEthics": 5018,
      "EEG": 5019,
      "Ġexperienced": 5020,
      "ĠSup": 5021,
      "Ġsimultaneously": 5022,
      "Ġmutants": 5023,
      "Ġverbal": 5024,
      "Ġdistributions": 5025,
      "Ġheterogeneity": 5026,
      "Ġgenome": 5027,
      "Ġmechanical": 5028,
      "elines": 5029,
      "Ġmicroscopy": 5030,
      "ufact": 5031,
      "expressing": 5032,
      "Ġwhose": 5033,
      "ĠPl": 5034,
      "odic": 5035,
      "Ġprocessed": 5036,
      "Ġquestions": 5037,
      "Ġcomplic": 5038,
      "Ġincludes": 5039,
      "Ġcomplement": 5040,
      "Ġ32": 5041,
      "Ġindependently": 5042,
      "Ġbarri": 5043,
      "Ġdepending": 5044,
      "Ġfrequently": 5045,
      "Ġdeficit": 5046,
      "Ġretina": 5047,
      "Ġzone": 5048,
      "Ġunderstood": 5049,
      "ĠBonferroni": 5050,
      "Ġgreat": 5051,
      "Ġrestricted": 5052,
      "RR": 5053,
      "Ġ26": 5054,
      "Ġconclusion": 5055,
      "ĠFisher": 5056,
      "pus": 5057,
      "Ġ35": 5058,
      "Ġthresholds": 5059,
      "hesia": 5060,
      "Ġstability": 5061,
      "Ġfocal": 5062,
      "rele": 5063,
      "Ġanesthe": 5064,
      "rained": 5065,
      "phosph": 5066,
      "Ġheart": 5067,
      "Ġpossibly": 5068,
      "Ġtrigg": 5069,
      "Ġdiabe": 5070,
      "Ġantidepress": 5071,
      "richment": 5072,
      "ĠAuth": 5073,
      "mi": 5074,
      "Ġreducing": 5075,
      "Ġstatistics": 5076,
      "78": 5077,
      "Ġscler": 5078,
      "rd": 5079,
      "Ġcontributions": 5080,
      "Ġsustained": 5081,
      "Ġprotocols": 5082,
      "Ġexcept": 5083,
      "Ġmanufact": 5084,
      "Ġleg": 5085,
      "Ġyear": 5086,
      "Ġmal": 5087,
      "ĠGl": 5088,
      "cm": 5089,
      "Ġmodeling": 5090,
      "Ġfamiliar": 5091,
      "Ġpast": 5092,
      "acing": 5093,
      "formation": 5094,
      "Ġmes": 5095,
      "AL": 5096,
      "Ġsubunit": 5097,
      ",âĢĿ": 5098,
      "ulti": 5099,
      "Ġpostnatal": 5100,
      "ĠExperiment": 5101,
      "ĠTech": 5102,
      "draw": 5103,
      "illary": 5104,
      "Ġspent": 5105,
      "ulner": 5106,
      "Ġinclusion": 5107,
      "certain": 5108,
      "ĠSH": 5109,
      "Ġterminals": 5110,
      "Ġensure": 5111,
      "Ġsampling": 5112,
      "Ġfluorescent": 5113,
      "Ġdisruption": 5114,
      "Ġevolution": 5115,
      "Ġextended": 5116,
      "Ġouts": 5117,
      "anded": 5118,
      "Ġsodium": 5119,
      "ret": 5120,
      "Ġconnection": 5121,
      "OH": 5122,
      "atial": 5123,
      "Ġsubsequently": 5124,
      "Ġhorizontal": 5125,
      "adian": 5126,
      "Ġinjections": 5127,
      "Ġeyes": 5128,
      "Ġastrocyte": 5129,
      "Ġperturb": 5130,
      "ĠInter": 5131,
      "Ġallele": 5132,
      "asive": 5133,
      "Ġconstr": 5134,
      "equ": 5135,
      "Ġtraces": 5136,
      "Ġmetrics": 5137,
      "Ġmeaning": 5138,
      "Ġtowards": 5139,
      "Ġcollection": 5140,
      "Ġmix": 5141,
      "ĠHR": 5142,
      "Ġneuroinflammation": 5143,
      "There": 5144,
      "Ġprepared": 5145,
      "Ġoptic": 5146,
      "Ġmethylation": 5147,
      "Ġimplement": 5148,
      "Le": 5149,
      "Ġsoci": 5150,
      "Ġwalking": 5151,
      "Ġvesic": 5152,
      "201": 5153,
      "ivity": 5154,
      "ĠAB": 5155,
      "lymph": 5156,
      "Ġauto": 5157,
      "Ġsubstantial": 5158,
      "Ġbrainstem": 5159,
      "Ġsequencing": 5160,
      "ĠDec": 5161,
      "ĠDM": 5162,
      "ĠMAP": 5163,
      "Ġconfound": 5164,
      "):": 5165,
      "ĠControl": 5166,
      "Ġimmunore": 5167,
      "une": 5168,
      "Ġdefec": 5169,
      "Ġdisability": 5170,
      "Ġkine": 5171,
      "ĠNI": 5172,
      "overed": 5173,
      "88": 5174,
      "Ġepoch": 5175,
      "Ġcategories": 5176,
      "rine": 5177,
      "ffects": 5178,
      "Ġclinically": 5179,
      "Ġshared": 5180,
      "Ġrecruitment": 5181,
      "Ġpreparation": 5182,
      "ĠCommittee": 5183,
      "Ġher": 5184,
      "pected": 5185,
      "Ġthalamic": 5186,
      "LP": 5187,
      "Ġtransi": 5188,
      "ĠHF": 5189,
      "Ġdeno": 5190,
      "urer": 5191,
      "Ġdistinguish": 5192,
      "Ġconstrued": 5193,
      "iness": 5194,
      "ik": 5195,
      "Ġagonist": 5196,
      "Con": 5197,
      "Ġvideo": 5198,
      "aten": 5199,
      "synuclein": 5200,
      "Ġdescribe": 5201,
      "sequences": 5202,
      "Ġsclerosis": 5203,
      "atigue": 5204,
      "Ġpack": 5205,
      "Ġinhibitors": 5206,
      "96": 5207,
      "olding": 5208,
      "Ġlar": 5209,
      "Ġdelivery": 5210,
      "izations": 5211,
      "ivered": 5212,
      "Ġregulating": 5213,
      "ĠDifferen": 5214,
      "heres": 5215,
      "Ġspiking": 5216,
      "ĠmV": 5217,
      "dri": 5218,
      "Ġcontains": 5219,
      "Ġimplemented": 5220,
      "Ġreduces": 5221,
      "Ġreliable": 5222,
      "ceed": 5223,
      "Ġseven": 5224,
      "tity": 5225,
      "evoked": 5226,
      "Ġfacial": 5227,
      "Ġblind": 5228,
      "ĠAC": 5229,
      "Ġalmost": 5230,
      "Ġvulner": 5231,
      "Ġlipid": 5232,
      "Ġmanifest": 5233,
      "Ġelements": 5234,
      "Ġjud": 5235,
      "07": 5236,
      "LT": 5237,
      "Ġlocomotor": 5238,
      "inter": 5239,
      "year": 5240,
      "Ġcategory": 5241,
      "Ġ23": 5242,
      "94": 5243,
      "Ġopt": 5244,
      "rote": 5245,
      "mid": 5246,
      "sw": 5247,
      "Ġfacilitate": 5248,
      "acer": 5249,
      "values": 5250,
      "1000": 5251,
      "Ġfamil": 5252,
      "ĠNeur": 5253,
      "Ġconsequences": 5254,
      "Ġquantification": 5255,
      "ĠDG": 5256,
      "Ġrodents": 5257,
      "Ġscen": 5258,
      "ellow": 5259,
      "ĠMice": 5260,
      "hydro": 5261,
      "Ġfalse": 5262,
      "Ġpen": 5263,
      "Ġexamination": 5264,
      "Ġresour": 5265,
      "Ġconsumption": 5266,
      "Ġbodies": 5267,
      "corrected": 5268,
      "Ġforward": 5269,
      "Ġunc": 5270,
      "Ġbind": 5271,
      "Ġclin": 5272,
      "WM": 5273,
      "Ġmature": 5274,
      "ĠmPFC": 5275,
      "ocytosis": 5276,
      "AR": 5277,
      "Ġuptake": 5278,
      "Ġtrigger": 5279,
      "eness": 5280,
      "Ġrecommend": 5281,
      "eric": 5282,
      "Ġreverse": 5283,
      "Ġjust": 5284,
      "Ġdelivered": 5285,
      "Ġrespective": 5286,
      "Ġdoc": 5287,
      "acent": 5288,
      "Ġreinfor": 5289,
      "ĠÎ·": 5290,
      "oxid": 5291,
      "Ġprolong": 5292,
      "Ġket": 5293,
      "Ġbenefit": 5294,
      "Ġinser": 5295,
      "ault": 5296,
      "Ġbeneficial": 5297,
      "Ġminimum": 5298,
      "versely": 5299,
      "ections": 5300,
      "Ġmanufacturer": 5301,
      "cies": 5302,
      "Ġaccurate": 5303,
      "ĠTechn": 5304,
      "Ġdepic": 5305,
      "ĠAg": 5306,
      "Ġspectral": 5307,
      "Ġbeyond": 5308,
      "Ġdeletion": 5309,
      "cho": 5310,
      "months": 5311,
      "zygous": 5312,
      "Ġcytos": 5313,
      "Ġexcess": 5314,
      "Ġabsolute": 5315,
      "Ġcann": 5316,
      "utions": 5317,
      "ĠMan": 5318,
      "Ġproject": 5319,
      "omo": 5320,
      "Ġcholinergic": 5321,
      "ĠStates": 5322,
      "Ġslightly": 5323,
      "Ġcontrolling": 5324,
      "EN": 5325,
      "ierarch": 5326,
      "Ġchamber": 5327,
      "onomic": 5328,
      "%).": 5329,
      "Ġzero": 5330,
      "ils": 5331,
      "Ġseparated": 5332,
      "Syn": 5333,
      "tized": 5334,
      "cents": 5335,
      "Ġarchite": 5336,
      "ops": 5337,
      "raine": 5338,
      "Ġpreferen": 5339,
      "Ġsucrose": 5340,
      "Ġcolumn": 5341,
      "Ġpromoter": 5342,
      "Ġaffective": 5343,
      "Ġexec": 5344,
      "Ġcompletely": 5345,
      "Ġnegatively": 5346,
      "keys": 5347,
      "Ġmaturation": 5348,
      "Ġarousal": 5349,
      "ĠLTP": 5350,
      "zation": 5351,
      "ifications": 5352,
      "Ġregulatory": 5353,
      "fficients": 5354,
      "Ġâī¥": 5355,
      "GS": 5356,
      "mL": 5357,
      "Ġactivate": 5358,
      "ĠImage": 5359,
      "icking": 5360,
      "Ġprogress": 5361,
      "grade": 5362,
      "pose": 5363,
      "Ġphases": 5364,
      "Ġcurves": 5365,
      "Fs": 5366,
      "ĠAnimals": 5367,
      "ds": 5368,
      "Ġcentr": 5369,
      "Ġcomputational": 5370,
      "ĠMI": 5371,
      "06": 5372,
      "enetic": 5373,
      "Ġtrue": 5374,
      "ĠNS": 5375,
      "Ġexcitation": 5376,
      "Ġspread": 5377,
      "Ġchanged": 5378,
      "ametric": 5379,
      "activated": 5380,
      "Ġitself": 5381,
      "orrh": 5382,
      "ensitive": 5383,
      "Ġdegrad": 5384,
      "Ġrapidly": 5385,
      "Ġdiagnosed": 5386,
      "vised": 5387,
      "Ġ(âĢ": 5388,
      "ĠNon": 5389,
      "Ġcontribut": 5390,
      "Ġmedic": 5391,
      "Ġonce": 5392,
      "Ġreflects": 5393,
      "Ġresc": 5394,
      "Ġpor": 5395,
      "tub": 5396,
      "science": 5397,
      "Ġfall": 5398,
      "Ġdrive": 5399,
      "Ġworld": 5400,
      "Ġaccompanied": 5401,
      "oids": 5402,
      "Ġlaboratory": 5403,
      "ares": 5404,
      "ĠPo": 5405,
      "Ġnicot": 5406,
      "mann": 5407,
      "Ġcen": 5408,
      "mediate": 5409,
      "ison": 5410,
      "cing": 5411,
      "Ġoverexpression": 5412,
      "Ġcomputer": 5413,
      "ĠFollowing": 5414,
      "Ġspines": 5415,
      "Ġjunction": 5416,
      "Ġadaptive": 5417,
      "Ġinfants": 5418,
      "Ġperceived": 5419,
      "ĠCM": 5420,
      "ĠDBS": 5421,
      "Ġfailed": 5422,
      "heric": 5423,
      "ĠPost": 5424,
      "Ġmacrophages": 5425,
      "Ġcoherence": 5426,
      "Ġenrichment": 5427,
      "Ġdisch": 5428,
      "ĠACC": 5429,
      "Ġpartially": 5430,
      "Ġinsulin": 5431,
      "56": 5432,
      "ĠIII": 5433,
      "Ġischemia": 5434,
      "Ġweights": 5435,
      "luor": 5436,
      "ĠIP": 5437,
      "ung": 5438,
      "ocation": 5439,
      "Ġendothelial": 5440,
      "ĠAR": 5441,
      "Ġoutside": 5442,
      "usions": 5443,
      "ĠÎ³": 5444,
      "where": 5445,
      "Ġrandomized": 5446,
      "Ġcoefficients": 5447,
      "Ġinfluenced": 5448,
      "asal": 5449,
      "Ġonline": 5450,
      "ĠClinical": 5451,
      "evertheless": 5452,
      "Ġextensive": 5453,
      "Ġdominant": 5454,
      "Ġskin": 5455,
      "Ġfat": 5456,
      "Ġprominent": 5457,
      "Ġagreement": 5458,
      "alian": 5459,
      "Ġwr": 5460,
      "Ġclosely": 5461,
      "ĠAuthor": 5462,
      "antation": 5463,
      "Ġincorpor": 5464,
      "Ġwithdraw": 5465,
      "Ġfile": 5466,
      "Ġresearchers": 5467,
      "gative": 5468,
      "Ġpsychological": 5469,
      "ley": 5470,
      "ĠLD": 5471,
      "Ġtempor": 5472,
      "part": 5473,
      "Ġartery": 5474,
      "otropic": 5475,
      "Ġ27": 5476,
      "organ": 5477,
      "Ġinhibited": 5478,
      "ĠPTSD": 5479,
      "Ġinteract": 5480,
      "Ġflies": 5481,
      "WT": 5482,
      "ck": 5483,
      "Ġinvolves": 5484,
      "iring": 5485,
      "tailed": 5486,
      "ĠED": 5487,
      "Ġrepresenting": 5488,
      "ĠSer": 5489,
      "ĠOverall": 5490,
      "Ġdegradation": 5491,
      "Ġsegments": 5492,
      "Ġsystemic": 5493,
      "Ġparts": 5494,
      "Ġmostly": 5495,
      "Ġreliability": 5496,
      "Ġdeple": 5497,
      "NP": 5498,
      "Ġcalled": 5499,
      "wor": 5500,
      "Ġalways": 5501,
      "relation": 5502,
      "Ġcreated": 5503,
      "Ġmaternal": 5504,
      "ĠCH": 5505,
      "It": 5506,
      "Ġequival": 5507,
      "Ġcytoplas": 5508,
      "Ġneuroprotective": 5509,
      "earson": 5510,
      "itrogen": 5511,
      "Ġimmunohistochem": 5512,
      "Ġabilities": 5513,
      "Ġbipolar": 5514,
      "Ġstimulated": 5515,
      "Ġnoc": 5516,
      "Ġsenten": 5517,
      "otherap": 5518,
      "Ġperforming": 5519,
      "Ġcontributes": 5520,
      "ĠEC": 5521,
      "Ġplus": 5522,
      "ologic": 5523,
      "Ġtake": 5524,
      "eta": 5525,
      "Ġfinger": 5526,
      "Ġtaking": 5527,
      "Ġscanner": 5528,
      "Ġprecise": 5529,
      "Vs": 5530,
      "Ġneon": 5531,
      "Ġcapt": 5532,
      "85": 5533,
      "ĠScientific": 5534,
      "ĠSome": 5535,
      "Ġvalidation": 5536,
      "Ġeluc": 5537,
      "ises": 5538,
      "Ġconsecutive": 5539,
      "Ġestimation": 5540,
      "Ġdon": 5541,
      "gt": 5542,
      "Ġadjust": 5543,
      "iction": 5544,
      "Ġinten": 5545,
      "Ġtemplate": 5546,
      "Ġmonkeys": 5547,
      "Ġratings": 5548,
      "rog": 5549,
      "Ġthre": 5550,
      "ĠDespite": 5551,
      "ubiqu": 5552,
      "Ġfaster": 5553,
      "ĠMon": 5554,
      "Ġenzyme": 5555,
      "actic": 5556,
      "Ġvertical": 5557,
      "Ġpix": 5558,
      "ĠAnother": 5559,
      "Ġtracts": 5560,
      "Ġenhancement": 5561,
      "Ġcontras": 5562,
      "Ġknockout": 5563,
      "Ġreached": 5564,
      "ulum": 5565,
      "ĠVTA": 5566,
      "ĠTRP": 5567,
      "Ġcompe": 5568,
      "mia": 5569,
      "lateral": 5570,
      "ovascular": 5571,
      "Ġhair": 5572,
      "Ġdoses": 5573,
      "gn": 5574,
      "Ġdate": 5575,
      "Ġfatigue": 5576,
      "Ġassigned": 5577,
      "Se": 5578,
      "Ġdistal": 5579,
      "Ġvaried": 5580,
      "eral": 5581,
      "abilities": 5582,
      "Ġbarrier": 5583,
      "inking": 5584,
      "Ġhomeostasis": 5585,
      "Ġupd": 5586,
      "Ġobserve": 5587,
      "ĠBio": 5588,
      "Ġglyc": 5589,
      "Ġcausal": 5590,
      "olateral": 5591,
      "Ġrow": 5592,
      "ĠVal": 5593,
      "vance": 5594,
      "EB": 5595,
      "Ġchallenge": 5596,
      "Ġsystematic": 5597,
      "psych": 5598,
      "Ġdatabase": 5599,
      "Ġacetyl": 5600,
      "ĠIgG": 5601,
      "auss": 5602,
      "ĠAnimal": 5603,
      "Ġrespiratory": 5604,
      "ĠAlso": 5605,
      "Ġinfluences": 5606,
      "Ġadolescents": 5607,
      "Ġoc": 5608,
      "Ġscanning": 5609,
      "Ġreactive": 5610,
      "Ġmoun": 5611,
      "ffect": 5612,
      "hing": 5613,
      "AMP": 5614,
      "Ġreflected": 5615,
      "ofluorescence": 5616,
      "dr": 5617,
      "MR": 5618,
      "Ġcycl": 5619,
      "ĠPR": 5620,
      "Ġdevice": 5621,
      "Ġzeb": 5622,
      "Ġlaser": 5623,
      "Ġpromising": 5624,
      "Ġpersistent": 5625,
      "Ġsubjected": 5626,
      "ferred": 5627,
      "tras": 5628,
      "CB": 5629,
      "Ġcytokine": 5630,
      "Ġcancer": 5631,
      "Ġcla": 5632,
      "Ġdepends": 5633,
      "po": 5634,
      "Ġtraits": 5635,
      "Ġstarting": 5636,
      "Ġbul": 5637,
      "Ġevident": 5638,
      "Ġviral": 5639,
      "idi": 5640,
      "Ġadvantage": 5641,
      "ĠNO": 5642,
      "ĠSS": 5643,
      "Ġinfar": 5644,
      "Ġarg": 5645,
      "41": 5646,
      "Ġpropose": 5647,
      "Ġaffecting": 5648,
      "Îº": 5649,
      "Ġgap": 5650,
      "Ġstop": 5651,
      "Ġcircadian": 5652,
      "Ġassays": 5653,
      "ĠNevertheless": 5654,
      "Ġburden": 5655,
      "itors": 5656,
      "ported": 5657,
      "SEM": 5658,
      "inity": 5659,
      "Ġ75": 5660,
      "Ġcoch": 5661,
      "Ġmaze": 5662,
      "iling": 5663,
      "Ġrehabilitation": 5664,
      "ets": 5665,
      "Ġyounger": 5666,
      "chol": 5667,
      "Ġconsistently": 5668,
      "Ġpredictions": 5669,
      "Ġallowing": 5670,
      "Ġmigraine": 5671,
      "Ġanalyze": 5672,
      "Ġmaterial": 5673,
      "76": 5674,
      "ifug": 5675,
      "Ġissue": 5676,
      "Ġneocor": 5677,
      "ĠFuture": 5678,
      "Ġdual": 5679,
      "br": 5680,
      "Ġneigh": 5681,
      "Ġhierarch": 5682,
      "Ġprogn": 5683,
      "ĠCompar": 5684,
      "Ġactual": 5685,
      "Ġdemonstrating": 5686,
      "ĠStim": 5687,
      "ĊĠ": 5688,
      "Ġstored": 5689,
      "Ġbeginning": 5690,
      "Ġstra": 5691,
      "Ġsubunits": 5692,
      "ĠMedical": 5693,
      "Ġfailure": 5694,
      "Ġautophagy": 5695,
      "eed": 5696,
      "tality": 5697,
      "Ġnull": 5698,
      "ĠAPOE": 5699,
      "istence": 5700,
      "ĠCells": 5701,
      "Ġstream": 5702,
      "ypical": 5703,
      "ĠUK": 5704,
      "ignment": 5705,
      "oxy": 5706,
      "49": 5707,
      "Ġsimulation": 5708,
      "Ġchildhood": 5709,
      "Ġincidence": 5710,
      "Ġserotonin": 5711,
      "Ġorth": 5712,
      "Ġdifficulty": 5713,
      "Ġmel": 5714,
      "Ġreceive": 5715,
      "Ġreturn": 5716,
      "Ġrise": 5717,
      "oural": 5718,
      "Ġscales": 5719,
      "Ġhospital": 5720,
      "86": 5721,
      "Ġcomorbid": 5722,
      "Ġoccurrence": 5723,
      "Ġvalidated": 5724,
      "Ġlocalized": 5725,
      "Ġachieve": 5726,
      "EK": 5727,
      "Ġtail": 5728,
      "opic": 5729,
      "Ġgrad": 5730,
      "Ġidea": 5731,
      "rafish": 5732,
      "Ġcost": 5733,
      "ĠConsistent": 5734,
      "Ġiron": 5735,
      "Ġscreening": 5736,
      "+)": 5737,
      "Ġtranscriptional": 5738,
      "dehy": 5739,
      "innitus": 5740,
      "jug": 5741,
      "ĠPM": 5742,
      "Ġmill": 5743,
      "ĠID": 5744,
      "Ġsusceptibility": 5745,
      "Ġoptical": 5746,
      "oting": 5747,
      "Ġamino": 5748,
      "ĠMEG": 5749,
      "Ġfiltered": 5750,
      "ociation": 5751,
      "well": 5752,
      "Ġdepth": 5753,
      "Ġbelie": 5754,
      "ĠStudy": 5755,
      "ĠInstitute": 5756,
      "Ġ300": 5757,
      "Ġdepri": 5758,
      "Ġfundam": 5759,
      "Ġepileptic": 5760,
      "Ġprecurs": 5761,
      "Ġprotective": 5762,
      "tile": 5763,
      "Ġprincipal": 5764,
      "atient": 5765,
      "Ġadop": 5766,
      "Ġmembers": 5767,
      "Ġvariations": 5768,
      "berg": 5769,
      "aspase": 5770,
      "prising": 5771,
      "Ġinteresting": 5772,
      "Ġcapture": 5773,
      "Ġbiomarker": 5774,
      "Ġnode": 5775,
      "avor": 5776,
      "thood": 5777,
      "Ġarray": 5778,
      "injec": 5779,
      "UT": 5780,
      "Ġtherapies": 5781,
      "Ġdiverse": 5782,
      "Ġ36": 5783,
      "dis": 5784,
      "Ġimm": 5785,
      "AA": 5786,
      "aussian": 5787,
      "Ġneeds": 5788,
      "Ġcorrelate": 5789,
      "ĠInterest": 5790,
      "Ġmoving": 5791,
      "ulthood": 5792,
      "ĠDS": 5793,
      "land": 5794,
      "ĠON": 5795,
      "Ġaggregation": 5796,
      "ames": 5797,
      "Ġcoordinates": 5798,
      "ifying": 5799,
      "ignal": 5800,
      "obl": 5801,
      "Ġupregulated": 5802,
      "otoxic": 5803,
      "tests": 5804,
      "Ġfigure": 5805,
      "005": 5806,
      "dehyde": 5807,
      "lit": 5808,
      "yelination": 5809,
      "icep": 5810,
      "ĠMicro": 5811,
      "Ġtranslation": 5812,
      "Ġregulates": 5813,
      "ubiquit": 5814,
      "Ġstabil": 5815,
      "Ġdirections": 5816,
      "Ġefficient": 5817,
      "subject": 5818,
      "pers": 5819,
      "ĠStudent": 5820,
      "ĠLFP": 5821,
      "Ġneuropsychological": 5822,
      "Ġsupports": 5823,
      "Ġconfocal": 5824,
      "driven": 5825,
      "Ġadjacent": 5826,
      "ĠOnly": 5827,
      "Ġraw": 5828,
      "Ġattenuated": 5829,
      "axis": 5830,
      "Ġconventional": 5831,
      "Ġlamin": 5832,
      "labeled": 5833,
      "Ġanticip": 5834,
      "Ġprolonged": 5835,
      "Ġcohorts": 5836,
      "inv": 5837,
      "Ġpropag": 5838,
      "IL": 5839,
      "irth": 5840,
      "Ġtuning": 5841,
      "Ġperspective": 5842,
      "Ġplotted": 5843,
      "lt": 5844,
      "Ġdiffered": 5845,
      "actile": 5846,
      "Ġtrauma": 5847,
      "Ġcandidate": 5848,
      "Ġproduct": 5849,
      "matched": 5850,
      "Ġvision": 5851,
      "Ġconfig": 5852,
      "PP": 5853,
      "ĠOp": 5854,
      "ÎºB": 5855,
      "Ġmortality": 5856,
      "Ġshorter": 5857,
      "icians": 5858,
      "Ġmaximal": 5859,
      "Ġuncertain": 5860,
      "Ġdocum": 5861,
      "ĠTDP": 5862,
      "Ġadverse": 5863,
      "Ġcharacterize": 5864,
      "tives": 5865,
      "Ġadulthood": 5866,
      "Ġexisting": 5867,
      "ĠAmong": 5868,
      "occ": 5869,
      "ĠHence": 5870,
      "Ġlet": 5871,
      "Ġsigns": 5872,
      "Ġneurodevelop": 5873,
      "ĠFrom": 5874,
      "Ġperme": 5875,
      "Ġexplic": 5876,
      "rees": 5877,
      "Ġlif": 5878,
      "Ġtracking": 5879,
      "Ġconditioned": 5880,
      "bility": 5881,
      "affec": 5882,
      "seud": 5883,
      "TG": 5884,
      "Ġchain": 5885,
      "pon": 5886,
      "%.": 5887,
      "ĠRed": 5888,
      "Ġquantify": 5889,
      "ye": 5890,
      "ĠTogether": 5891,
      "Ġanalog": 5892,
      "Ġskills": 5893,
      "ĠMost": 5894,
      "Ġserve": 5895,
      "Ġconsidering": 5896,
      "ĠNotably": 5897,
      "Ġencephal": 5898,
      "Ġperf": 5899,
      "Ġhypothalamus": 5900,
      "ĠEMG": 5901,
      "Ġformed": 5902,
      "EF": 5903,
      "ĠDO": 5904,
      "Ġnig": 5905,
      "Ġpeaks": 5906,
      "ĠSeveral": 5907,
      "Ġrodent": 5908,
      "Ġcarry": 5909,
      "Ġatlas": 5910,
      "Ġreferred": 5911,
      "ĠCal": 5912,
      "ĠDC": 5913,
      "Es": 5914,
      "Ġhous": 5915,
      "Ġmusic": 5916,
      "Ab": 5917,
      "ĠCre": 5918,
      "Ġamb": 5919,
      "tension": 5920,
      "Ġconcept": 5921,
      "ĠâĪ¼": 5922,
      "Ġrelevance": 5923,
      "ĠSU": 5924,
      "unc": 5925,
      "Ġur": 5926,
      "Ġintegrated": 5927,
      "ĠBA": 5928,
      "Ġmeasuring": 5929,
      "Ġlymph": 5930,
      "Ġintermediate": 5931,
      "oxia": 5932,
      "ĠSo": 5933,
      "Ġoccurring": 5934,
      "Ġinvestigating": 5935,
      "Ġidentity": 5936,
      "Ġreflex": 5937,
      "utional": 5938,
      "ref": 5939,
      "ĠCX": 5940,
      "Ġsurgical": 5941,
      "Ġexplicit": 5942,
      "trial": 5943,
      "Ġrule": 5944,
      "ĠPur": 5945,
      "Ġgrid": 5946,
      "nm": 5947,
      "ĠNational": 5948,
      "ĠConclusion": 5949,
      "ĠTre": 5950,
      "DM": 5951,
      "elihood": 5952,
      "Ġconnect": 5953,
      "jured": 5954,
      "Ġselectively": 5955,
      "ippocampal": 5956,
      "Ġtranscript": 5957,
      "63": 5958,
      "isual": 5959,
      "Ġâī¤": 5960,
      "limb": 5961,
      "Ġinstrum": 5962,
      "Ġtheore": 5963,
      "era": 5964,
      "alities": 5965,
      "Ġperson": 5966,
      "ĠBriefly": 5967,
      "ĠHospital": 5968,
      "Ġartifacts": 5969,
      "Ġopi": 5970,
      "ĠQuantification": 5971,
      "ĠTu": 5972,
      "ĠÎ¼g": 5973,
      "NM": 5974,
      "adic": 5975,
      "raining": 5976,
      "synaptic": 5977,
      "HA": 5978,
      "ocalization": 5979,
      "Ġeffort": 5980,
      "Ġongoing": 5981,
      "Ġinitially": 5982,
      "vey": 5983,
      "terminal": 5984,
      "Ġdiscovery": 5985,
      "acement": 5986,
      "Ġmedia": 5987,
      "Figures": 5988,
      "luding": 5989,
      "Although": 5990,
      "Ġ\"": 5991,
      "Ġtransferred": 5992,
      "Ġinitiation": 5993,
      "Ġsoma": 5994,
      "isms": 5995,
      "Me": 5996,
      "Ġnumerous": 5997,
      "ĠStudies": 5998,
      "Ġassessments": 5999,
      "gans": 6000,
      "Ġillness": 6001,
      "avig": 6002,
      "Ġdeb": 6003,
      "Ġhemorrh": 6004,
      "Ġidentifying": 6005,
      "Ġtinnitus": 6006,
      "ples": 6007,
      "Ġclaim": 6008,
      "Ġblocking": 6009,
      "binding": 6010,
      "Ġswit": 6011,
      "seq": 6012,
      "Ġdeficiency": 6013,
      "Ġrabbit": 6014,
      "Ġlearned": 6015,
      "Sigma": 6016,
      "Im": 6017,
      "58": 6018,
      "isions": 6019,
      "ĠĊĠĠĠĠĊ": 6020,
      "ĠmGlu": 6021,
      "Ġputative": 6022,
      "Ġtrace": 6023,
      "Ġfibr": 6024,
      "entate": 6025,
      "itney": 6026,
      "Ġbrief": 6027,
      "ceptor": 6028,
      "Ġhis": 6029,
      "Ġguidelines": 6030,
      "xy": 6031,
      "Ġrhythm": 6032,
      "Ġhall": 6033,
      "Ġanesthesia": 6034,
      "omotion": 6035,
      "Ġfusion": 6036,
      "relevant": 6037,
      "Ġobes": 6038,
      "Ġcoupled": 6039,
      "Ġpositions": 6040,
      "Ġphon": 6041,
      "Ġzebrafish": 6042,
      "annel": 6043,
      "Ġparticipate": 6044,
      "Ġhighlight": 6045,
      "ĠRS": 6046,
      "Ġdefects": 6047,
      "Ġwithdrawal": 6048,
      "Ġcentrifug": 6049,
      "acting": 6050,
      "Ġintracranial": 6051,
      "Ġinsights": 6052,
      "oints": 6053,
      "Ġmultiv": 6054,
      "Ġpredominantly": 6055,
      "Ġarchitecture": 6056,
      "Ġexplanation": 6057,
      "RN": 6058,
      "ustom": 6059,
      "ocyte": 6060,
      "Res": 6061,
      "ĠSW": 6062,
      "Ġmammalian": 6063,
      "sur": 6064,
      "oustic": 6065,
      "olidation": 6066,
      "Ġembryonic": 6067,
      "Ġsimulated": 6068,
      "Ġranging": 6069,
      "Ġeti": 6070,
      "ĠDRG": 6071,
      "oming": 6072,
      "Ġhind": 6073,
      "Ġrank": 6074,
      "Ġjoint": 6075,
      "mPFC": 6076,
      "ĠTime": 6077,
      "ĠCar": 6078,
      "Ġequivalent": 6079,
      "Ġinvolve": 6080,
      "ĠFour": 6081,
      "Ġpatch": 6082,
      "ĠPSD": 6083,
      "orn": 6084,
      "Ġlisten": 6085,
      "Ġincubation": 6086,
      "Ġdefault": 6087,
      "Ġpurpose": 6088,
      "uli": 6089,
      "ĠWil": 6090,
      "EL": 6091,
      "Ġexpans": 6092,
      "ĠHigh": 6093,
      "ache": 6094,
      "ulatory": 6095,
      "Ġclosed": 6096,
      "FS": 6097,
      "Ġepit": 6098,
      "Ġconsequence": 6099,
      "Ġfronto": 6100,
      "oper": 6101,
      "Ġsubs": 6102,
      "pread": 6103,
      "Ġclasses": 6104,
      "ĠNAc": 6105,
      "Ġvisu": 6106,
      "Ġpronoun": 6107,
      "ai": 6108,
      "derly": 6109,
      "Ġganglion": 6110,
      "Ġcompris": 6111,
      "Ġpathophysiology": 6112,
      "Ġcallos": 6113,
      "Ġ72": 6114,
      "DI": 6115,
      "ighting": 6116,
      "aldehyde": 6117,
      "Ġreceiving": 6118,
      "ĠRecent": 6119,
      "Com": 6120,
      "Ġmediate": 6121,
      "Ġcode": 6122,
      "Ġdependence": 6123,
      "Ġpassive": 6124,
      "Ġdimension": 6125,
      "Ġtransfected": 6126,
      "Ġaden": 6127,
      "Ġheat": 6128,
      "Ġ(<": 6129,
      "ĠCV": 6130,
      "pr": 6131,
      "Ġdirected": 6132,
      "Ġsimulations": 6133,
      "ĠGW": 6134,
      "Ġmemories": 6135,
      "Ġsimilarly": 6136,
      "Ġphenomenon": 6137,
      "Ġfunctionally": 6138,
      "Ġimplications": 6139,
      "methyl": 6140,
      "Ġexperiences": 6141,
      "ĠSNPs": 6142,
      "mortem": 6143,
      "ĠRel": 6144,
      "Ġsole": 6145,
      "nat": 6146,
      "ĠTaken": 6147,
      "Ġthrom": 6148,
      "iltr": 6149,
      "Ġconv": 6150,
      "ulse": 6151,
      "MCI": 6152,
      "Pre": 6153,
      "sk": 6154,
      "med": 6155,
      "Ġratios": 6156,
      "ĠPL": 6157,
      "ophila": 6158,
      "Ġplaques": 6159,
      "otypic": 6160,
      "Ġbirth": 6161,
      "HR": 6162,
      "77": 6163,
      "rotein": 6164,
      "Ġtoler": 6165,
      "Ġge": 6166,
      "osine": 6167,
      "Ġutilized": 6168,
      "ĠSOD": 6169,
      "Ġhard": 6170,
      "Ġupregulation": 6171,
      "ĠEP": 6172,
      "Ġresidual": 6173,
      "ulties": 6174,
      "je": 6175,
      "Ġstandardized": 6176,
      "ĠGaussian": 6177,
      "Ġinstructions": 6178,
      "Ġketamine": 6179,
      "Ġmanagement": 6180,
      "Ġpromotes": 6181,
      "400": 6182,
      "Ġpanels": 6183,
      "Ġ150": 6184,
      "rosophila": 6185,
      "Ġminimal": 6186,
      "Ġinn": 6187,
      "Ġvarying": 6188,
      "alyses": 6189,
      "Ġanesthetized": 6190,
      "Ġantidepressant": 6191,
      "Ġdefine": 6192,
      "Ġclar": 6193,
      "Ġcolle": 6194,
      "Ġrepeat": 6195,
      "Ġpolymorph": 6196,
      "Ġtens": 6197,
      "areness": 6198,
      "making": 6199,
      "Ġneurotransmitter": 6200,
      "amide": 6201,
      "vity": 6202,
      "Ġsense": 6203,
      "ĠBay": 6204,
      "reased": 6205,
      "Ġpulses": 6206,
      "Ġinterference": 6207,
      "llig": 6208,
      "ĠICA": 6209,
      "Ġdiabetes": 6210,
      "Ġkind": 6211,
      "agen": 6212,
      "Ġdentate": 6213,
      "ĠAlex": 6214,
      "ini": 6215,
      "ĠDTI": 6216,
      "Ġones": 6217,
      "umm": 6218,
      "OP": 6219,
      "ano": 6220,
      "Ġslope": 6221,
      "position": 6222,
      "ulsive": 6223,
      "lisher": 6224,
      "Ġimprovements": 6225,
      "Ġsuppress": 6226,
      "ashed": 6227,
      "Ġremoval": 6228,
      "Ġmanipulation": 6229,
      "band": 6230,
      "92": 6231,
      "Ġaggregates": 6232,
      "Ġregeneration": 6233,
      "ĠBo": 6234,
      "Ġlargest": 6235,
      "ĠModel": 6236,
      "tau": 6237,
      "ema": 6238,
      "IM": 6239,
      "riatal": 6240,
      "lur": 6241,
      "Ġassessing": 6242,
      "central": 6243,
      "Ġmim": 6244,
      "Ġdrop": 6245,
      "Ġfundamental": 6246,
      "Ġperfusion": 6247,
      "Ġcarriers": 6248,
      "ĠAV": 6249,
      "Ġbehavioural": 6250,
      "ĠFunctional": 6251,
      "ĠNaCl": 6252,
      "tified": 6253,
      "Whitney": 6254,
      "III": 6255,
      "ĠGP": 6256,
      "Ġhr": 6257,
      "ĠAdditional": 6258,
      "Ġvesicles": 6259,
      "uing": 6260,
      "ĠIs": 6261,
      "ChR": 6262,
      "Ġsmooth": 6263,
      "amples": 6264,
      "trophic": 6265,
      "ĠSur": 6266,
      "ĠPearson": 6267,
      "73": 6268,
      "Ġexploration": 6269,
      "Ġdimin": 6270,
      "Ġfluctuations": 6271,
      "51": 6272,
      "âĢ²-": 6273,
      "ĠMann": 6274,
      "Ġprecision": 6275,
      "Ġdot": 6276,
      "Ġcommunity": 6277,
      "Ġepisodic": 6278,
      "oll": 6279,
      "Ġcomprehensive": 6280,
      "Ġelderly": 6281,
      "Ġavoidance": 6282,
      "ĠRP": 6283,
      "ĠSigma": 6284,
      "tributions": 6285,
      "ato": 6286,
      "ĠNE": 6287,
      "Ġintroduced": 6288,
      "ply": 6289,
      "Ġrecurrent": 6290,
      "ĠChina": 6291,
      "Ġsuccessfully": 6292,
      "radi": 6293,
      "Ġwall": 6294,
      "ÎĶ": 6295,
      "ilt": 6296,
      "Ġubiquit": 6297,
      "Ġbehaviour": 6298,
      "Is": 6299,
      "Ġdimensions": 6300,
      "GL": 6301,
      "pinal": 6302,
      "spring": 6303,
      "Ġvessels": 6304,
      "Ġparadigms": 6305,
      "Ġfrequent": 6306,
      "Ġmembranes": 6307,
      "Ġadvanced": 6308,
      "Ġmachine": 6309,
      "Ġrelap": 6310,
      "Ġdiag": 6311,
      "Ġalgorithms": 6312,
      "Ġknockdown": 6313,
      "terol": 6314,
      "tiveness": 6315,
      "ocl": 6316,
      "Ġmentioned": 6317,
      "ĠROS": 6318,
      "Ġshock": 6319,
      "Ġhybrid": 6320,
      "Ġoverlapping": 6321,
      "Ġdecisions": 6322,
      "Ġcaudate": 6323,
      "Ġmind": 6324,
      ";=": 6325,
      "Ġterminal": 6326,
      "Ġpronounced": 6327,
      "Ġprobably": 6328,
      "gramm": 6329,
      "ĠOr": 6330,
      "Ġexclus": 6331,
      "aster": 6332,
      "nt": 6333,
      "ĠMg": 6334,
      "Ġcircuitry": 6335,
      "otherapy": 6336,
      "tructural": 6337,
      "Ald": 6338,
      "Ġdyn": 6339,
      "Ġtransc": 6340,
      "Ġsubstrate": 6341,
      "Ġinterpreted": 6342,
      "atives": 6343,
      "Ġconstruct": 6344,
      "Ġgranule": 6345,
      "Î¼M": 6346,
      "rane": 6347,
      "RA": 6348,
      "91": 6349,
      "Ġsounds": 6350,
      "Ġmotivation": 6351,
      "ĠTau": 6352,
      "bur": 6353,
      "ĠTE": 6354,
      "MSE": 6355,
      "vitrogen": 6356,
      "ĠMod": 6357,
      "Ġresources": 6358,
      "Ġscalp": 6359,
      "Ġfewer": 6360,
      "Ġtrajectories": 6361,
      "Ġinsight": 6362,
      "Ġqual": 6363,
      "Ġdifficulties": 6364,
      "ĠIS": 6365,
      "Ġwidth": 6366,
      "Ġreflecting": 6367,
      "ĠIQ": 6368,
      "Ġpathogenic": 6369,
      "Ġpseud": 6370,
      "connec": 6371,
      "Ġavailability": 6372,
      "odynamic": 6373,
      "Ġarrows": 6374,
      "Ġemotions": 6375,
      "kines": 6376,
      "Ġfold": 6377,
      "ophys": 6378,
      "Ġneuroscience": 6379,
      "Ġtranscripts": 6380,
      "glia": 6381,
      "pi": 6382,
      "DG": 6383,
      "Ġneuroto": 6384,
      "Ġimmunoreactivity": 6385,
      "roll": 6386,
      "Ġdescri": 6387,
      "Ġsurrounding": 6388,
      "Ġcustom": 6389,
      "Ġepig": 6390,
      "Ġrot": 6391,
      "Ġactivations": 6392,
      "Ġexamining": 6393,
      "Ġcoordination": 6394,
      "ĠDrosophila": 6395,
      "istant": 6396,
      "uneus": 6397,
      "87": 6398,
      "ĠCompared": 6399,
      ";&#": 6400,
      "Ġelimin": 6401,
      "Ġmir": 6402,
      "Ġcardiac": 6403,
      "Ġminutes": 6404,
      "ho": 6405,
      "Ġreproduc": 6406,
      "ptive": 6407,
      "Ġcomposed": 6408,
      "Ġmidbrain": 6409,
      "Ġsafety": 6410,
      "Ġattributed": 6411,
      "ste": 6412,
      "Ġadapt": 6413,
      "ACC": 6414,
      "Ġair": 6415,
      "Ġnerves": 6416,
      "Ġregardless": 6417,
      "ĠMO": 6418,
      "Ġdecoding": 6419,
      "selec": 6420,
      "Ġwake": 6421,
      "rus": 6422,
      "chang": 6423,
      "Ġlikelihood": 6424,
      "Ġquestionnaire": 6425,
      "Ġgaze": 6426,
      "ĠCy": 6427,
      "Ġwar": 6428,
      "utamen": 6429,
      "HI": 6430,
      "Ġwhy": 6431,
      "Ġther": 6432,
      "Ġkept": 6433,
      "Ġaberr": 6434,
      "affected": 6435,
      "002": 6436,
      "Ġagents": 6437,
      "Ġdriving": 6438,
      "lurane": 6439,
      "%;": 6440,
      "Ġsettings": 6441,
      "Ġexpressions": 6442,
      "ulative": 6443,
      "Ġmodalities": 6444,
      "ĠNL": 6445,
      "Ġstarted": 6446,
      "Ġglia": 6447,
      "Ġcover": 6448,
      "Ġtrajectory": 6449,
      "load": 6450,
      "ĠOP": 6451,
      "totic": 6452,
      "Ġeffectively": 6453,
      "Ġnavig": 6454,
      "Ġinfiltr": 6455,
      "Ġembed": 6456,
      "Ġconsists": 6457,
      "ĠDr": 6458,
      "Ġbase": 6459,
      "athetic": 6460,
      "Ġpeptides": 6461,
      "Ġminor": 6462,
      "GD": 6463,
      "Ġsecretion": 6464,
      "Ġseparation": 6465,
      "Aldrich": 6466,
      "Ġtremor": 6467,
      "ift": 6468,
      "actin": 6469,
      "Ġinstructed": 6470,
      "Ġtet": 6471,
      "Ġpicture": 6472,
      "MK": 6473,
      "Ġpregn": 6474,
      "Ġissues": 6475,
      "Ġresponding": 6476,
      "Ġbreak": 6477,
      "cognitive": 6478,
      "Ġ1000": 6479,
      "Ġgi": 6480,
      "Ġnicotine": 6481,
      "Ġbenefits": 6482,
      "Ġwides": 6483,
      "ĠNMDAR": 6484,
      "ĠOb": 6485,
      "yelin": 6486,
      "Ġcounts": 6487,
      "Ġ(âĢľ": 6488,
      "Ġextra": 6489,
      "ĠIFN": 6490,
      "Ġrunning": 6491,
      "52": 6492,
      "fort": 6493,
      "ĠFS": 6494,
      "Ġwidespread": 6495,
      "anned": 6496,
      "Ġshap": 6497,
      "Ġextraction": 6498,
      "ĠGene": 6499,
      "Ġextrem": 6500,
      "ĠTg": 6501,
      "black": 6502,
      "Ġhemispheres": 6503,
      ";=&#": 6504,
      "herry": 6505,
      "Ġlacking": 6506,
      "hoc": 6507,
      "ĠThree": 6508,
      "ĠSTN": 6509,
      "Ġreleased": 6510,
      "Ġspatially": 6511,
      "Ġchoices": 6512,
      "ĠAL": 6513,
      "ĠFigures": 6514,
      "osing": 6515,
      "Ġmonth": 6516,
      "Ġnormally": 6517,
      "ca": 6518,
      "versive": 6519,
      "Ġselectivity": 6520,
      "Ġinvestigations": 6521,
      "weeks": 6522,
      "Ġquad": 6523,
      "ĠTukey": 6524,
      "Ġansw": 6525,
      "Ġcage": 6526,
      "Ġconsisting": 6527,
      "Ġlocomotion": 6528,
      "eur": 6529,
      "ker": 6530,
      "asic": 6531,
      "Ġcorpus": 6532,
      "Ġapplications": 6533,
      "ĠSw": 6534,
      "Ġassemb": 6535,
      "ĠMC": 6536,
      "osterone": 6537,
      "ĠMB": 6538,
      "apan": 6539,
      "Ġoffspring": 6540,
      "Ġpredictors": 6541,
      "Ġcir": 6542,
      "Ġcam": 6543,
      "ĠMulti": 6544,
      "Ġnecessarily": 6545,
      "Ġcomposition": 6546,
      "Ġlist": 6547,
      "onset": 6548,
      "inhib": 6549,
      "Ġdeprivation": 6550,
      "ĠConclusions": 6551,
      "jugated": 6552,
      "Ġassumed": 6553,
      "Ġindeed": 6554,
      "Ġotherwise": 6555,
      "Ġnormalization": 6556,
      "immune": 6557,
      "trom": 6558,
      ".âĢĿ": 6559,
      "anding": 6560,
      "iences": 6561,
      "containing": 6562,
      "target": 6563,
      "Ġgeneralized": 6564,
      "Ġafferent": 6565,
      "#####": 6566,
      "Ġna": 6567,
      "Ġrostr": 6568,
      "Ġneurof": 6569,
      "Ġtraff": 6570,
      "ĠDise": 6571,
      "Ġcontributing": 6572,
      "Ġputamen": 6573,
      "Ġtook": 6574,
      "nce": 6575,
      "Ġisolation": 6576,
      "ĠBar": 6577,
      "lie": 6578,
      "Ġcasc": 6579,
      "Ġsynchronization": 6580,
      "untary": 6581,
      "Ġdemonstrates": 6582,
      "/-": 6583,
      "ĠEAE": 6584,
      "61": 6585,
      "Ġexist": 6586,
      "Ġfetal": 6587,
      "iveness": 6588,
      "condition": 6589,
      "pathetic": 6590,
      "Ġpel": 6591,
      "Ġrepetitive": 6592,
      "ĠSubjects": 6593,
      "Ġkit": 6594,
      "Ġple": 6595,
      "ĠContributions": 6596,
      "Ġgut": 6597,
      "ĠCare": 6598,
      "lik": 6599,
      "stance": 6600,
      "Ġgas": 6601,
      "Ġimmediate": 6602,
      "Ġoscillatory": 6603,
      "Ġclassifier": 6604,
      "Ġabsent": 6605,
      "Ġlimitation": 6606,
      "ĠNT": 6607,
      "Ġages": 6608,
      "Ġdepletion": 6609,
      "Ġtraumatic": 6610,
      "ĠPe": 6611,
      "Ġconclude": 6612,
      "Ġtoo": 6613,
      "rospinal": 6614,
      "Ġtranspl": 6615,
      "Ġneither": 6616,
      "ĠHuman": 6617,
      "Ġcontextual": 6618,
      "Ġyielded": 6619,
      "Ġreversed": 6620,
      "Ġrout": 6621,
      "Ġ29": 6622,
      "Ġmodifications": 6623,
      "Ġmakes": 6624,
      "83": 6625,
      "Ġtransformation": 6626,
      "Ġapplying": 6627,
      "Ġacoustic": 6628,
      "Ġlocus": 6629,
      "Ġcreate": 6630,
      "ĠEuro": 6631,
      "olesterol": 6632,
      "ĠNC": 6633,
      "Ġinactivation": 6634,
      "adren": 6635,
      "Ġreaching": 6636,
      "Ġsubc": 6637,
      "Ġcycles": 6638,
      "Ġheterogeneous": 6639,
      "two": 6640,
      "ĠICH": 6641,
      "ĠTP": 6642,
      "API": 6643,
      "Ġsquare": 6644,
      "Ġunex": 6645,
      "ensitivity": 6646,
      "Ġneonatal": 6647,
      "ĠrTMS": 6648,
      "uity": 6649,
      "Ġfreezing": 6650,
      "Ġempir": 6651,
      "Ġtouch": 6652,
      "ĠMG": 6653,
      "Ġplane": 6654,
      "Ġexpansion": 6655,
      "ochemical": 6656,
      "Ġnamely": 6657,
      "osc": 6658,
      "Ġinfusion": 6659,
      "DS": 6660,
      "Ġkeep": 6661,
      "matic": 6662,
      "Ġweighted": 6663,
      "Ġcompounds": 6664,
      "astic": 6665,
      "agent": 6666,
      "Ġpure": 6667,
      "Ġcaspase": 6668,
      "hinal": 6669,
      "Ġoffer": 6670,
      "ĠMat": 6671,
      "forward": 6672,
      "sample": 6673,
      "aterally": 6674,
      "Ġ33": 6675,
      "No": 6676,
      "Ġnine": 6677,
      "Ġbelong": 6678,
      "Ġclassical": 6679,
      "Ġphag": 6680,
      "ĠMAT": 6681,
      "Ġproximal": 6682,
      "Ã©": 6683,
      "Ġtwice": 6684,
      "ĠAF": 6685,
      "Cherry": 6686,
      "cox": 6687,
      "Ġskull": 6688,
      "One": 6689,
      "Ġreactivity": 6690,
      "ĠTLR": 6691,
      "ĠIR": 6692,
      "Ġchance": 6693,
      "ĠNext": 6694,
      "Ġcorresponds": 6695,
      "Ġtrait": 6696,
      "lecular": 6697,
      "itization": 6698,
      "Ġwhisk": 6699,
      "Ġcannab": 6700,
      "fulness": 6701,
      "ĠExpression": 6702,
      "Ġsuppressed": 6703,
      "kinje": 6704,
      "Ġcolleag": 6705,
      "84": 6706,
      "54": 6707,
      ";-": 6708,
      "HP": 6709,
      "Ġreduc": 6710,
      "Ġcoil": 6711,
      "Ġconstructed": 6712,
      "Ġmodule": 6713,
      "Ġtext": 6714,
      "ackground": 6715,
      "ĠcDNA": 6716,
      "Ġhomogen": 6717,
      "itored": 6718,
      "Ġsuffer": 6719,
      "Ġreporting": 6720,
      "tering": 6721,
      "Ġusers": 6722,
      "Ġgenotypes": 6723,
      "ĠLH": 6724,
      "Ġcongr": 6725,
      "Ġtonic": 6726,
      "ongru": 6727,
      "Ġcriterion": 6728,
      "pend": 6729,
      "Ġsor": 6730,
      "ribed": 6731,
      "omics": 6732,
      "Ġhypoxia": 6733,
      "09": 6734,
      "ĠJapan": 6735,
      "ming": 6736,
      "Ġfoot": 6737,
      "Ġvalence": 6738,
      "Ġawareness": 6739,
      "Ġpall": 6740,
      "Ġhighlighted": 6741,
      "Ġtransporter": 6742,
      "apping": 6743,
      "aid": 6744,
      "Ġsplic": 6745,
      "Ġpermut": 6746,
      "onical": 6747,
      "Ġren": 6748,
      "Ġtactile": 6749,
      "Ġencoded": 6750,
      "tia": 6751,
      "Ġreconstruction": 6752,
      "ĠBP": 6753,
      "Ġfeel": 6754,
      "aly": 6755,
      "idine": 6756,
      "sectional": 6757,
      "Ġneighbor": 6758,
      "haps": 6759,
      "Rec": 6760,
      "ĠAlexa": 6761,
      "Ġecho": 6762,
      "aker": 6763,
      "69": 6764,
      "timately": 6765,
      "Ġsulc": 6766,
      "Ġrecomb": 6767,
      "Ġmissing": 6768,
      "Ġcolleagues": 6769,
      "erge": 6770,
      "Ġcat": 6771,
      "amb": 6772,
      "Ġdeposition": 6773,
      "Ġmother": 6774,
      "Ġmonitored": 6775,
      "Ġsuit": 6776,
      "Ġpreferred": 6777,
      "ĠUS": 6778,
      "Ġchallenges": 6779,
      "Ġrepair": 6780,
      "isation": 6781,
      "Ġexceed": 6782,
      "cting": 6783,
      "Ms": 6784,
      "Ġembryos": 6785,
      "ĠCG": 6786,
      "Ġunderlie": 6787,
      "Ġrecognized": 6788,
      "82": 6789,
      "ĠBehavioral": 6790,
      "Ġhapp": 6791,
      "Ġreasons": 6792,
      "Ġautomated": 6793,
      "Ġprevented": 6794,
      "ĠExperimental": 6795,
      "Ġven": 6796,
      "Ġextension": 6797,
      "At": 6798,
      "Ġacids": 6799,
      "ethyl": 6800,
      "BR": 6801,
      "LAB": 6802,
      "Ġfeeding": 6803,
      "Ġneurobi": 6804,
      "eting": 6805,
      "ĠMa": 6806,
      "Ġsuic": 6807,
      "ĠAssess": 6808,
      "Ġwaves": 6809,
      "vate": 6810,
      "ĠTask": 6811,
      "74": 6812,
      "ĠMc": 6813,
      "Ġgest": 6814,
      "ette": 6815,
      "tition": 6816,
      "Ġglass": 6817,
      "Ġoligodendrocytes": 6818,
      "Ġmonkey": 6819,
      "hemisp": 6820,
      "ening": 6821,
      "rant": 6822,
      "Ġpictures": 6823,
      "ols": 6824,
      "reported": 6825,
      "ĠmiRNA": 6826,
      "coxon": 6827,
      "ME": 6828,
      "Ġtriggered": 6829,
      "inese": 6830,
      "Ġnever": 6831,
      "lasts": 6832,
      "Ġcongru": 6833,
      "ervation": 6834,
      "Ġmultivariate": 6835,
      "Ġadolescence": 6836,
      "Ġeasily": 6837,
      "ĠSR": 6838,
      "lob": 6839,
      "Ġmanual": 6840,
      "Ġemphas": 6841,
      "Ġrostral": 6842,
      "Ġdomin": 6843,
      "79": 6844,
      "Ġvalidity": 6845,
      "Ġice": 6846,
      "Ġmanually": 6847,
      "lysis": 6848,
      "Ġundergo": 6849,
      "Ġpreclinical": 6850,
      "Ġrotation": 6851,
      "Ġtoxicity": 6852,
      "Ġvisualized": 6853,
      "202": 6854,
      "NOS": 6855,
      "Ġconsciousness": 6856,
      "ĠGC": 6857,
      "Ġplan": 6858,
      "Ther": 6859,
      "poses": 6860,
      "ĠmiRNAs": 6861,
      "Ġsynapt": 6862,
      "otide": 6863,
      "Ġbil": 6864,
      "roid": 6865,
      "Ġrecip": 6866,
      "Ã¼": 6867,
      "Ġlarv": 6868,
      "Ġsomatic": 6869,
      "Ġpredictor": 6870,
      "Ġangi": 6871,
      "Ġconductance": 6872,
      "ĠÂµm": 6873,
      "Sh": 6874,
      "Ġtraditional": 6875,
      "ĠSyn": 6876,
      "ĠBayes": 6877,
      "rod": 6878,
      "Ġbund": 6879,
      "Ġautonomic": 6880,
      "Ġextend": 6881,
      "ycin": 6882,
      "Ġ64": 6883,
      "Ġfavor": 6884,
      "Ġneurodevelopmental": 6885,
      "Ġ31": 6886,
      "Ġchemical": 6887,
      "Ġruns": 6888,
      "esides": 6889,
      "71": 6890,
      "cam": 6891,
      "het": 6892,
      "ash": 6893,
      "negative": 6894,
      "Ġtheoretical": 6895,
      "Ġdescription": 6896,
      "formed": 6897,
      "ĠImaging": 6898,
      "ĠEurope": 6899,
      "portun": 6900,
      "chym": 6901,
      "PSS": 6902,
      "ĠREM": 6903,
      "Ġlatencies": 6904,
      "bre": 6905,
      "59": 6906,
      "ĠPurkinje": 6907,
      "ĠGo": 6908,
      "Ġarticles": 6909,
      "tracted": 6910,
      "ica": 6911,
      "ĠkHz": 6912,
      "invasive": 6913,
      "Ġml": 6914,
      "Ġsubtype": 6915,
      "ĠBMI": 6916,
      "Ġgive": 6917,
      "ĠUnder": 6918,
      "light": 6919,
      "Ġenroll": 6920,
      "Ġouter": 6921,
      "Ġswitch": 6922,
      "Ġscenari": 6923,
      "aseline": 6924,
      "Ġslower": 6925,
      "ks": 6926,
      "Ġretention": 6927,
      "Ġliving": 6928,
      "Ġcapable": 6929,
      "Ġmounted": 6930,
      "ĠMMP": 6931,
      "Ġexcessive": 6932,
      "Ġobvious": 6933,
      "ĠPN": 6934,
      "zen": 6935,
      "ĠOl": 6936,
      "bs": 6937,
      "-,": 6938,
      "Ġdefinition": 6939,
      "uffered": 6940,
      "ĠDLPFC": 6941,
      "pop": 6942,
      "Ġinterface": 6943,
      "Ġ120": 6944,
      "Ġcoronal": 6945,
      "ĠMEP": 6946,
      "tency": 6947,
      "Ġmotif": 6948,
      "Ġbacter": 6949,
      "Ġoccup": 6950,
      "Ġvisible": 6951,
      "keletal": 6952,
      "Ġgrowing": 6953,
      "Thermo": 6954,
      "Ġfine": 6955,
      "Ġmaintaining": 6956,
      "Ġconserved": 6957,
      "Ġsi": 6958,
      "Ġbout": 6959,
      "Ġmolecule": 6960,
      "ceptive": 6961,
      "ested": 6962,
      "ibration": 6963,
      "Ġgrey": 6964,
      "ĠLRR": 6965,
      "ĠGR": 6966,
      "Ġswim": 6967,
      "Ġelectron": 6968,
      "Ġenab": 6969,
      "Da": 6970,
      "Ġneurotoxic": 6971,
      "Ġpackage": 6972,
      "men": 6973,
      "FR": 6974,
      "Ġenable": 6975,
      "ĠChinese": 6976,
      "Ġconstrain": 6977,
      "Ġaccurately": 6978,
      "81": 6979,
      "Ġworse": 6980,
      "aste": 6981,
      "Ġdegrees": 6982,
      "Ġthreat": 6983,
      "Ġcallosum": 6984,
      "Ġcatal": 6985,
      "Ġexclusion": 6986,
      "OX": 6987,
      "iral": 6988,
      "Ġvectors": 6989,
      "Ġsuperf": 6990,
      "Ġradial": 6991,
      "Ġquick": 6992,
      "Ġopportun": 6993,
      "rob": 6994,
      "Ġligand": 6995,
      "Ġdisrupted": 6996,
      "ĠError": 6997,
      "ĠTA": 6998,
      "ĠSMA": 6999,
      "Ġconclusions": 7000,
      "Par": 7001,
      "Ġpara": 7002,
      "Ġconceptual": 7003,
      "Ġpooled": 7004,
      "resolution": 7005,
      "Ġforebrain": 7006,
      "Ġisoforms": 7007,
      "yst": 7008,
      "hematic": 7009,
      "Ġunilateral": 7010,
      "Ġimaged": 7011,
      "Ġcalculate": 7012,
      "Ġmicrobi": 7013,
      "ĠBCI": 7014,
      "gent": 7015,
      "Ġunpaired": 7016,
      "Ġlimbic": 7017,
      "Ġmodality": 7018,
      "Ġventric": 7019,
      "Ġsummarized": 7020,
      "Ġillustrated": 7021,
      "aved": 7022,
      "tisol": 7023,
      "Ġasymmetry": 7024,
      "ota": 7025,
      "Ġdecreasing": 7026,
      "irus": 7027,
      "DP": 7028,
      "arp": 7029,
      "Ġtechnology": 7030,
      "Ġrepetition": 7031,
      "expression": 7032,
      "HS": 7033,
      "stain": 7034,
      "ĠRG": 7035,
      "Ġreversal": 7036,
      "arities": 7037,
      "Ġvirtual": 7038,
      "Ġaversive": 7039,
      "Ġcaps": 7040,
      "ĠAI": 7041,
      "Ġinside": 7042,
      "Ġdemographic": 7043,
      "Be": 7044,
      "Ġauthor": 7045,
      "Ġgel": 7046,
      "Ġimmunohistochemistry": 7047,
      "Ġchallenging": 7048,
      "Ġhypotheses": 7049,
      "Ġcircles": 7050,
      "oneur": 7051,
      "Ġmatching": 7052,
      "Ġpoorly": 7053,
      "Ġattack": 7054,
      "ĠCognitive": 7055,
      "ĠProtein": 7056,
      "head": 7057,
      "Ġverte": 7058,
      "Ġhub": 7059,
      "89": 7060,
      "Ġintensities": 7061,
      "Ġsubgroups": 7062,
      "Sc": 7063,
      "tificial": 7064,
      "Ġcardiovascular": 7065,
      "igen": 7066,
      "ministration": 7067,
      "TL": 7068,
      "Ġannot": 7069,
      "ĠMCA": 7070,
      "ught": 7071,
      "ensus": 7072,
      "aracter": 7073,
      "ĠCenter": 7074,
      "rs": 7075,
      "Ġepochs": 7076,
      "Ġmodulating": 7077,
      "Ġdelta": 7078,
      "Ġdiluted": 7079,
      "Ġimplanted": 7080,
      "channel": 7081,
      "care": 7082,
      "umulative": 7083,
      "sensitive": 7084,
      "Ġpotentiation": 7085,
      "entially": 7086,
      "Ġenough": 7087,
      "tech": 7088,
      "ĠML": 7089,
      "Ġconsolidation": 7090,
      "Ġbone": 7091,
      "Ġcaptured": 7092,
      "Ġnotion": 7093,
      "Ġprospective": 7094,
      "Ġ250": 7095,
      "erating": 7096,
      "Ġvessel": 7097,
      "Ġcerebrospinal": 7098,
      "Ġvisually": 7099,
      "Ġfasc": 7100,
      "Ġadhes": 7101,
      "ipped": 7102,
      "Ġportion": 7103,
      "Ġsimply": 7104,
      "ĠIN": 7105,
      "Ġground": 7106,
      "Ġsymmet": 7107,
      "lim": 7108,
      "ĠâĢĲ": 7109,
      "Ġexamples": 7110,
      "ĠDisease": 7111,
      "arse": 7112,
      "Ġoptogenetic": 7113,
      "ĠSubsequ": 7114,
      "ĠES": 7115,
      "comp": 7116,
      "Ġexecution": 7117,
      "GN": 7118,
      "Ġprecursor": 7119,
      "Ġacts": 7120,
      "Ġpresum": 7121,
      "Ġpredicting": 7122,
      "Ġcombinations": 7123,
      "Ġmodules": 7124,
      "including": 7125,
      "Ġmixture": 7126,
      "edial": 7127,
      "Ġcounted": 7128,
      "Ġnone": 7129,
      "ĠCx": 7130,
      "pred": 7131,
      "Ġhence": 7132,
      "hyp": 7133,
      "Ġgenomic": 7134,
      "Ġautomatic": 7135,
      "ĠHIV": 7136,
      "ously": 7137,
      "Ġagent": 7138,
      "Ġpunct": 7139,
      "alling": 7140,
      "Ġintellig": 7141,
      "ensity": 7142,
      "Ġuses": 7143,
      "agit": 7144,
      "Am": 7145,
      "Ġincons": 7146,
      "Ġdots": 7147,
      "Ġland": 7148,
      "Ġaligned": 7149,
      "ĠMNI": 7150,
      "Ġabuse": 7151,
      "Ġmidline": 7152,
      "Ġmot": 7153,
      "Ġelectroph": 7154,
      "Ġcaudal": 7155,
      "Ġdevices": 7156,
      "ĠEp": 7157,
      "erase": 7158,
      "olip": 7159,
      "Ġaway": 7160,
      "Ġwestern": 7161,
      "plete": 7162,
      "ĠResp": 7163,
      "Ġsubreg": 7164,
      "Ġexer": 7165,
      "Ġsubstantially": 7166,
      "ĠMF": 7167,
      "Ġways": 7168,
      "ga": 7169,
      "ĠCBF": 7170,
      "Ġobesity": 7171,
      "Ġremove": 7172,
      "ĠActiv": 7173,
      "Ġcausing": 7174,
      "ĠÎ¼l": 7175,
      "Ġimmunofluorescence": 7176,
      "Ġimproving": 7177,
      "Ġcholesterol": 7178,
      "ĠSm": 7179,
      "Ġminimize": 7180,
      "Ġsn": 7181,
      "ĠTreatment": 7182,
      "erebral": 7183,
      "Ġ(âĪĴ": 7184,
      "Ġshare": 7185,
      "outh": 7186,
      "Tg": 7187,
      "Ġhypothalamic": 7188,
      "stimulus": 7189,
      "Ġfamilies": 7190,
      "Ġ65": 7191,
      "inic": 7192,
      "Ġloop": 7193,
      "Ġresidues": 7194,
      "data": 7195,
      "Ġsupplementary": 7196,
      "LISA": 7197,
      "rio": 7198,
      "Ġparticipation": 7199,
      "Ġgoat": 7200,
      "Ġmetabolites": 7201,
      "non": 7202,
      "Ġreductions": 7203,
      "Ġatax": 7204,
      "dT": 7205,
      "Ġsmoking": 7206,
      "ĠPrim": 7207,
      "ĠGluN": 7208,
      "ayer": 7209,
      "ĠElec": 7210,
      "embrane": 7211,
      "icient": 7212,
      "ĠHCs": 7213,
      "ĠAx": 7214,
      "rowth": 7215,
      "glial": 7216,
      "Ġâ": 7217,
      "Ġbecomes": 7218,
      "Ġaddressed": 7219,
      "Ġmatch": 7220,
      "bumin": 7221,
      "ĠdB": 7222,
      "Ġcovariates": 7223,
      "titative": 7224,
      "Ġactin": 7225,
      "Ġsubstance": 7226,
      "idem": 7227,
      "titive": 7228,
      "Ġ34": 7229,
      "ĠmTOR": 7230,
      "ĠConversely": 7231,
      "Ġhabitu": 7232,
      "Ġkern": 7233,
      "Ġdiscon": 7234,
      "003": 7235,
      "ĠInf": 7236,
      "Ġrhythmic": 7237,
      "Ġdecay": 7238,
      "Ġextract": 7239,
      "Ġprobes": 7240,
      "meas": 7241,
      "Ġlever": 7242,
      "Ġdepolarization": 7243,
      "xb": 7244,
      "Ġfish": 7245,
      "ĠTS": 7246,
      "Ġneurite": 7247,
      "Ġnons": 7248,
      "asome": 7249,
      "rium": 7250,
      "Ġjudg": 7251,
      "Ġstead": 7252,
      "Ġlogistic": 7253,
      "GT": 7254,
      "Ã¶": 7255,
      "Ġindices": 7256,
      "ĠFDR": 7257,
      "Ġhomo": 7258,
      "Ġrib": 7259,
      "rices": 7260,
      "Ġelement": 7261,
      "emory": 7262,
      "Ġglut": 7263,
      "Ġepigenetic": 7264,
      "iceptive": 7265,
      "Ġburs": 7266,
      "Ġrewards": 7267,
      "Ġphosphorylated": 7268,
      "Ġadequ": 7269,
      "Ġaberrant": 7270,
      "Ġoral": 7271,
      "Ġneuropsychiatric": 7272,
      "Ġcompartment": 7273,
      "ounts": 7274,
      "Ġopioid": 7275,
      "ĠBackground": 7276,
      "agittal": 7277,
      "Ġneurophysiological": 7278,
      "::": 7279,
      "opa": 7280,
      "Ġguide": 7281,
      "Ġ'": 7282,
      "task": 7283,
      "NK": 7284,
      "Ġultras": 7285,
      "Ġmicrotub": 7286,
      "Ġdepolar": 7287,
      "Ġdram": 7288,
      "likely": 7289,
      "lets": 7290,
      "ij": 7291,
      "OC": 7292,
      "Ġsaccade": 7293,
      "Ġparticipated": 7294,
      "bon": 7295,
      "Ġlowest": 7296,
      "ĠNew": 7297,
      "Ġaneur": 7298,
      "Ġvocal": 7299,
      "Ġclock": 7300,
      "Ġreinforce": 7301,
      "osts": 7302,
      "asticity": 7303,
      "encies": 7304,
      "ĠMeas": 7305,
      "Ġimmunostaining": 7306,
      "olum": 7307,
      "Î¼g": 7308,
      "ĠLRRK": 7309,
      "elves": 7310,
      "Ġinterpret": 7311,
      "Ġsegreg": 7312,
      "Ġhemodynamic": 7313,
      "ĠGSK": 7314,
      "omas": 7315,
      "network": 7316,
      "itions": 7317,
      "PT": 7318,
      "Ġdischarge": 7319,
      "dark": 7320,
      "unn": 7321,
      "Ġuniform": 7322,
      "Ġpolar": 7323,
      "ĠAQ": 7324,
      "Ġafferents": 7325,
      "Ġregistration": 7326,
      "Ġaneurys": 7327,
      "rdU": 7328,
      "zer": 7329,
      "ĠDI": 7330,
      "ĠOT": 7331,
      "ike": 7332,
      "Ġwindows": 7333,
      "ĠNeurolog": 7334,
      "Ġinjured": 7335,
      "Ġimagery": 7336,
      "Ar": 7337,
      "umber": 7338,
      "ĠWithin": 7339,
      "ĠGraph": 7340,
      "Ġfeas": 7341,
      "Ġchemo": 7342,
      "change": 7343,
      "Ġhypertension": 7344,
      "Ġpromoting": 7345,
      "Ġsolely": 7346,
      "from": 7347,
      "lies": 7348,
      "oE": 7349,
      "Ġsuitable": 7350,
      "ĠUse": 7351,
      "Ġju": 7352,
      "Ġhormone": 7353,
      "Ġbursts": 7354,
      "directed": 7355,
      "erm": 7356,
      "Ġtight": 7357,
      "Ġunaffected": 7358,
      "ng": 7359,
      "Ġcry": 7360,
      "Ds": 7361,
      "Ġaug": 7362,
      "Ġaspect": 7363,
      "ĠBLA": 7364,
      "Ġ42": 7365,
      "Ġimplementation": 7366,
      "sin": 7367,
      "fully": 7368,
      "orator": 7369,
      "riton": 7370,
      "Ġassumption": 7371,
      "Ġproduces": 7372,
      "Ġcoll": 7373,
      "acted": 7374,
      "Ġinhibits": 7375,
      "Ġtumors": 7376,
      "cons": 7377,
      "ĠSte": 7378,
      "Ġindividually": 7379,
      "Ġuser": 7380,
      "Ġexistence": 7381,
      "Ġchanging": 7382,
      "itone": 7383,
      "Ġcontrasts": 7384,
      "Ġspind": 7385,
      "paratus": 7386,
      "ictal": 7387,
      "Ġmatrices": 7388,
      "Ġprogenitor": 7389,
      "Ġarms": 7390,
      "Ġneuropathic": 7391,
      "ls": 7392,
      "Ġpig": 7393,
      "Ġunf": 7394,
      "utri": 7395,
      "ĠIndividual": 7396,
      "Ġsituations": 7397,
      "ĠNr": 7398,
      "Ġinhibiting": 7399,
      "ĠMET": 7400,
      "omers": 7401,
      "Ġsubstrates": 7402,
      "ongruent": 7403,
      "Ġexploratory": 7404,
      "Ġcamera": 7405,
      "Ġsplit": 7406,
      "Ġedge": 7407,
      "Ġaffinity": 7408,
      "ament": 7409,
      "Ġadolescent": 7410,
      "tig": 7411,
      "Ġscored": 7412,
      "Ġclearance": 7413,
      "ĠHI": 7414,
      "Ġphotore": 7415,
      "ĠCL": 7416,
      "Ġdemands": 7417,
      "Ġbecame": 7418,
      "onia": 7419,
      "lock": 7420,
      "Ġcortisol": 7421,
      "eng": 7422,
      "Ġstatement": 7423,
      "Ġpostural": 7424,
      "eth": 7425,
      "Ġmediating": 7426,
      "Ġvesicle": 7427,
      "BC": 7428,
      "Ġec": 7429,
      "ĠSF": 7430,
      "AÎ²": 7431,
      "Ġplanning": 7432,
      "Ġflexibility": 7433,
      "ders": 7434,
      "ĠĊĊĊĊ": 7435,
      "ograms": 7436,
      "Ġartificial": 7437,
      "Ġvalu": 7438,
      "acr": 7439,
      "Ġrhythms": 7440,
      "Cor": 7441,
      "Ġfragment": 7442,
      "Ġelicit": 7443,
      "osa": 7444,
      "Ġemerged": 7445,
      "Ġtable": 7446,
      "amination": 7447,
      "Ġcontacts": 7448,
      "Ġcontexts": 7449,
      "Ġnight": 7450,
      "WI": 7451,
      "Ġspatio": 7452,
      "Ġexon": 7453,
      "bound": 7454,
      "ĠTM": 7455,
      "Ġcomplications": 7456,
      "Ġframes": 7457,
      "Ġuncertainty": 7458,
      "Ġstudying": 7459,
      "After": 7460,
      "ĠDAPI": 7461,
      "otin": 7462,
      "Ġrig": 7463,
      "independent": 7464,
      "Os": 7465,
      "ĠAccordingly": 7466,
      "uz": 7467,
      "Ġaxial": 7468,
      "kt": 7469,
      "ĠOFC": 7470,
      "Ġtom": 7471,
      "Ġnative": 7472,
      "Ġetc": 7473,
      "Ġreporter": 7474,
      "Ġcompensatory": 7475,
      "Ġdocumented": 7476,
      "oratories": 7477,
      "lytic": 7478,
      "class": 7479,
      "born": 7480,
      "Ġisof": 7481,
      "ĠRecently": 7482,
      "elior": 7483,
      "Ġng": 7484,
      "ĠOX": 7485,
      "ĠPub": 7486,
      "Ġediting": 7487,
      "Ġvisualization": 7488,
      "wenty": 7489,
      "Ġconsiderable": 7490,
      "Ġneuromod": 7491,
      "Sch": 7492,
      "Ġdifferentiate": 7493,
      "Ġintern": 7494,
      "Ġ400": 7495,
      "Ġexclusively": 7496,
      "Ġtrafficking": 7497,
      "Ġepithe": 7498,
      "Ġassociative": 7499,
      "ĠFluor": 7500,
      "Ġactivates": 7501,
      "Ġepisodes": 7502,
      "inge": 7503,
      "Ġeffectiveness": 7504,
      "Ġcharacterization": 7505,
      "enced": 7506,
      "Ġequally": 7507,
      "ĠAssessment": 7508,
      "PV": 7509,
      "Ã¯": 7510,
      "DAC": 7511,
      "Ġemerging": 7512,
      "Finally": 7513,
      "points": 7514,
      "Ġqualit": 7515,
      "ipit": 7516,
      "Ġocclusion": 7517,
      "ĠACh": 7518,
      "Ġvas": 7519,
      "Ġfilled": 7520,
      "Ġ%": 7521,
      "ĠDR": 7522,
      "ĠTriton": 7523,
      "Ġdetectable": 7524,
      "ĠIba": 7525,
      "response": 7526,
      "Ġprecuneus": 7527,
      "aro": 7528,
      "unte": 7529,
      "vices": 7530,
      "ĠWilcoxon": 7531,
      "Ġmodeled": 7532,
      "ĠGu": 7533,
      "Ġaddiction": 7534,
      "Ġstrains": 7535,
      "tid": 7536,
      "Ġsituation": 7537,
      "Ġenvironments": 7538,
      "ession": 7539,
      "Fos": 7540,
      "nia": 7541,
      "Ġmarg": 7542,
      "Ġastrocytic": 7543,
      "Ġcomplexes": 7544,
      "Ġlitterm": 7545,
      "ĠPsych": 7546,
      "erve": 7547,
      "Ġpupil": 7548,
      "Ġsat": 7549,
      "APP": 7550,
      "Ġdysregulation": 7551,
      "FT": 7552,
      "herent": 7553,
      "Ġheadache": 7554,
      "Ġfitted": 7555,
      "Ġmodification": 7556,
      "Ġalteration": 7557,
      "Ġdiscrete": 7558,
      "human": 7559,
      "Ġlarvae": 7560,
      "Ġatypical": 7561,
      "threshold": 7562,
      "ventricular": 7563,
      "Ġdorsolateral": 7564,
      "Ġunlikely": 7565,
      "Ġsurprising": 7566,
      "Ġ55": 7567,
      "controlled": 7568,
      "vical": 7569,
      "Ġensemb": 7570,
      "Ġcomprised": 7571,
      "Ġdrinking": 7572,
      "Ġshifts": 7573,
      "Ġdisturbances": 7574,
      "Ġbinary": 7575,
      "ned": 7576,
      "ĠTT": 7577,
      "Neuro": 7578,
      "urally": 7579,
      "Ġamelior": 7580,
      "ĠWMH": 7581,
      "ĠFR": 7582,
      "âĢĿ)": 7583,
      "Ġoption": 7584,
      "Ġenzymes": 7585,
      "Ġiter": 7586,
      "Ġdiver": 7587,
      "Ac": 7588,
      "Ġretic": 7589,
      "Ġneurotrophic": 7590,
      "ĠMor": 7591,
      "Ġnan": 7592,
      "Ã¯ve": 7593,
      "pathy": 7594,
      "squ": 7595,
      "Ġautistic": 7596,
      "Ġroot": 7597,
      "oxide": 7598,
      "ĠDue": 7599,
      "Ġreveals": 7600,
      "Ġreactions": 7601,
      "Ġgenerating": 7602,
      "ector": 7603,
      "high": 7604,
      "Ġoptions": 7605,
      "acerb": 7606,
      "Ġhemorrhage": 7607,
      "ĠDN": 7608,
      "Ġmotoneur": 7609,
      "ĠHEK": 7610,
      "Î¼l": 7611,
      "Ġremark": 7612,
      "Ġabol": 7613,
      "which": 7614,
      "Ġetiology": 7615,
      "Ġphosphate": 7616,
      "cit": 7617,
      "ICA": 7618,
      "Ġawake": 7619,
      "kB": 7620,
      "Ġmedications": 7621,
      "Ġboundary": 7622,
      "Ġinteres": 7623,
      "iminary": 7624,
      "Ġwrote": 7625,
      "ĠSNP": 7626,
      "ANOVA": 7627,
      "ĠFT": 7628,
      "Ġpublication": 7629,
      "Ġten": 7630,
      "ĠSchematic": 7631,
      "ĠTechnologies": 7632,
      "Ġdiffus": 7633,
      "OT": 7634,
      "Ġcorrectly": 7635,
      "Ġentry": 7636,
      "nes": 7637,
      "ĠEM": 7638,
      "kal": 7639,
      "Ġappearance": 7640,
      "Ġconsensus": 7641,
      "Ġconsistency": 7642,
      "Ġnewly": 7643,
      "ĠmGluR": 7644,
      "urine": 7645,
      "rosine": 7646,
      "score": 7647,
      "Ġcytoplasmic": 7648,
      "DH": 7649,
      "Ġsolutions": 7650,
      "Ġloo": 7651,
      "Ġ38": 7652,
      "imilar": 7653,
      "Ġhoused": 7654,
      "Ġstatic": 7655,
      "Ġthems": 7656,
      "CoV": 7657,
      "Ġspin": 7658,
      "Bs": 7659,
      "sided": 7660,
      "ceptors": 7661,
      "ĠEngl": 7662,
      "ĠFM": 7663,
      "Ġvag": 7664,
      "Ġthemselves": 7665,
      "Ġsupernat": 7666,
      "gated": 7667,
      "Ġsulcus": 7668,
      "Ġmyelination": 7669,
      "elled": 7670,
      "Ġincreasingly": 7671,
      "quently": 7672,
      "Ġsymb": 7673,
      "Ġblockade": 7674,
      "ĠAmeric": 7675,
      "Ġdetermining": 7676,
      "Ġtreat": 7677,
      "Ġdifferentiated": 7678,
      "Ġ96": 7679,
      "Ġcontinuously": 7680,
      "Ġsexual": 7681,
      "Ġproducts": 7682,
      "ospinal": 7683,
      "Ġscientific": 7684,
      "Ġnearly": 7685,
      "Ġmultim": 7686,
      "ĠERK": 7687,
      "ĠInstitutional": 7688,
      "bens": 7689,
      "Ġresemb": 7690,
      "Ġbulb": 7691,
      "ĠAUC": 7692,
      "ĠKCl": 7693,
      "De": 7694,
      "ĠAIS": 7695,
      "Ġesc": 7696,
      "ĠGWAS": 7697,
      "Ġexacerb": 7698,
      "ump": 7699,
      "Ġtendency": 7700,
      "Ġabundance": 7701,
      "atomical": 7702,
      "Ġinverse": 7703,
      "times": 7704,
      "ief": 7705,
      "eptide": 7706,
      "Met": 7707,
      "Ġsalience": 7708,
      "TBI": 7709,
      "SY": 7710,
      "unting": 7711,
      "Ġhold": 7712,
      "ĠMV": 7713,
      "pm": 7714,
      "Ġvolunte": 7715,
      "Ġran": 7716,
      "anges": 7717,
      "rozen": 7718,
      "Ġneurotransmission": 7719,
      "Ġcombining": 7720,
      "tructure": 7721,
      "YFP": 7722,
      "Ġvulnerability": 7723,
      "hion": 7724,
      "Ġcircum": 7725,
      "Ġenhances": 7726,
      "Ġlisted": 7727,
      "Ġcanonical": 7728,
      "nc": 7729,
      "clamp": 7730,
      "ylation": 7731,
      "phosphory": 7732,
      "Ġformal": 7733,
      "Ġutility": 7734,
      "Ġempirical": 7735,
      "electro": 7736,
      "teen": 7737,
      "esthe": 7738,
      "Ġschool": 7739,
      "Ġwriting": 7740,
      "Ġreceptive": 7741,
      "ĠnM": 7742,
      "Ġpups": 7743,
      "ĠTC": 7744,
      "ĠIntern": 7745,
      "Ġ(*": 7746,
      "Ġmove": 7747,
      "Ġpreceding": 7748,
      "tonia": 7749,
      "Ġactivating": 7750,
      "Ġsoluble": 7751,
      "Ġapical": 7752,
      "Ġsubmitted": 7753,
      "ifi": 7754,
      "Ġmorphine": 7755,
      "adap": 7756,
      "ky": 7757,
      "Ġantagonists": 7758,
      "Ġemission": 7759,
      "changed": 7760,
      "Ġgave": 7761,
      "Ġoffset": 7762,
      "Ġpropagation": 7763,
      "phen": 7764,
      "Ġyellow": 7765,
      "Pro": 7766,
      "Ġmodulates": 7767,
      "selective": 7768,
      "ediatric": 7769,
      "Ġsynchrony": 7770,
      "Ġinstit": 7771,
      "ĠME": 7772,
      "ĠSignificant": 7773,
      "Ġdistances": 7774,
      "gence": 7775,
      "Ġamounts": 7776,
      "Ġnigra": 7777,
      "organization": 7778,
      "Ġlost": 7779,
      "Ġpil": 7780,
      "Ġtravel": 7781,
      "While": 7782,
      "Ġpairwise": 7783,
      "Ġadapted": 7784,
      "Ġarise": 7785,
      "hemispheric": 7786,
      "ĠRE": 7787,
      "Ġimmo": 7788,
      "Ġconcurrent": 7789,
      "Ġhierarchical": 7790,
      "Ġprognosis": 7791,
      "Ġparents": 7792,
      "yll": 7793,
      "Ġsupplemented": 7794,
      "Ġplaque": 7795,
      "Ġcochlear": 7796,
      "after": 7797,
      "Ġregress": 7798,
      "Ġincom": 7799,
      "deficient": 7800,
      "Ġdetecting": 7801,
      "aut": 7802,
      "ĠNIH": 7803,
      "ĠMATLAB": 7804,
      "PET": 7805,
      "Ġdrawn": 7806,
      "ĠSCN": 7807,
      "appro": 7808,
      "Ġselect": 7809,
      "Ġdiscrepan": 7810,
      "Ġcaregi": 7811,
      "Ġreper": 7812,
      "Sp": 7813,
      "Ġperhaps": 7814,
      "PSP": 7815,
      "Ġrely": 7816,
      "Ġcompartments": 7817,
      "ĠTBS": 7818,
      "yle": 7819,
      "Ġagonists": 7820,
      "stroke": 7821,
      "tened": 7822,
      "Ġmil": 7823,
      "Ġaccumbens": 7824,
      "ptin": 7825,
      "Ġnarrow": 7826,
      "Ġisoflurane": 7827,
      "ĠCan": 7828,
      "Gs": 7829,
      "ĠImages": 7830,
      "ĠKit": 7831,
      "Ġvoluntary": 7832,
      "Ġdepicted": 7833,
      "Ġgradually": 7834,
      "gesia": 7835,
      "Ġcomprom": 7836,
      "mouse": 7837,
      "uscular": 7838,
      "Ġdigital": 7839,
      "Ġdiagram": 7840,
      "Ġmarkedly": 7841,
      "Ġartifact": 7842,
      "Ġallevi": 7843,
      "Ġcontinued": 7844,
      "Ġresponded": 7845,
      "eedback": 7846,
      "ĠGAD": 7847,
      "293": 7848,
      "Ġdiversity": 7849,
      "rep": 7850,
      "bottom": 7851,
      "llec": 7852,
      "Ġsteady": 7853,
      "Ġliver": 7854,
      "ĠComparison": 7855,
      "Ġdeviations": 7856,
      "peritone": 7857,
      "eck": 7858,
      "loride": 7859,
      "Ġviol": 7860,
      "Ġsimpl": 7861,
      "Ġsampled": 7862,
      "Ġcenters": 7863,
      "itting": 7864,
      "ardi": 7865,
      "ĠLeft": 7866,
      "keleton": 7867,
      "parametric": 7868,
      "004": 7869,
      "ĠThird": 7870,
      "Des": 7871,
      "ĠET": 7872,
      "ĠNetwork": 7873,
      "Ġsought": 7874,
      "Ġpitch": 7875,
      "ĠBayesian": 7876,
      "atible": 7877,
      "social": 7878,
      "beta": 7879,
      "ĠELISA": 7880,
      "ĠReview": 7881,
      "Ġdownregulated": 7882,
      "Mo": 7883,
      "Ġplates": 7884,
      "Ġinfected": 7885,
      "ĠPH": 7886,
      "tended": 7887,
      "Ġneocortex": 7888,
      "Ġattempt": 7889,
      "Ġchose": 7890,
      "Ġultimately": 7891,
      "Ġcold": 7892,
      "erences": 7893,
      "formaldehyde": 7894,
      "ĠND": 7895,
      "ĠLong": 7896,
      "ĠHS": 7897,
      "Ġderiv": 7898,
      "otass": 7899,
      "otassium": 7900,
      "Ġhomolog": 7901,
      "protein": 7902,
      "Ġdiminished": 7903,
      "orhinal": 7904,
      "ĠVisual": 7905,
      "ĠHyp": 7906,
      "jection": 7907,
      "Ġlobes": 7908,
      "Ġprem": 7909,
      "Ġinsu": 7910,
      "Ġantipsych": 7911,
      "Ġpipeline": 7912,
      "Ġviewed": 7913,
      "Ġedges": 7914,
      "Ġinference": 7915,
      "emic": 7916,
      "Ġbiochemical": 7917,
      "intens": 7918,
      "encing": 7919,
      "Ġhyperp": 7920,
      "Ġsubstantia": 7921,
      "ynchron": 7922,
      "TBS": 7923,
      "Ġpublisher": 7924,
      "Ġheterozygous": 7925,
      "Ġgenetically": 7926,
      "Ġloci": 7927,
      "worth": 7928,
      "comit": 7929,
      "sensory": 7930,
      "Ġsignalling": 7931,
      "pulse": 7932,
      "Ġpsychosis": 7933,
      "Ġcov": 7934,
      "Ġhistological": 7935,
      "Ġrelate": 7936,
      "ĠpA": 7937,
      "ocular": 7938,
      "Ġsupplement": 7939,
      "Ġtomography": 7940,
      "Ġdecom": 7941,
      "Brain": 7942,
      "ĠWnt": 7943,
      "hetamine": 7944,
      "uclear": 7945,
      "Ġfitting": 7946,
      "ĠRight": 7947,
      "ĠHist": 7948,
      "Ġextensively": 7949,
      "On": 7950,
      "Ġcomputation": 7951,
      "Ġanalysed": 7952,
      "Ġpreserved": 7953,
      "Â°,": 7954,
      "parietal": 7955,
      "Ġreliably": 7956,
      "Ġconverted": 7957,
      "ĠRF": 7958,
      "Ġtechnical": 7959,
      "alk": 7960,
      "rosis": 7961,
      "Ġcheck": 7962,
      "ĠGluA": 7963,
      "Ġpermeability": 7964,
      "ident": 7965,
      "TE": 7966,
      "ĠLike": 7967,
      "idated": 7968,
      "Ġfascic": 7969,
      "UD": 7970,
      "cre": 7971,
      "Ġunable": 7972,
      "Ġengagement": 7973,
      "Ġevaluating": 7974,
      "Ġleuk": 7975,
      "Ġlact": 7976,
      "Ġreplication": 7977,
      "ĠDMS": 7978,
      "ura": 7979,
      "ĠPCA": 7980,
      "UN": 7981,
      "Ġembedded": 7982,
      "ulates": 7983,
      "SO": 7984,
      "Ġkernel": 7985,
      "vents": 7986,
      "llectual": 7987,
      "Ġ(>": 7988,
      "Ġfiltering": 7989,
      "word": 7990,
      "ĠCurrent": 7991,
      "ptions": 7992,
      "Ġadhesion": 7993,
      "MKII": 7994,
      "ĠSDS": 7995,
      "Ġparaformaldehyde": 7996,
      "Ġinterview": 7997,
      "Ġconfiguration": 7998,
      "150": 7999,
      "Ġengaged": 8000,
      "strum": 8001,
      "plex": 8002,
      "otoxicity": 8003,
      "hel": 8004,
      "Ġexpon": 8005,
      "ymptom": 8006,
      "Ġprogramm": 8007,
      "Ġthor": 8008,
      "Ġranges": 8009,
      "Ġaggression": 8010,
      "ĠSARS": 8011,
      "Ġhomeostatic": 8012,
      "Ġautomatically": 8013,
      "ĠVari": 8014,
      "Ġangular": 8015,
      "Ġautoimmune": 8016,
      "Ġassembly": 8017,
      "Ġcomprehension": 8018,
      "âĢĿ,": 8019,
      "IA": 8020,
      "etr": 8021,
      "Ġrelax": 8022,
      "Ġsequential": 8023,
      "ĠConse": 8024,
      "Ġperfused": 8025,
      "quid": 8026,
      "ĠSignal": 8027,
      "Ġindicator": 8028,
      "lyc": 8029,
      "angle": 8030,
      "rank": 8031,
      "Ġpremotor": 8032,
      "orders": 8033,
      "ĠElectro": 8034,
      "avage": 8035,
      "ALS": 8036,
      "etine": 8037,
      "Ġcervical": 8038,
      "ners": 8039,
      "Ġlibr": 8040,
      "Ġsystematically": 8041,
      "Ġinducing": 8042,
      "NIRS": 8043,
      "life": 8044,
      "Ġfront": 8045,
      "Ġstereot": 8046,
      "ĠBut": 8047,
      "Ġimplicit": 8048,
      "Ġmom": 8049,
      "ĠEven": 8050,
      "Ġverified": 8051,
      "Ġexclude": 8052,
      "Ġfacilitation": 8053,
      "Ġ):": 8054,
      "Ġslides": 8055,
      "Ġprogenitors": 8056,
      "Ġpreprocessing": 8057,
      "ĠThat": 8058,
      "Ġuntreated": 8059,
      "Ġinterle": 8060,
      "tor": 8061,
      "apl": 8062,
      "Ġmethodology": 8063,
      "Ġcumulative": 8064,
      "Ġtransm": 8065,
      "Ġscene": 8066,
      "Ġelucidate": 8067,
      "Ġprel": 8068,
      "Ġmammals": 8069,
      "Ġdemyelination": 8070,
      "Ġdistract": 8071,
      "nic": 8072,
      "ĠOut": 8073,
      "Ġprimates": 8074,
      "Ġ44": 8075,
      "Ġsubpop": 8076,
      "ĠMy": 8077,
      "Ġreinforcement": 8078,
      "Ġ(~": 8079,
      "thetic": 8080,
      "but": 8081,
      "adj": 8082,
      "Ġpixels": 8083,
      "Ġlabels": 8084,
      "GR": 8085,
      "Ġmagnification": 8086,
      "ss": 8087,
      "Ġmono": 8088,
      "ĠDo": 8089,
      "Ġcone": 8090,
      "Ġdeline": 8091,
      "hal": 8092,
      "phase": 8093,
      "Ġtube": 8094,
      "ams": 8095,
      "Ġdashed": 8096,
      "ĠHA": 8097,
      "Ġinjur": 8098,
      "Ġsymptomatic": 8099,
      "ĠTotal": 8100,
      "Ġbed": 8101,
      "aran": 8102,
      "icated": 8103,
      "Ġcovers": 8104,
      "oglob": 8105,
      "Ġquickly": 8106,
      "Ġvo": 8107,
      "Ġadmission": 8108,
      "LF": 8109,
      "Ġdendrite": 8110,
      "ulf": 8111,
      "oprotein": 8112,
      "aph": 8113,
      "defined": 8114,
      "Ġtransformed": 8115,
      "vailability": 8116,
      "Ġmimic": 8117,
      "ulsivity": 8118,
      "Ġexert": 8119,
      "Ġpresents": 8120,
      "Ġspectra": 8121,
      "Ġefforts": 8122,
      "Ġsympathetic": 8123,
      "Ġdup": 8124,
      "Ġtaste": 8125,
      "Ġinver": 8126,
      "side": 8127,
      "formance": 8128,
      "Ġconstructs": 8129,
      "Ġheight": 8130,
      "Ġperc": 8131,
      "ĠEuropean": 8132,
      "Ġloading": 8133,
      "orage": 8134,
      "Ġsensors": 8135,
      "ĠEar": 8136,
      "Ġinnate": 8137,
      "umination": 8138,
      "Ġelectroencephal": 8139,
      "Ġbilaterally": 8140,
      "Ġadopted": 8141,
      "earman": 8142,
      "hydr": 8143,
      "Ġplaus": 8144,
      "oclonal": 8145,
      "gthen": 8146,
      "Ġswitching": 8147,
      "ĠFP": 8148,
      "Ġevo": 8149,
      "ocortical": 8150,
      "ira": 8151,
      "obic": 8152,
      "Ġsched": 8153,
      "Ġcalculation": 8154,
      "Ġcoinc": 8155,
      "oz": 8156,
      "ĠMany": 8157,
      "Ġconversion": 8158,
      "Ġsubtle": 8159,
      "Ġdynam": 8160,
      "ĠRD": 8161,
      "ĠTris": 8162,
      "Ġanis": 8163,
      "hang": 8164,
      "Ġnonlinear": 8165,
      "Ġpotent": 8166,
      "ĠSPM": 8167,
      "Ġinitiated": 8168,
      "Ġsentences": 8169,
      "asant": 8170,
      "ĠPan": 8171,
      "Ġantioxid": 8172,
      "ummary": 8173,
      "flow": 8174,
      "Ġapparatus": 8175,
      ")/": 8176,
      "angles": 8177,
      "Invitrogen": 8178,
      "Ġoscillation": 8179,
      "Li": 8180,
      "ĠPE": 8181,
      "Ġintellectual": 8182,
      "WE": 8183,
      "Ġranged": 8184,
      "pens": 8185,
      "ĠBrdU": 8186,
      "Ġimproves": 8187,
      "ĠGr": 8188,
      "EGF": 8189,
      "Ġmaca": 8190,
      "These": 8191,
      "ĠSZ": 8192,
      "ĠDem": 8193,
      "Ġhallmark": 8194,
      "attery": 8195,
      "ude": 8196,
      "Ġpotassium": 8197,
      "Ġtag": 8198,
      "Ġneurobiological": 8199,
      "yrosine": 8200,
      "ĠRR": 8201,
      "ĠOCD": 8202,
      "Ġnavigation": 8203,
      "Ġborder": 8204,
      "ofrontal": 8205,
      "rist": 8206,
      "ĠMill": 8207,
      "ĠInstrum": 8208,
      "Ġkinetics": 8209,
      "ider": 8210,
      "120": 8211,
      "Ġexogenous": 8212,
      "Ġaveraging": 8213,
      "Ġorbit": 8214,
      "Ġrich": 8215,
      "Ġspectro": 8216,
      "ĠConsequently": 8217,
      "idering": 8218,
      "Ġhyperactivity": 8219,
      "ativity": 8220,
      "ada": 8221,
      "Ġincorrect": 8222,
      "Ġbutton": 8223,
      "lect": 8224,
      "Ġpresenting": 8225,
      "Ġbreath": 8226,
      "Ġblotting": 8227,
      "gu": 8228,
      "Ġpermutation": 8229,
      "NE": 8230,
      "Ġpreferentially": 8231,
      "Ġconj": 8232,
      "Ġenhancing": 8233,
      "Ġhomogene": 8234,
      "Ġparcell": 8235,
      "venous": 8236,
      "Ġpriming": 8237,
      "Ġunexpected": 8238,
      "ositive": 8239,
      "Ġmediators": 8240,
      "Ġbranch": 8241,
      "Ġaccept": 8242,
      "otomy": 8243,
      "Ġcomplementary": 8244,
      "SE": 8245,
      "ĠAge": 8246,
      "ĠKv": 8247,
      "ĠSchw": 8248,
      "Previous": 8249,
      "Ġfocusing": 8250,
      "pH": 8251,
      "osin": 8252,
      "Ġinfant": 8253,
      "Ġenter": 8254,
      "cribed": 8255,
      "Ġlinks": 8256,
      "Ġintraperitone": 8257,
      "terisk": 8258,
      "Ġpurch": 8259,
      "Ġdystonia": 8260,
      "arged": 8261,
      "Ġrelapse": 8262,
      "Ġserial": 8263,
      "enz": 8264,
      "ĠSTAT": 8265,
      "erebell": 8266,
      "Ġpregnancy": 8267,
      "ĨĴ": 8268,
      "ara": 8269,
      "omato": 8270,
      "Data": 8271,
      "Ġprotection": 8272,
      "Ġvit": 8273,
      "Ġbranches": 8274,
      "such": 8275,
      "Ġanalyzing": 8276,
      "neuro": 8277,
      "Ġsuperficial": 8278,
      "Ġadding": 8279,
      "Ġrefers": 8280,
      "Ġenl": 8281,
      "ĠNeu": 8282,
      "Ġprinciple": 8283,
      "ĠTop": 8284,
      "Ġenrolled": 8285,
      "Ġpreliminary": 8286,
      "Ġoligodendrocyte": 8287,
      "Ġexception": 8288,
      "Ġarterial": 8289,
      "Ġspecified": 8290,
      "Ġsparse": 8291,
      "only": 8292,
      "Ġdim": 8293,
      "ĠTRPV": 8294,
      "Ġconcomit": 8295,
      "Ġsurvey": 8296,
      "Ġdeterior": 8297,
      "Ġcascade": 8298,
      "Ġdiffuse": 8299,
      "Ġestro": 8300,
      "Ġinjuries": 8301,
      "umbar": 8302,
      "ĠcAMP": 8303,
      "Ġthalam": 8304,
      "Ġlag": 8305,
      "rectional": 8306,
      "CG": 8307,
      "Ġglomer": 8308,
      "Ġdecades": 8309,
      "Ġsatis": 8310,
      "Ġviability": 8311,
      "ĠLP": 8312,
      "Ġrescue": 8313,
      "Ġbinds": 8314,
      "MO": 8315,
      "Ġoffers": 8316,
      "Here": 8317,
      "ĠsiRNA": 8318,
      "Ġphonological": 8319,
      "Ġedema": 8320,
      "choline": 8321,
      "Ġtransduction": 8322,
      "rome": 8323,
      "Ġce": 8324,
      "dh": 8325,
      "onin": 8326,
      "ACE": 8327,
      "Ġpurified": 8328,
      "Ġplex": 8329,
      "ĠPCs": 8330,
      "Ġconfounding": 8331,
      "ĠCp": 8332,
      "ersion": 8333,
      "rabbit": 8334,
      "risk": 8335,
      "Ġelevation": 8336,
      "cr": 8337,
      "Ġpartly": 8338,
      "Ġcircle": 8339,
      "Ġfreely": 8340,
      "Ġunchanged": 8341,
      "Ġchron": 8342,
      "250": 8343,
      "Ġentorhinal": 8344,
      "ipore": 8345,
      "ĠCat": 8346,
      "Ġvulnerable": 8347,
      "Ġpositioned": 8348,
      "Ġmusical": 8349,
      "ĠNeurons": 8350,
      "umatic": 8351,
      "ĠVer": 8352,
      "ĠMMSE": 8353,
      "Ġmapped": 8354,
      "Ġphysiology": 8355,
      "Ġcerebro": 8356,
      "Bl": 8357,
      "Ġintelligence": 8358,
      "Ġreplaced": 8359,
      "growth": 8360,
      "Ġretrograde": 8361,
      "Ġquite": 8362,
      "ource": 8363,
      "mus": 8364,
      "pective": 8365,
      "Ġcarrying": 8366,
      "Ġconditional": 8367,
      "ĠPSP": 8368,
      "ĠPB": 8369,
      "Ġmethodological": 8370,
      "lium": 8371,
      "Ġdissected": 8372,
      "respons": 8373,
      "Ġpi": 8374,
      "ĠĊĠĠĊĠ": 8375,
      "ĠEffects": 8376,
      "ias": 8377,
      "Ph": 8378,
      "depend": 8379,
      "PAR": 8380,
      "stances": 8381,
      "injected": 8382,
      "ĠMar": 8383,
      "tocin": 8384,
      "Ġbuild": 8385,
      "ĠRA": 8386,
      "ERK": 8387,
      "Ġoperation": 8388,
      "cription": 8389,
      "Ġfus": 8390,
      "ione": 8391,
      "Ġdensities": 8392,
      "Ġenables": 8393,
      "Ġabundant": 8394,
      "Ġgraphs": 8395,
      "Ġling": 8396,
      "Ġcompos": 8397,
      "anta": 8398,
      "ĠGD": 8399,
      "ux": 8400,
      "ĠScience": 8401,
      "Ġbins": 8402,
      "otopic": 8403,
      "ĠMSA": 8404,
      "Ġviewing": 8405,
      "Ġgy": 8406,
      "Ġwors": 8407,
      "Ġtranscranial": 8408,
      "linked": 8409,
      "Ġadditionally": 8410,
      "ĠEd": 8411,
      "Ġ39": 8412,
      "Ġlive": 8413,
      "PBS": 8414,
      "Pad": 8415,
      "Ġfed": 8416,
      "opo": 8417,
      "Ġtip": 8418,
      "ethe": 8419,
      "Ġtreating": 8420,
      "oprec": 8421,
      "mentioned": 8422,
      ")]": 8423,
      "ĠFe": 8424,
      "ĠmTBI": 8425,
      "eiss": 8426,
      "wave": 8427,
      "ilept": 8428,
      "Ġdepressed": 8429,
      "Ġvolunteers": 8430,
      "Ġadvances": 8431,
      "Ġlimits": 8432,
      "pted": 8433,
      "Ġintest": 8434,
      "En": 8435,
      "Ġconsideration": 8436,
      "Ġgrade": 8437,
      "Ġproducing": 8438,
      "Ġextr": 8439,
      "Ġnit": 8440,
      "ett": 8441,
      "ĠBV": 8442,
      "trocy": 8443,
      "Ġcovariance": 8444,
      "Ġvaluable": 8445,
      "ford": 8446,
      "ĠType": 8447,
      "circ": 8448,
      "Ġacting": 8449,
      "ĠPF": 8450,
      "posterior": 8451,
      "NMDA": 8452,
      "alled": 8453,
      "ĠEV": 8454,
      "ather": 8455,
      "Ġstorage": 8456,
      "Ġdepos": 8457,
      "Ġinnervation": 8458,
      "Ġthin": 8459,
      "Ġdip": 8460,
      ":</": 8461,
      "Ġround": 8462,
      "Ġdamaged": 8463,
      "ĠGO": 8464,
      "ĠSubsequently": 8465,
      "odeling": 8466,
      "Ġoverexp": 8467,
      "ĠSan": 8468,
      "Ġdurations": 8469,
      "Ġregulator": 8470,
      "Ġpurposes": 8471,
      "Ġdelays": 8472,
      "aline": 8473,
      "ract": 8474,
      "Ġencode": 8475,
      "Ġdownregulation": 8476,
      "Ġdiscussion": 8477,
      "Ġconduction": 8478,
      "Ġapply": 8479,
      "iem": 8480,
      "Ġbelief": 8481,
      "Ġinfarct": 8482,
      "raft": 8483,
      "OA": 8484,
      "Ġget": 8485,
      "Ġgreatly": 8486,
      "Ġsaccades": 8487,
      "Ġfer": 8488,
      "igible": 8489,
      "ĠAQP": 8490,
      "Ġstimulating": 8491,
      "Ġinterneuron": 8492,
      "ocortic": 8493,
      "uistic": 8494,
      "wid": 8495,
      "Ġoutl": 8496,
      "rig": 8497,
      "Ġsentence": 8498,
      "Ġtel": 8499,
      "Ġreconstructed": 8500,
      "Ġpersonality": 8501,
      "ĠĠĊĠĠ": 8502,
      "ĠEl": 8503,
      "col": 8504,
      "Ġspor": 8505,
      "Ġisoform": 8506,
      "Ġcolon": 8507,
      "HL": 8508,
      "ĠNK": 8509,
      "Ġtractography": 8510,
      "Bio": 8511,
      "ĠSPSS": 8512,
      "noise": 8513,
      "Ġpathologies": 8514,
      "Ġsusceptible": 8515,
      "Ġpuncta": 8516,
      "Ġunderp": 8517,
      "Ġcentrifuged": 8518,
      "cler": 8519,
      "TM": 8520,
      "ĠSB": 8521,
      "Ġphenotypic": 8522,
      "Ġ43": 8523,
      "Ġscheme": 8524,
      "Ġpowerful": 8525,
      "rotid": 8526,
      "Ġneutroph": 8527,
      "ĠEqu": 8528,
      "opes": 8529,
      "achment": 8530,
      "Ġdistor": 8531,
      "Ġsigned": 8532,
      "GABA": 8533,
      "lar": 8534,
      "ĠInformation": 8535,
      "Ġclamp": 8536,
      "havior": 8537,
      "Di": 8538,
      "stained": 8539,
      "ĠDIV": 8540,
      "conjugated": 8541,
      "ĠSG": 8542,
      "Ig": 8543,
      "Per": 8544,
      "uncture": 8545,
      "kinson": 8546,
      "Ġataxia": 8547,
      "Ġproinflammatory": 8548,
      "artment": 8549,
      "Ġequation": 8550,
      "Ġprevention": 8551,
      "ĠAA": 8552,
      "ilarities": 8553,
      "Ġprimers": 8554,
      "ĠChild": 8555,
      "Ġscaling": 8556,
      "Ġimbal": 8557,
      "Ġhost": 8558,
      "Ġ46": 8559,
      "Ġpathophysiological": 8560,
      "ĠĠĊĊ": 8561,
      "Ġexists": 8562,
      "Âµm": 8563,
      "Ġconce": 8564,
      "Ġvalidate": 8565,
      "Ġchromatin": 8566,
      "allis": 8567,
      "etheless": 8568,
      "ĠmRNAs": 8569,
      "Ġorganized": 8570,
      "Ġoverview": 8571,
      "ĠEnglish": 8572,
      "Ġtakes": 8573,
      "ĠSoftware": 8574,
      "Ġmultimodal": 8575,
      "Ġhorn": 8576,
      "opy": 8577,
      "Ġglioma": 8578,
      "ĠDAT": 8579,
      "Ġdiscovered": 8580,
      "Ġelectric": 8581,
      "issue": 8582,
      "Ġretrospective": 8583,
      "Ġcritically": 8584,
      "Stud": 8585,
      "strap": 8586,
      "ĠnA": 8587,
      "Ġfinally": 8588,
      "ĠSee": 8589,
      "Ġwaveforms": 8590,
      "Ġtransfection": 8591,
      "ĠSCA": 8592,
      "Ġrequiring": 8593,
      "Ġflo": 8594,
      "Ġboundaries": 8595,
      "coup": 8596,
      "Ġintegrate": 8597,
      "ĠĊĊĊĠ": 8598,
      "Ġguidance": 8599,
      "bital": 8600,
      "Ġrein": 8601,
      "Ġvertebr": 8602,
      "inary": 8603,
      "Ġstrongest": 8604,
      "Ġparent": 8605,
      "Ġmeaningful": 8606,
      "Ġliquid": 8607,
      "Ġimmature": 8608,
      "rophic": 8609,
      "Over": 8610,
      "rown": 8611,
      "Ġfractions": 8612,
      "cepts": 8613,
      "Ġcovered": 8614,
      "iaz": 8615,
      "otropy": 8616,
      "Ġpixel": 8617,
      "otstrap": 8618,
      "ĠClass": 8619,
      "Ġbegan": 8620,
      "Ġrecipro": 8621,
      "bp": 8622,
      "Ġalignment": 8623,
      "ĠHDAC": 8624,
      "ĠPKC": 8625,
      "Ġhistone": 8626,
      "Ġweaker": 8627,
      "Ap": 8628,
      "etry": 8629,
      "Ġpsychopath": 8630,
      "ĠInstead": 8631,
      "Ã¡": 8632,
      "Ġimped": 8633,
      "ĠÎµ": 8634,
      "Ġgame": 8635,
      "Gl": 8636,
      "ĠIGF": 8637,
      "ĠCF": 8638,
      "Ġcongruent": 8639,
      "asion": 8640,
      "ĠNLRP": 8641,
      "Ġimplantation": 8642,
      "ĠSl": 8643,
      "apine": 8644,
      "ION": 8645,
      "artile": 8646,
      "etail": 8647,
      "Ġstudents": 8648,
      "Ġpal": 8649,
      "Ġmanifestations": 8650,
      "ylin": 8651,
      "Ġbeh": 8652,
      "Ġmechanistic": 8653,
      "ĠAltern": 8654,
      "Ġactually": 8655,
      "Ġrecombinant": 8656,
      "Ġlib": 8657,
      "igher": 8658,
      "ĠConnec": 8659,
      "ATP": 8660,
      "ĠLaboratory": 8661,
      "Ġapoptotic": 8662,
      "Ġbelieved": 8663,
      "Ġdf": 8664,
      "Ġchromosome": 8665,
      "Ġfluency": 8666,
      "Ġtones": 8667,
      "Ġleak": 8668,
      "Hb": 8669,
      "ĠGreen": 8670,
      "local": 8671,
      "Ġfigures": 8672,
      "ECT": 8673,
      "Ġtoolbox": 8674,
      "Ġlatent": 8675,
      "iii": 8676,
      "Ġvisit": 8677,
      "ball": 8678,
      "Ġmillion": 8679,
      "tribution": 8680,
      "Ġtyrosine": 8681,
      "ĠCam": 8682,
      "Ġnociceptive": 8683,
      "Ġtransitions": 8684,
      "Ġresponsive": 8685,
      "ĠAverage": 8686,
      "icular": 8687,
      "Ġflip": 8688,
      "abilistic": 8689,
      "Additional": 8690,
      "ĠVS": 8691,
      "ĠTheir": 8692,
      "ĠInhib": 8693,
      "ĠĠâĢīĠ": 8694,
      "Ġhypers": 8695,
      "âī¤": 8696,
      "Ġcolumns": 8697,
      "Ġtolerance": 8698,
      "domain": 8699,
      "MAP": 8700,
      "Ġneurocognitive": 8701,
      "FTD": 8702,
      "porting": 8703,
      "ystems": 8704,
      "Ġperturbation": 8705,
      "blast": 8706,
      "ĠRats": 8707,
      "ĠLim": 8708,
      "PM": 8709,
      "van": 8710,
      "demic": 8711,
      "ends": 8712,
      "kine": 8713,
      "ĠPrP": 8714,
      "white": 8715,
      "icy": 8716,
      "Ġresto": 8717,
      "Sm": 8718,
      "Ġproprio": 8719,
      "Ġserved": 8720,
      "Ġaccounted": 8721,
      "ĠImageJ": 8722,
      "ĠEm": 8723,
      "Ġreturned": 8724,
      "cardi": 8725,
      "Ġparenchym": 8726,
      "Ġhour": 8727,
      "idden": 8728,
      "ĠMN": 8729,
      "ĠNor": 8730,
      "Ġfly": 8731,
      "Ġreviews": 8732,
      "Ġcortico": 8733,
      "Ġformer": 8734,
      "Ġmicrobiota": 8735,
      "Ġcosts": 8736,
      "burg": 8737,
      "Ġencoun": 8738,
      "Ġworth": 8739,
      "VS": 8740,
      "del": 8741,
      "Ġmediates": 8742,
      "eling": 8743,
      "play": 8744,
      "Ġsetup": 8745,
      "Ġadvance": 8746,
      "Ġdiscriminate": 8747,
      "Ġsagittal": 8748,
      "Ġantero": 8749,
      "Ġneuroan": 8750,
      "lip": 8751,
      "Ġprofound": 8752,
      "Ġillustrate": 8753,
      "Ġadvantages": 8754,
      "ropy": 8755,
      "Ġconcerning": 8756,
      "ĠAut": 8757,
      "Ġheld": 8758,
      "Ġtrains": 8759,
      "Ġneighboring": 8760,
      "ĠIncreased": 8761,
      "Ġreadily": 8762,
      "ometer": 8763,
      "ĠDE": 8764,
      "Ġinflux": 8765,
      "Ġtriggers": 8766,
      "exposed": 8767,
      "unk": 8768,
      "graph": 8769,
      "Ġabstract": 8770,
      "Ġtensor": 8771,
      "PDRS": 8772,
      "Ġraised": 8773,
      "Ġinconsistent": 8774,
      "Ls": 8775,
      "Ġhabituation": 8776,
      "Ġantigen": 8777,
      "ĠEffect": 8778,
      "Ġsemi": 8779,
      "Ġindicative": 8780,
      "Ġpaw": 8781,
      "ĠChanges": 8782,
      "Ġmedull": 8783,
      "esting": 8784,
      "regma": 8785,
      "long": 8786,
      "Ġprenatal": 8787,
      "Ġduplic": 8788,
      "inus": 8789,
      "Ġpurchased": 8790,
      "ember": 8791,
      "aling": 8792,
      "Ġbelieve": 8793,
      "Ġpallid": 8794,
      "Ġsyll": 8795,
      "ĠTra": 8796,
      "ading": 8797,
      "olab": 8798,
      "Ġsporadic": 8799,
      "ĠCRF": 8800,
      "Ġmanipulations": 8801,
      "Ġlumbar": 8802,
      "Ġemergence": 8803,
      "ĠLV": 8804,
      "ĠDiagn": 8805,
      "Ġentered": 8806,
      "Ġbiases": 8807,
      "vol": 8808,
      "Ġpredicts": 8809,
      "Ġcarotid": 8810,
      "Ġpediatric": 8811,
      "Ġrecommended": 8812,
      "ĠMK": 8813,
      "Ġattached": 8814,
      "Ġorbitofrontal": 8815,
      "Ġnutri": 8816,
      "Ġmirror": 8817,
      "ĠÏĩ": 8818,
      "Ġmoved": 8819,
      "Ġmonoclonal": 8820,
      "Ġtranslational": 8821,
      "ĠOFF": 8822,
      "Ġdisplacement": 8823,
      "Ġinfarction": 8824,
      "Ġimpacts": 8825,
      "opathies": 8826,
      "olgi": 8827,
      "adi": 8828,
      "Ġexploring": 8829,
      "upuncture": 8830,
      "ĠSystems": 8831,
      "Ġplastic": 8832,
      "omnia": 8833,
      "rate": 8834,
      "Ġsubregions": 8835,
      "review": 8836,
      "relations": 8837,
      "Ġcirculating": 8838,
      "miss": 8839,
      "ĠDOI": 8840,
      "ylated": 8841,
      "ĠCCL": 8842,
      "Ġunrelated": 8843,
      "pended": 8844,
      "standard": 8845,
      "cepted": 8846,
      "Ġlasting": 8847,
      "hr": 8848,
      "Ġfrozen": 8849,
      "Ġresil": 8850,
      "Ġopening": 8851,
      "Ġextremely": 8852,
      "AGE": 8853,
      "ĠAG": 8854,
      "Ġacet": 8855,
      "ĠROC": 8856,
      "ĠERPs": 8857,
      "Ġsolid": 8858,
      "ĠRating": 8859,
      "ĠQuantitative": 8860,
      "GFR": 8861,
      "Ġambig": 8862,
      "ĠCohen": 8863,
      "ĠSAH": 8864,
      "la": 8865,
      "Ġfamilial": 8866,
      "Ġadjustment": 8867,
      "ĠLTD": 8868,
      ".).": 8869,
      "usting": 8870,
      "With": 8871,
      "Ġoptimized": 8872,
      "undred": 8873,
      "Ġhighlights": 8874,
      "ĠDifferences": 8875,
      "Man": 8876,
      "ĠYet": 8877,
      "Ġamplified": 8878,
      "ĠÎ´": 8879,
      "aped": 8880,
      "atase": 8881,
      "Ġlineage": 8882,
      "Ġmonocytes": 8883,
      "Ġnovelty": 8884,
      "Ġinherent": 8885,
      "ĠRGCs": 8886,
      "Ġdifferently": 8887,
      "Ġgating": 8888,
      "ister": 8889,
      "Ġremodeling": 8890,
      "ĠPG": 8891,
      "Ġprograms": 8892,
      "Ġforced": 8893,
      "Ġinfiltration": 8894,
      "Ġneuropathy": 8895,
      "Ġrated": 8896,
      "Ġplacement": 8897,
      "Tr": 8898,
      "ĠGE": 8899,
      "ivariate": 8900,
      "Ġpreventing": 8901,
      "ĠMultiple": 8902,
      "Ġhybridization": 8903,
      "Ġresol": 8904,
      "Ġeasy": 8905,
      "Further": 8906,
      "ĠOB": 8907,
      "HM": 8908,
      "injury": 8909,
      "Ġcutoff": 8910,
      "Ġinsufficient": 8911,
      "ĠNAD": 8912,
      "what": 8913,
      "ographical": 8914,
      "Ġbio": 8915,
      "ĠVM": 8916,
      "Ġresponsiveness": 8917,
      "lasting": 8918,
      "ĠLaboratories": 8919,
      "ĠSingle": 8920,
      "iding": 8921,
      "Ġescape": 8922,
      "Ġmurine": 8923,
      "yste": 8924,
      "pecific": 8925,
      "ĠEF": 8926,
      "icine": 8927,
      "Ġped": 8928,
      "Ġrules": 8929,
      "Ġhypo": 8930,
      "When": 8931,
      "Ġcomprising": 8932,
      "pc": 8933,
      "Ġorgans": 8934,
      "Ġdescrip": 8935,
      "oblot": 8936,
      "Ġreplicated": 8937,
      "ackson": 8938,
      "Ġsafe": 8939,
      "Ġcountries": 8940,
      "Ġserotonergic": 8941,
      "olm": 8942,
      "ascul": 8943,
      "stage": 8944,
      "ĠAny": 8945,
      "post": 8946,
      "Ġincongruent": 8947,
      "Ġvan": 8948,
      "va": 8949,
      "SMA": 8950,
      "ospatial": 8951,
      "retin": 8952,
      "actor": 8953,
      "AAV": 8954,
      "Ġaffili": 8955,
      "Ġlen": 8956,
      "Ġregistered": 8957,
      "compass": 8958,
      "Ġadenosine": 8959,
      "dTomato": 8960,
      "photon": 8961,
      "rays": 8962,
      "ĠIll": 8963,
      "ĠNeuN": 8964,
      "iro": 8965,
      "Ġdisplays": 8966,
      "CNS": 8967,
      "Ġsignature": 8968,
      "ruskal": 8969,
      "administration": 8970,
      "Ġablation": 8971,
      "ĠInternational": 8972,
      "Ġsed": 8973,
      "ĠHP": 8974,
      "Ġadequate": 8975,
      "ĠArc": 8976,
      "otyping": 8977,
      "Ġrecovered": 8978,
      "Ġverify": 8979,
      "ifiers": 8980,
      "width": 8981,
      "training": 8982,
      "ĠAMP": 8983,
      "bil": 8984,
      "ĠWhere": 8985,
      "ĠBF": 8986,
      "ĠMETH": 8987,
      "iatic": 8988,
      "heads": 8989,
      "Ġwaveform": 8990,
      "Ġreorganization": 8991,
      "significant": 8992,
      "orf": 8993,
      "individual": 8994,
      "osity": 8995,
      "tility": 8996,
      "Ġsulf": 8997,
      "ĠLew": 8998,
      "ocrine": 8999,
      "Ġlobule": 9000,
      "oxetine": 9001,
      "Ġlandmark": 9002,
      "trained": 9003,
      "vin": 9004,
      "Ġpreparations": 9005,
      "Ġnet": 9006,
      "ĠFX": 9007,
      "roscop": 9008,
      "Ġfashion": 9009,
      "ĠSM": 9010,
      "ĠTher": 9011,
      "Ġspecialized": 9012,
      "TS": 9013,
      "Ġconflic": 9014,
      "Ġdescending": 9015,
      "ĠIFG": 9016,
      "Ġ85": 9017,
      "Ġweakness": 9018,
      "Ġplausible": 9019,
      "length": 9020,
      "Ġprobabilities": 9021,
      "Ġspan": 9022,
      "alpha": 9023,
      "Ġupstream": 9024,
      "Ġcentered": 9025,
      "Ġdyslex": 9026,
      "Ġapproval": 9027,
      "Ġsegmented": 9028,
      "Ġexpanded": 9029,
      "gluc": 9030,
      "CaMP": 9031,
      "ĠQu": 9032,
      "Ġcognitively": 9033,
      "ĠRem": 9034,
      "ĠGBM": 9035,
      "Ġincomplete": 9036,
      "Ġprevalent": 9037,
      "Ġ41": 9038,
      "PH": 9039,
      "utaneous": 9040,
      "ĠMaterial": 9041,
      "Ġstimulate": 9042,
      "patient": 9043,
      "ĠÏĦ": 9044,
      "Ġplasmid": 9045,
      "Ġubiquitin": 9046,
      "Ġpostoperative": 9047,
      "ĠLA": 9048,
      "Ġaims": 9049,
      "Ġfragments": 9050,
      "ĠBesides": 9051,
      "ey": 9052,
      "Ġpars": 9053,
      "Wallis": 9054,
      "Ts": 9055,
      "Ġreads": 9056,
      "Ġacceleration": 9057,
      "ĠnaÃ¯ve": 9058,
      "Ġdye": 9059,
      "xiety": 9060,
      "ĠNormal": 9061,
      "ĠĊĠĠĊĊĊ": 9062,
      "Ġrecover": 9063,
      "ORT": 9064,
      "ĠSections": 9065,
      "ĠSNA": 9066,
      "Ġseconds": 9067,
      "ĠDepression": 9068,
      "ĠFree": 9069,
      "Gal": 9070,
      "unit": 9071,
      "Ġcoordinate": 9072,
      "Ġattenuation": 9073,
      "rey": 9074,
      "ĠISI": 9075,
      "Ġoxytocin": 9076,
      "ĠItal": 9077,
      "auc": 9078,
      "Ġencompass": 9079,
      "âī¥": 9080,
      "PK": 9081,
      "Ġpossess": 9082,
      "rical": 9083,
      "Ġindicators": 9084,
      "apit": 9085,
      "Ġcorticospinal": 9086,
      "ĠUp": 9087,
      "BDNF": 9088,
      "ori": 9089,
      "Ġlysates": 9090,
      "Ġassume": 9091,
      "Ġsuffering": 9092,
      "ĠAvailability": 9093,
      "Ġconfirming": 9094,
      "Ġtracing": 9095,
      "Ġinspec": 9096,
      "Ġovercome": 9097,
      "che": 9098,
      "Ġmoment": 9099,
      "Ġcommunic": 9100,
      "ĠDevelop": 9101,
      "Ġbuilt": 9102,
      "Ġsten": 9103,
      "ĠMPTP": 9104,
      "Ġseeking": 9105,
      "Ġsilencing": 9106,
      "Ġventricular": 9107,
      "ĠBoard": 9108,
      "Ġspatiotemporal": 9109,
      "ĠHEP": 9110,
[...]
