#version: 0.2
Ġ t
i n
Ġ a
r e
o n
h e
t i
Ġ s
t e
Ġt he
a l
Ġ o
Ġ c
e n
Ġ in
o r
Ġ p
Ġ w
Ġa n
e s
e r
Ġo f
ti on
e d
Ġ m
r o
Ġ d
i s
Ġ f
a n
Ġan d
i t
in g
Ġ b
i c
Ġ (
a s
a r
Ġ re
a t
Ġ e
Ġ Ġ
l e
Ġt o
Ġ n
a te
en t
a tion
e l
u s
e c
u l
Ġt h
u r
i m
a c
l y
o m
e re
i g
Ġ h
v e
Ġ T
te r
Ġ l
it h
â Ģ
re s
u n
Ġc on
e t
Ġw ith
o l
o s
i d
c e
Ġ Ċ
Ġ )
Ġ g
i f
Ġs t
a m
o w
o t
Ġ A
Ġf or
ti c
Ġa s
t s
Ġa l
Ġ v
Ġe x
i l
r a
ate d
Ġth at
te d
Ġp ro
o c
o d
Ġ S
Ġ C
it y
Ġ is
i on
u c
r i
u t
Ġw ere
Ġn e
Ġw as
Ġ on
Ġb e
Ġa c
u d
Ġd e
Ġ I
Ġ P
s e
a ti
v er
u m
a g
Ġ) .
ĠT he
Ġ M
y s
m ent
u p
Ġre s
he r
i r
o g
a b
Ġb y
Ġc om
el l
Ġ 1
# #
Ġ F
re d
ti v
t r
q u
Ġa re
es s
ro m
Ġ r
o p
f f
an t
Ġa t
Ġo r
a in
Ġex p
Ġ im
âĢ ī
ic al
Ġd is
Ġ us
ĠĊ ĠĠ
res s
on s
ig n
i p
Ġ D
Ġcom p
i z
a y
Ġs h
or m
u b
Ġc h
in e
a d
Ġp er
Ġw h
o re
ig h
te n
Ġf rom
u re
Ġ le
Ġs e
Ġin c
d i
Ġs p
ti ve
Â ł
) .
Ġ H
et w
Ġc or
un d
Ġ R
Ġ N
if ic
v el
Ġst ud
Ġ B
t ro
a p
if f
ent s
Ġw e
. ,
ra in
i es
ere n
c tion
Ġ E
or y
0 0
Ġs ign
Ġ 2
Ġe t
o us
Ġ ;
ĠI n
Ġd iff
p or
ation s
as e
u g
v i
Ġne ur
Ġm e
s t
t h
c h
Ġp ar
ff ec
d uc
Ġc ell
Ġa d
p l
Ġ G
Ġ ,
i b
Ġ 0
Ġ W
y p
es t
t her
f orm
en ce
r an
) ,
ti m
Ġm od
d ing
Ġn ot
Ġdiff eren
Ġp re
p h
e en
Ġc o
etw een
Ġsh ow
Ġth is
g e
Ġb etween
u al
ic h
Ġ en
v ed
an ce
Ġac tiv
Ġs ub
Ġre g
Ġ =
Ġas s
Ġm ic
er s
Ġ L
Ġg en
Ġres p
tion s
Ġp os
as ed
v id
or s
ac h
un ction
j ec
y n
le c
Ġe ffec
Ġan al
Ġwh ich
Ġg ro
Ġin ter
p t
Ġp ati
t ing
Ġc l
al ly
Ġb rain
d e
ol og
oc i
Ġre c
a ve
ĠĊ Ċ
Ġ he
ag e
re n
igh t
Ġ 3
Ġsign ific
k e
Ġ O
en s
Ġa p
an d
Ġo b
ress ion
i a
ac t
u ro
Ġw he
Ġ [
p le
at a
Ġs c
ul ar
Ġa b
u e
al s
Ġsignific ant
Ġgro up
l ow
ar i
âĢ ĵ
Ġh ave
Ġinc re
Ġ it
p ro
tro l
Ġstud y
ati ve
Ġf unction
s o
Ġpati ents
on g
Ġp o
ul ation
e m
Ġp l
at h
Ġus ing
Ġcon s
Ġcell s
Ġres ul
Ġre l
Ġt im
ran s
en d
an g
Ġal so
ab le
Ġanal ys
ĠT h
ar y
ri b
Ġne uro
Ġcon trol
Ġd i
r al
en c
Ġ un
ate s
c ess
Ġn o
Ġc an
Ġd ur
Ġt rans
Ġmod el
t o
tic al
f ter
Ġthe se
Ġs tim
Ġp res
te m
Ġd ata
or d
Ġneur ons
al l
ul d
ot h
n i
Ġf o
Ġ 5
re l
il ity
at ing
Ġus ed
or k
Ġ ]
di tion
ar d
Ġle vel
el y
Ġ ro
l ud
i al
Ġp h
u res
ug h
w o
Ġe ach
Ġmic e
Ġper form
Ġa m
i ed
ion s
Ġm ay
ti f
t ain
## #
Ġpar tic
Ġ 4
Ġstud ies
ro s
om e
v en
Ġd ec
Ġ) ,
il l
am e
Ġbe en
Ġtim e
Ġm o
Ġin f
Ġin v
t al
Ġdur ing
i le
Ġh as
ec h
duc ed
Ġa fter
Ġm et
h a
Ġass oci
c t
s er
v al
Ġt wo
r on
Ġ V
Ġb ut
Ġst r
m in
Ġv ari
iz ed
an ts
Ġre p
a red
Ġactiv ity
Ġexp er
Ġsp ec
Ġanalys is
Ġal l
Ġb oth
c es
uc h
ti al
Ġm ore
Ġ und
as k
Ġo ther
Ġt re
os e
Ġ k
Ġ .
a k
i te
Ġin d
Ġac c
Ġpro te
ha vi
Ġ Î
Ġth an
e ver
on d
i ve
Ġs yn
e p
ĠW e
Ġ U
m s
e ar
por t
as t
ac k
Ġinc lud
re e
Ġresul ts
olog ical
h ib
ĠTh is
Ġund er
as s
l u
os t
m o
Ġpro cess
Ġob ser
Ġdifferen t
Ġthe ir
T he
Ġb l
Ġme as
Ġexp ression
te x
ar g
Ġo ver
og ni
t rib
ol low
b er
Ġv al
Ġs up
ug g
N A
g en
Ġbe havi
o ut
Ġs im
Ġs ugg
Ġa r
Ġh igh
ce pt
âĢ Ļ
Ġme m
Ġd es
Ġo ur
âĢ Ĳ
Ġp ath
p er
Ġf in
Ġt est
Ġind ic
Ġpartic ip
ter n
a us
Ġde p
Ġfo und
vel op
trib u
Ġt ask
ys tem
Ġf ollow
p ec
Ġn um
Ġstim ul
ow ever
on al
id e
Ġeffec t
Ġa g
o x
Ġ qu
is t
e w
Ġeffec ts
Ġ] .
i ti
ed i
f t
Ġprote in
tiv ity
ul t
as es
i tion
ac e
at ment
ar k
on se
Ġo ut
Ġ K
u es
an n
ab ility
Ġon e
y m
at ory
n ec
Ġcomp ared
is s
c l
Ġl ow
ot or
ros s
Ġexper im
Ġl oc
l l
he d
Ġs uch
Ġan ti
vi ous
Ġ âĢ
Ġh yp
t in
Ġs ystem
Ġ y
etw ork
Ġf ir
Ġde velop
Ġim p
he s
Ġlevel s
a ys
on e
l ic
Ġ 6
Ġde f
id en
Ġch ang
ur ther
0 1
f ore
al e
m un
Ġv is
Ġde m
qu enc
Ġcor rel
Ġdis e
te s
iz ation
Ġc ogni
Ġ iden
Ġresp onse
di vid
Ġ <
Ġthe re
Ġs ec
Ġassoci ated
Ġincre ased
a il
am p
Ġg l
Ġt ri
yp e
Ġpo ten
r ic
divid ual
Ġsub jec
Ġtre atment
Ġn etwork
Ġin to
Ġ ra
Ġ1 0
Ġcon nec
d er
Ġp r
an s
Ġim ag
uc t
Ġgen er
Ġf act
Ġap pro
n e
Ġn on
ate r
Ġobser ved
Ġs ens
Ġon ly
ur ren
ment s
a re
am m
Ġbehavi or
Ġr at
Ġs o
Ġco uld
orm al
Ġin hib
Â ±
Ġex am
Ġchang es
h od
he n
Ġshow ed
Ġnum ber
it s
Ġm an
ow n
oc k
Ġt r
Ġwhe n
ech an
Ġf e
Ġshow n
is e
Ġin dividual
in ical
Ġpre vious
il ar
Ġre por
R I
Ġrep res
s y
Ġcor tex
ol d
Ġsignificant ly
y l
Ġp red
Ġwith in
Ġin te
Ġa ge
Ġo p
Ġm echan
de p
i or
Ġm at
Ġm ul
p oc
in ed
c y
Ġmic ro
ĠH owever
end ent
Ġcomp le
Ġw ell
c ent
n ing
Ġiden tif
ding s
o uld
a ir
Ġs am
âĢ Ŀ
Ġperform ed
ten t
Ġpos t
Ġcogni tive
Ġparticip ants
Ġgen e
an ge
Ġin s
Ġan im
i red
Ġc ol
Ġ up
Ġreg ions
in al
ac tion
l es
o b
iz e
ul ated
p ar
Ġh ig
il d
i tive
Ġdifferen ces
ter s
Ġcon f
c c
Ġs ur
Ġpro vid
Ġl i
c ed
Ġsyn ap
es ti
ate ral
Ġactiv ation
Ġsign al
Ġm in
olog y
Ġresp ons
0 5
o ugh
Ġfunction al
i x
ĠâĢ ľ
er g
Ġdec re
Ġh ad
Ġfir st
Ġ 7
Ġit s
en ted
o od
ons tr
duc tion
Ġre f
ro ugh
Ġdise ase
w ard
ip poc
Ġf re
ippoc amp
Ġt em
ere d
re g
F ig
Ġin form
Ġvis ual
o res
Ġ -
ĠF or
p os
Ġass ess
o un
v o
Ġpres ent
Ġh um
Ġb i
Ġme an
tiv ely
ver s
Ġre cept
Ġwhe re
ĠThe se
Ġm a
he m
Ġmechan is
ic i
Ġm on
ib le
Ġcomp ar
ĠA D
a tic
1 0
Ġgroup s
Ġinv ol
Ġe lec
arg et
Ġcl inical
at ure
Ġa ut
Ġb as
re ct
og en
Ġp at
urren t
Ġsugg est
Ġm otor
g l
Ġad dition
Ġm ain
Ġmem ory
Ġpred ic
â Ī
Ġth rough
dep endent
Ġmul ti
Ġac ross
Ġhig her
ere b
Ġv ol
Ġh ippocamp
esti g
ĠA n
us ion
v ing
Ġe m
Ġth ree
ent al
ati s
Ġrepor ted
Ġstr uct
Ġc al
Ġm ost
ĠS t
l i
Ġmet hod
ag n
Ġsim ilar
uc le
Ġinv estig
in es
ac ter
tain ed
Ġs ame
ar ch
iti es
I n
u red
os is
o ver
Ġro le
Ġt arget
Ġ 9
Ġ es
ĠĊĠĠ Ċ
tr ac
Ġde te
it ud
Ġspec ific
Ġk n
Ġfor m
al th
Ġexp l
Ġneur al
pl ic
Ġdem onstr
Ġpat tern
r y
Ġdes c
u tion
Ġl ong
Ġle ft
Ġe ar
Ġdis c
Ġstim ulation
Ġ 8
Ġd id
Ġa ffec
Ġinclud ing
Ġthe y
Ġrespons es
ra p
Ġs er
Ġr ight
i ted
Ġo cc
C s
ur al
el s
Ġs ym
s c
Ġincre ase
Ġcon tr
ra ph
Ġim port
Ġdevelop ment
Ġch ar
Ġex c
Ġle ar
Ġrepres ent
Ġd o
Ġpoten tial
ical ly
Ġneur onal
Ġwh ile
m on
Ġde ter
Ġinform ation
P S
Ġpr im
Ġpro b
Ġdis ord
C A
l amm
Ġc y
aus e
Ġcon dition
pt om
Ġcor tical
E G
Ġre m
op h
Ġc ereb
quenc y
Î ²
Ġim mun
âĪ Ĵ
Ġs et
p tion
Ġpos s
sy ch
e x
Ġresp ec
S D
or t
ten s
ear s
Ġa x
Ġfin dings
is k
Ġe vid
Ġus e
Ġperform ance
Ġthe n
in d
ĠF ig
Ġn ormal
in ation
Ġfollow ing
Ġre se
ĠA l
in s
Ġen d
i el
g r
Ġt rain
Ġcal c
Ġ i
Ġm edi
Ġe p
Ġsubjec ts
Ġc urrent
Ġf urther
n ess
k ed
Ġchar acter
Ġo l
w ay
ous e
di tions
Ġwh o
ress ed
ĠA s
ĠT o
Ġl ine
Ġmodel s
Ġcons is
Ã Ĺ
or ding
ing le
Ġ Â±
Ġhum an
por al
Ġcon ditions
Ġt es
Ġm us
Ġb ased
iel d
Ġl im
Ġat ten
c ted
ir c
u te
Ġv er
R NA
Ġth ose
Ġv i
od y
Ġre le
it ory
v es
ti t
Ġwhe ther
Ġs ome
ron tal
ve ment
Ġg re
Ġdesc rib
o ur
x im
rel ated
Ġrat s
2 0
Ġre ve
Ġcl ass
Ġse ver
Ġtri als
k ing
A P
Ġap p
ar ge
yp es
Ġim pro
Ġcons id
Ġre duced
F C
Ġreg ion
vi ew
te red
val u
Ġval ues
l ed
ĠC on
am ic
Ġm ut
Ġa ver
Ġs ingle
s et
ul ts
Ġhe alth
Ġelec tro
Ġre qu
Ġsym ptom
Ġprocess ing
Ġs m
ent ral
Ġconnec tivity
' s
s pec
Ġlear ning
i ved
Ġpo in
Ġanim als
ys i
M S
Ġimport ant
an e
ent ly
Ġan y
h ip
c ri
Ġevid ence
ic e
ĠP D
Ġw ork
ĠThe re
c le
Ġcontrol s
Ġcon tribu
Ġp op
y r
00 1
& #
ff ici
Ġn ucle
Ġreve al
Ġd el
Ġb ec
Ġto tal
is tic
f ul
Ġper i
Ġm ed
Ġc irc
Ġstimul i
ter ior
th ough
Ġsm all
Ġfre quency
Ġe v
Ġsugg es
Ġe valu
Ġ2 0
1 2
Ġw ould
Ġd r
Ġv s
Ġgen es
Ġam pl
Ġdis tribu
oci al
A B
tion al
Ġt ra
Ġvol um
Ġmulti ple
ate ly
Ġrese arch
Ġc ri
e f
Ġdifferen ce
ol ution
t a
ate g
Ġrel ated
it her
Ġt er
Ġlow er
Ġst ress
Â °
Ġse lec
vel y
Ġd ue
Ġr ate
Ġle ad
Ġanal y
Ġanalys es
Ġsec ond
Ġst atis
Ġm ouse
Ġstimul us
Ġsynap tic
Ġmicro gl
os s
Ġr isk
Ġmeas ure
Ġne g
Ġp e
ĠÎ ¼
Ġrel ations
f er
Ġt iss
Ġrem ain
Ġsp ati
e k
5 0
re ction
Ġ J
Ġear ly
p ut
ĠS c
h an
Ġbehavior al
c om
Ġcomple x
F P
el ine
o id
Ġtem poral
res p
le ep
z ed
and ard
c on
l ine
Ġmechanis ms
Ġm ark
C I
er ation
Ġidentif ied
Ġc ar
jec t
ul ate
O V
is h
i ven
i et
P A
Ġbe fore
ic ation
Ġcompar is
00 0
S A
ation al
Ġfact ors
Ġrespec tively
Ġ j
Ġrelations hip
ag es
Ġare as
Ġn er
g th
Ġare a
Ġperi od
Ġimag ing
Ġd ys
Ġs te
u ce
E M
Ġrecept or
Ġsam pl
B S
C S
Ġdescrib ed
Ġw ill
Ġbl ock
Ġthe rap
ĠI t
Ġinclud ed
Ġes tim
Ġm ight
st an
Ġpl as
al es
res h
itud e
ĠE x
Ġcomp on
Ġcl us
Ġin jec
Ġloc al
ĠR es
Ġcom b
ĠC h
am ine
Ġch ild
er r
ro und
Ġtrain ing
Ġstr ong
Ġpar ame
Ġ1 2
ad e
ĠĠ Ġ
Ġs ize
Ġwith out
in duced
ĠC A
Ġexperim ents
Ġab s
us t
m a
Ġp ain
erg ic
Ġhe m
oc h
Ġcon duc
res t
m edi
Ġdi agn
Ġch ann
j ur
Ġprevious ly
Ġpres ented
Ġc ap
Ġch ange
Ġdi rect
Ġ âĢĵ
Ġcorrel ation
Ġcontr ast
Ġimag es
og raph
ĠF urther
m an
Ġg ra
Ġst ate
ac y
Ġinf lu
Ġs leep
or ph
o und
is tr
Ġc aus
Ġsam ple
ĠI m
os ph
Ġl ab
if ied
at ures
el f
t re
R P
Ġst andard
Ġinvol ved
Ġp sych
Ġpos itive
Ġd om
Ġe ither
b ased
Ġhyp ot
Ġocc ur
Ġexp os
as c
Ġs ocial
Ġqu an
g an
Ġph ase
ĠA ll
M RI
Ġ z
ĠN e
Ġreveal ed
ec t
i um
Ġl oss
Ġf lu
in f
A T
g er
Ġrep e
Ġsymptom s
Ġanti b
ple ment
m it
Ġne w
Ġmeas ured
at al
Ġf ac
Ġ if
Ġp hen
Ġdecre ased
ti es
Ġindividual s
Ġob tained
Ġimp air
Ġas tro
1 1
Ġinter action
Ġh ow
tain ing
resh old
Ġposs ible
a ired
Ġ3 0
a u
Ġal low
Ġmem b
Ġexc it
Ġb ar
ti ally
i an
Ġpartic ular
Ġm ap
ow er
jur y
cent r
Ġl arg
Ġspati al
Ġf r
Ġst ro
Ġpro g
Ġsever al
N S
it al
is hed
Ġb et
D A
Ġre view
i ly
u it
Ġhypot hes
Ġl arge
N F
ul l
Ġcom mon
Ġval ue
Ġaver age
ec ted
i e
Ġprocess es
Ġdisord ers
yn amic
Ġl ess
Ġne ed
ir on
Ġdis t
eren ce
Ġcon centr
ĠĊĊ Ċ
Ġf em
Ġacc ur
ysi ological
Ġ âĪĴ
t ra
C C
Ġf ib
Ġt ype
Ġre ce
Ġli k
Ġmeas ures
Ġfact or
Ġhippocamp us
Ġs ite
ĠC S
Ġe mo
Ġdemonstr ated
Ġsp e
Ġprim ary
i ence
Ġpati ent
Ġsc ores
lamm atory
o v
v ail
se qu
o f
Ġconsis tent
Ġstro ke
Ġl es
v ant
Ġhealth y
Ġf ield
Ġprotein s
C R
Ġab out
Ġpre f
ri al
Ġv ers
Ġfe atures
Ġbas eline
Ġtiss ue
Ġmo lec
ke y
Ġexp ressed
Ġfo ur
ĠC a
Ġf oc
us s
Ġc le
Ġsh ould
Ġs ess
Ġac qu
Ġsignal ing
W e
Ġdeter min
Ġdes ign
Ġastro cy
le x
Ġrec ord
Ġm s
l ing
Ġcor resp
ific ation
Ġneg ative
Ġy ears
Ġdr ug
o ve
## ##
ĠA N
Ġd ays
Ġre d
ly ing
Ġappro ach
Ġvolum e
ti l
l as
ane ous
Ġindic ate
Ġon set
is ion
enc y
Ġpar t
ati vely
Ġin jury
p re
Ġin dependent
ĠM ore
A D
Ġsens ory
and om
Ġor der
j or
Ġv ia
d ed
te ro
Ġl ay
ar t
Ġanaly zed
ĠTh us
h y
Ġrel ative
Ġgener al
ĠI L
Ġse par
at or
ic k
u le
is m
Ġpop ulation
Ġd ay
yn ap
Ġexperim ental
Ġprovid e
c er
pl ied
n er
R S
Ġbl ood
v ere
AB A
Ġb in
ab ol
Ġsampl es
Ġth reshold
C T
Ġh and
ĠE EG
ĠC om
2 5
Ġhippocamp al
ell ular
Ġexam ple
ĠÎ ±
se e
Ġe le
Ġr ange
Ġmicrogl ia
Ġp ower
Ġpattern s
Ġbec ause
ri or
Ġrecept ors
ot her
Ġref lec
Ġl ate
ro w
Ġ err
m ore
1 5
Ġma jor
Ġinhib ition
ĠA P
am in
Ġ ÃĹ
Ġsp i
c o
Ġinte gr
m e
Ġmemb ran
Ġneur on
y g
w ays
al ity
Ġa ud
Ġtri al
M P
a v
ul ations
1 3
Ġsc ore
OV A
it or
Ġ *
Ġr andom
Ġf l
ut am
Ġgene tic
ĠR e
Ġmat ter
Ġresul t
Ġkn own
Ġab ove
Ġnetwork s
ĠA d
t oc
Ġ Z
Ġc ult
Ġam ong
li ke
Ġsign als
ĠFig ure
ol ar
Ġparame ters
Ġl ight
Ġlik ely
Ġ Q
ĠO ur
1 4
Ġatten tion
ir m
as ing
Ġconduc ted
spec ific
y el
Ġm id
Ġdistribu tion
T P
od ing
al ys
Ġe l
Ġgre ater
r im
oc y
Ġa vail
i re
ter m
Ġ1 5
Ġpres ence
Ġtrans cri
il ateral
Ġin tens
Ġ2 4
Ġst ri
Ġchild ren
Ġe qu
Ġdis pl
l og
o red
Ġhyp er
in ce
I I
ile p
ynap tic
ĠM RI
Ġb el
Ġhe ad
Ġl in
v iron
Ġampl itude
Ġanim al
s es
Ġ1 00
Ġsup er
Ġc entral
ot ype
Ġc ases
Fig ure
Ġ5 0
Ġconsid ered
Ġt ech
re en
1 9
Ġcon tex
Ġin duced
Ġre ward
ĠG ABA
Ġaut h
Ġen c
Ġh ist
Ġwe ek
A S
Ġman y
iss ion
Ġdef ic
Ġpro per
u ts
i v
c or
Ġcalc ulated
Ġo x
Ġg iven
Ġassoci ation
ĠR O
qu e
a ren
Ġad min
Ġph osph
ro up
Ġd ynamic
Ġfunction s
Ġtask s
Ġmethod s
ab ly
Ġd at
end ri
Ġco un
Ġal ter
he re
Ġ Y
ro ph
Ġconf irm
Ġra ti
c ence
Ġpath way
Ġb ody
Ġe ven
ĠM S
on ding
Ġf rontal
ron ic
in c
Ġfollow ed
et her
Ġrecord ed
Ġp rior
Ġsuggest ing
Ġindic ated
Ġex hib
n ormal
pos ed
Ġde g
Ġd op
Ġt ypes
f ace
oun t
ag ing
d es
Ġdom ain
is p
ĠN o
Ġd ens
3 0
ac tions
Ġth us
Ġinte rest
Ġap plied
Ġmet abol
Ġd et
Ġpe ak
Ġtes ted
t he
es is
Î ±
Ġm it
ffici ent
ti s
Ġl o
ab les
ix ed
ĠP ro
Ġs elf
Ġwhere as
Ġor gan
u ff
a x
ĠA Î²
Ġcereb ell
p ing
f unction
Ġdur ation
th s
Ġc ross
Ġexperim ent
Ġse x
ĠD ata
Ġf am
Ġad ult
w e
Ġpro ced
ĠFurther more
i tivity
Ġex trac
Ġd own
Ġassess ed
istr ation
T o
Ġdep ression
c ome
p ression
Ġc ase
if e
Ġtim es
ress ing
er c
Ġen viron
ut ure
v ation
Ġmo vement
Ġshow s
od ies
Ġidentif y
Ġse iz
n al
Ġper s
Ġmechanis m
w are
Ġf il
ĠC D
Ġfoc us
Ġse g
Ġdef ined
Ġtes ts
Ġto p
Ġpro f
ual ly
ic s
L S
Ġag ain
Ġneuro p
re cted
Ġst ain
ak ing
Ġd endri
1 8
il it
Ġs um
Ġd ors
Ġin put
Ġmembran e
Ġ ed
tic ally
Ġse qu
Ġh owever
Ġaud itory
Ġre duction
Ġno vel
ĠThere fore
Ġpre c
ay ed
Ġcharacter istic
Ġm orph
ar m
Ġacc ording
ĠH z
Ġwh ite
Ġrec ent
t ype
ĠO n
Ġac tion
Ġep ilep
b ack
1 7
Ġle ast
Ġs uc
Ġpoin t
Ġneuro de
Ġcontex t
Ġexam ined
r is
er ative
plement ary
ĠMore over
ĠW h
S T
Ġexpos ure
Ġcorrel ated
tic ity
Ġe y
Ġim age
Ġdecre ase
Ġbe ing
Ġshow ing
Ġm m
l ished
och ond
Ġre mo
ĠAN OVA
1 6
tic s
o in
ec tion
Ġavail able
Ġad ap
Ġd am
ress ive
le ction
Ġdis tin
Ġauth ors
Ġab ility
Ġ ill
Ġl ateral
Î ¼
Ġfe ed
Ġch ronic
B I
Ġn ec
Ġste p
Ġclus ter
ur ing
ĠA fter
Ġg yr
at om
Ġan x
Ġsup port
asc ular
tr uc
Ġdi rection
on ic
4 0
< /
Ġen han
en gth
te st
ver se
% )
oc al
Ġcereb ral
Ġ] ,
in ally
Ġad j
Ġinvestig ated
ĠS N
iet y
ag ed
Ġdete cted
O R
E T
Ġcle ar
Ġp ub
alys is
Ġwho le
l ation
Ġqu es
Ġpo ly
Ġper ce
Ġcon tin
Ġgyr us
Ġs lic
ro p
Ġsp inal
Ġcomparis on
toc ol
Ġstruct ure
tic ip
b l
ib ility
Ġstatis tical
Ġpath ways
m ine
1 00
over y
ĠR NA
Ġrele ase
Ġac id
e u
Ġdisord er
Ġd ri
Ġquan tif
est ab
Ġ &
Ġs l
t ation
Ġma xim
od e
c op
tr ans
Ġp air
Ġrequ ired
ol es
Ġincre ases
N s
C l
Ġad ults
Ġimpair ment
Ġpro mo
Ġfir ing
Ġsugges ts
ĠS D
z e
Ġdetermin ed
ĠW T
Ġreg ul
Ġre ad
Ġunder lying
Ġe ff
it ro
Ġprovid ed
r am
Ġner ve
Ġs om
P FC
if ically
Ġdet ail
Ġ +
Ġstr ateg
i er
ĠU ni
Ġab normal
Ġgl utam
Ġenviron ment
Ġrati o
Ġse e
âĢ Ķ
s p
Ġdeter mine
T A
Ġor ig
ĠM et
Ġaccur acy
Ġsubjec t
f act
Ġmit ochond
Ġgro w
Ġs ti
Ġintens ity
cl usion
Ġac tive
Ġabs ence
Ġb ack
ĠA SD
Ġm RNA
lamm ation
Ġsup por
i o
C D
Ġac ute
Ġpro tocol
Ġtre ated
Ġcri ter
Ġdens ity
Ġbet ter
Ġp an
Ġlab el
âĢ ¯
Ġs al
ĠRes ults
Ġneuro log
Ġthere fore
Ġv ox
Ġpro jec
m ission
Ġpos ition
ĠAl though
Ġastrocy tes
Ġlarg er
Ġ >
Ġf MRI
Ġw ord
ve ments
Ġstruct ural
c hem
ac ed
Ġ X
Ġval id
ac tiv
ĠD is
m et
Ġchann els
ĠA t
Ġs us
ver y
Ġexpl ain
Ġvi vo
ft ware
ip her
Ġb en
s ub
ĠN M
Ġnucle us
Ġan terior
b rain
Ġb and
ul es
Ġhigh ly
C h
Ġdefic its
l ess
Ġproper ties
it ing
Ġim plic
Ġ2 5
Ġin de
Ġso ur
ĠC I
Ġinjec tion
Ġof f
Ġc ur
Ġver y
Ġdo es
h yl
ĠĠ Ċ
Ġpl ay
Ġmus cle
Ġmic ros
Ġaddition al
iz ing
t y
Ġout come
Ġinflu ence
Ġm ale
Ġm ade
Ġanx iety
2 2
Ġt au
Ġg u
r up
Ġcol lec
Ġsec tions
t on
ot s
vo ked
Ġsub sequ
Ġco h
Ġev ents
Ġag g
Ġvi ew
Ġincre asing
Ġre tin
ĠH ere
Ġ key
Ġcorresp onding
Ġaffec ted
os p
up plementary
Ġcompon ents
u ted
Ġsh ort
Ġbin ding
Ġin tr
Ġch o
Ġinhib itory
en ter
as et
Ġvari ous
Ġdys function
Ġline ar
Ġinc ub
ĠIn te
s tr
Ġimp act
Ġs ch
Ġl ack
stan ding
ac ts
Ġhem isp
at ric
im ens
Ġpl ace
w ise
Ġdifferen ti
res ting
Ġad d
Ġthe m
sc ill
l ap
Ġin trac
Ġpoin ts
Ġinter ven
d al
Ġap plic
Ġdistin ct
ak en
8 0
Ġhypothes is
Ġg o
Ġ1 4
Ġd er
v ent
Ġmolec ular
2 00
R T
Ġbrain s
or ies
ĠS T
en e
i ous
Ġsens itivity
Ġsugges ted
Ġaffec t
Ġtest ing
Ġs low
Ġpredic t
com es
) ;
Ġp ur
yg dal
al am
Ġplas ticity
en ti
Ġsur face
vers ity
Ġerr or
E P
Ġw id
Ġinter actions
ur n
Ġ estab
or dings
Ġo scill
Ġlay er
ang u
Ġhe l
ores cence
ĠÎ ²
Ġob jec
Ġsti ll
ly s
Ġper ipher
Ġindic ating
Ġpos terior
Ġgener ated
i tial
ne ur
Ġh om
Ġreg ulation
Ġm i
m m
Ġt yp
G F
ac tive
Ġal ong
Ġdat aset
ce p
ĠP ar
Ġc ateg
Ġs k
Ġf uture
Ġneurode gen
os ed
Ġdiff ic
tr ic
on t
Ġvari ables
u ous
M A
Ġst ren
Ġdise ases
Ġacc um
Ġcompon ent
Ġth ough
ĠD A
Ġl ength
Ġl ob
Ġinvestig ate
tre ated
Ġresul ting
g o
in ant
om et
Ġcri tical
Ġout comes
Ġsum m
ph a
ĠC l
Ġdam age
Ġrepe ated
Ġ1 6
Ġv ir
Ġsequ ence
Ġto ward
Ġal though
Ġof ten
a ke
m ic
E S
Ġsystem s
Ġmin im
is ed
Ġdors al
en tial
Ġagain st
Ġam ygdal
Ġform ation
Ġdirect ly
ĠS im
c hed
ĠâĢ ĺ
Ġreg ression
Ġpro l
Ġy oun
ĠM D
Ġcor d
Ġar tic
Ġto ol
k g
d le
u ed
Ġl ife
Ġse vere
om en
at us
Ġcon taining
Ġso ftware
Ġa im
Ġrec ordings
Ġin itial
g roup
Ġhe tero
Ġs w
Ġdiagn osis
Ġra p
Ġcor tic
Ġemo tional
im er
Ġre t
Ġantib ody
Ġselec ted
S P
Ġf ew
R s
Ġconsid er
Ġse en
Ġop en
n ot
ĠRO I
4 3
angu age
ĠNe uro
p an
Ġcell ular
Ġfem ale
Ġexp ected
Ġnec ess
Ġover all
Ġmon ths
o y
Ġdete ction
Ġph ys
Ġconcentr ation
Ġcharacteristic s
Ġactiv ated
Ġlate n
Ġcy t
ic t
Ġcomparis ons
Ġsess ion
Ġpref rontal
Ġb ur
Ġdep end
i ally
Ġop tim
Ġem b
Ġtech ni
ĠSc ale
od es
Ġpro p
Ġse quenc
i enc
at ors
ep ti
duc es
Ġparticip ant
T h
Ġunder standing
Ġcriter ia
Ġgl ob
Ġpro posed
Ġper cent
Ġan g
Ġsynap ses
Ġcontribu te
ĠB D
b y
Ġles ion
t ag
Ġcar ri
an ces
c ell
Ġs ide
Ġm agn
Ġamygdal a
Ġtherap eu
igh ted
Ġey e
Ġexc lud
â ī
Ġsp ace
re am
2 4
Ġno ise
Ġrec ording
Ġinter pre
qu es
r u
Ġl ines
ph al
Ġrel i
op ath
l er
ch ron
is ition
H z
Ġweek s
Ġcomple te
Ġin iti
N I
Ġf ive
Ġre al
Ġa ff
Ġevalu ated
Ġloc ation
ograph y
Ġrat her
Ġindic ates
lic t
Ġto g
Ġlim it
u tive
Ġrele vant
cl us
Ġtog ether
r id
Ġ9 5
ir d
Ġsite s
if y
Ġinf lammatory
9 5
L D
Ġben ef
Ġepilep sy
a w
Ġneurolog ical
Ġhe re
Ġconnec tions
ann er
H T
Ġstruct ures
Ġm yel
igh ts
Ġmo tion
oph ren
cl es
iz ophren
p uts
Ġpar ad
ind ow
Ġsignific ance
at um
ĠU SA
Ġadmin istration
Ġs u
ĠH e
Ġis ol
Ġs olution
Ġsc ale
Ġcon st
Ġchann el
uff er
is ts
Ġsuc cess
f or
g round
L A
Ġ1 8
Ġbehavi ors
hod s
Ġprob le
l d
ub le
6 0
Ġcollec ted
% ,
Ġperipher al
Ġc re
H D
ĠD NA
Ġques tion
ĠT able
Ġtranscri ption
Ġkn ow
ac c
Ġsur vi
Ġl anguage
p ed
ĠÎ¼ m
ĠĊ Ġ
i ent
P D
Ġ4 0
Ġr ates
Ġlim ited
Ġ* *
Ġantib odies
om ic
Ġinde x
Ġis chem
Ġr un
ag ne
M T
ĠWh ile
os om
Ġimp aired
2 1
i atric
ogen esis
S C
Ġst age
ĠAd dition
Ġcon c
g es
Ġac h
Ġunder st
Ġdop amine
ĠP re
Ġdete ct
re ad
b o
ic le
Ġpoten ti
g or
medi ated
Ġcom mun
ĠSt ud
Ġcorrel ations
Ġfeed back
Ġan atom
vo id
Ġw ater
ĠCS F
Ġstren gth
Ġtherap y
ri x
ĠR ec
Ġc are
izophren ia
uss ion
2 7
Ġl ater
n a
Ġrec overy
Ġach ie
ĠN a
Ġph ysiological
ĠO ne
gen e
Ġmo vements
iz es
0 3
Ġal tered
Ġvari ability
Ġf it
Ġdemonstr ate
t osis
m ented
Ġ u
Ġde ath
I P
Ġter min
Ġcor rect
m b
Ġdisc rim
Ġconfirm ed
Ġvers us
c tive
ins on
gor ith
Ġm ig
Ġ1 9
Ġmod ulation
Ġdist ance
ec utive
et y
Ġqu ality
tr um
h ol
r ing
Ġac t
Ġcharacter ized
Ġ1 3
Ġexcit atory
Ġfac ilit
Ġan other
s ing
Ġinclud e
M N
Ġparad ig
ĠS p
it u
d rom
Ġalter ations
A s
Ġbi om
Ġtherapeu tic
Ġm M
Ġstain ing
Ġsc reen
to k
Ġco ur
Ġdis rup
ĠM e
v ated
per im
Ġphosph ory
Ġc a
Ġtem per
Ġimmun e
p ite
Ġassess ment
ip s
2 3
alam us
Ġs ince
Ġo d
o k
Ġover lap
Ġp ul
2 6
Ġdis s
Ġol der
Ġtr ig
Â µ
Ġrece ived
ĠW M
ticip ants
ac tivity
ur b
Ġab le
ir st
Ġhum ans
b al
Ġv entral
P s
ĠF inally
ac hes
Ġenhan ced
Ġacqu isition
Ġal gorith
Ġcaus ed
Ġdevelop ed
Ġeffec tive
Ġs ol
inf lammatory
Ġsub stan
Ġfe ature
Ġf ear
ab il
ion al
id ence
Ġglutam ate
ĠS C
Ġwe ight
I D
ari ly
a f
A G
Ġles ions
reg ulation
ogni tion
Ġin tra
Ġspi ke
Ġw ild
Ġm ac
2 9
Ġrel atively
T R
Ġre port
Ġra di
Ġdynamic s
ra w
all en
Ġst ates
Ġremain s
Ġsh if
Ġres ting
Ġw indow
Ġb ilateral
pos itive
Ġcoh ort
is tent
Ġappro ved
ĠIn s
k n
Ġgrow th
Ġc ause
Ġ6 0
duc ing
Ġelec tr
ĠC O
Ġres t
Ġmicros cop
r ich
Ġrap id
Ġsch izophrenia
ĠC NS
Ġ2 01
Ġproced ure
b it
o h
Ġf ail
Ġmitochond rial
Ġli ter
Ġbel ow
Ġexper ience
oci ated
Ġpath ology
reg ulated
ĠR T
Ġ :
E R
Ġm g
ont aneous
Ġde vi
ri als
b or
Ġax ons
led ge
te in
Ġmed ial
ot ypes
yl oid
ac ti
agne tic
Ġco ord
Ġpro duction
Ġparticular ly
ta ke
Ġc all
Ġmark ers
Ġ ent
s up
Ġsever ity
Ġspe ed
Ġcomb ined
ĠA c
ul ating
d en
oin t
Ġc er
ĠC B
r it
ar ding
Ġm en
Ġob ject
4 5
Ġclass ification
Ġf ree
Ġslic es
Ġpro por
Ġrelationship s
Ġpar iet
Ġcirc uit
Ġp ress
Ġco up
ĠMet hods
Ġ1 1
us tr
at ter
Ġglob al
ĠS P
Ġro b
Ġcon t
Ġo ri
enti a
Ġdiffic ult
Ġo per
id al
Ġf low
Ġev ent
Ġinter neur
ib r
Ġf ull
Ġin puts
Ġmid dle
ot t
Ġrepres ents
Ġter ms
Ġfin ding
b ers
Ġd ose
Ġcy tok
tim e
Ġfem ales
Ġex tens
Ġch allen
os tic
Ġol ig
A C
Ġsess ions
Ġex ten
on ist
Ġal pha
Ġse em
Ġpl aced
Ġdec ision
an k
Ġass um
7 0
Ġal tern
Ġ ve
Ġcom m
Ġro d
Ġcalc ium
Ġkn ock
Ġ2 00
op le
resting ly
Ġappro xim
Ġmat rix
Ġh y
Ġv itro
ence phal
il i
s h
ra y
Ġtemper ature
Ġbas al
S S
âĢ ²
ĠI C
tif ic
b i
Ġas pec
ĠSim ilar
Ġphys ical
pec ially
gen ic
Ġsubsequ ent
Ġinf er
Ġth ick
Ġsecond ary
o le
cept ual
ar ing
Ġre as
Ġgra y
7 5
00 01
Ġliter ature
ĠL e
2 8
Ġtarget s
Ġco e
Ġvari able
Ġser um
Ġbi ological
Ġt um
Ġbiom ark
Ġa void
d ro
Ġc r
ĠE R
Ġnormal ized
ul a
Ġpredic ted
Ġprob ability
Ġm ental
P C
Ġprovid es
Ġph ot
Ġfo od
id es
s yn
Ġperce ption
ĠSt atis
Ġi tem
Ġelectro des
Ġresp ond
Ġinter val
Ġfin al
Ġspe ech
Ġvari ance
le vel
ot he
v ari
Ġpop ulations
Ġdeg ree
Ġh ome
Ġinf lammation
ogen ous
Ġestim ated
z he
Ġincub ated
3 5
u tis
in k
Ġw or
Ġdendri tic
ĠE ach
ogen ic
Ġpariet al
ĠUni versity
Ġsp ontaneous
Ġner v
ul in
ap e
Ġsec tion
Ġspec ies
ĠU n
zhe imer
ch ing
Ġg ain
oc hem
O D
is tered
pl oy
b e
ĠC or
tr uct
Ġa round
hy th
en se
T D
Ġtrans fer
ĠP BS
d uce
Ġser ies
Ġred uce
cri pt
ĠC R
Ġso und
Ġhemisp here
B P
Ġclus ters
Ġlead ing
Ġmut ations
Ġsour ce
Ġun i
Ġspec ifically
od al
Ġhigh l
Ġfr ame
Ġcor rection
is her
Ġseg ment
ec ond
Ġ x
Ġconcentr ations
arm ac
ĠNM DA
Ġes pecially
a z
Ġknow ledge
en ding
he ren
Ġme ans
G FP
Ġnerv ous
al amic
Ġelectro de
on es
Ġstri atum
Ġm ales
Ġmap s
Ġacqu ired
I V
co hol
ang l
Ġst atus
ur ation
ens ory
Ġagg reg
Ġreflec t
Ġst ar
Ġu til
er ate
tro duction
Ġstud ied
Ġcomb ination
Ġimpro ve
Ġg a
x t
Ġs ix
d own
F or
Ġdem entia
i en
Ġe voked
ger y
ĠS h
Ġgl uc
M D
l o
ph ysiological
Ġapplic ation
ĠW hen
Ġimpro ved
Ġpe ople
Ġpro duced
Ġartic le
ĠDis c
Ġapp ear
Ġe very
t age
ĠS ub
Ġinflu enc
Ġrob ust
l ab
Ġrec ognition
ĠA m
Ġlim b
Ġbar s
t le
ĠB e
st ate
Ġphen otype
Ġl it
Ġan tag
Ġsuper ior
Ġmaxim um
ĠE n
A V
Ġloc ated
m l
Ġen g
Ġsyn chron
s tim
Ġm uch
Ġyoun g
Ġl ip
Ġinter nal
i res
Ġad oles
Ġpro m
an c
Ġv ect
Ġcour se
O S
p e
ogen e
Ġvers ion
ate rials
ĠP h
Ġhel p
Ġpos i
oc or
Ġseiz ures
Ġcontin uous
Ġmut ant
Ġacc ount
ac es
ĠI I
Ġlong er
Ġexper ienc
Ġder ived
h ance
A n
Ġcomp ut
Ġp yr
4 2
3 8
Ġlo ad
Ġup on
Ġexam ine
im in
F A
Ġp ass
ĠS A
ĠD e
Ġplas ma
Ġcerebell ar
ar c
ĠP T
Ġfam ily
Ġst ages
Ġexhib ited
p ared
6 5
or atory
ĠF A
Ġappro aches
Ġenc oding
Ġsup p
t hes
I C
Ġax onal
ĠP ark
Ġpl ot
Ġh al
Ġox id
Ġthrough out
ri ef
Ġbi as
Ġal le
ra g
and s
t ure
ĠS e
Ġassoci ations
Ġori ent
Ġ /
et al
Ġvari ants
Ġpredic tion
Ġneed ed
Ġele vated
Ġac cess
im aging
Ġlin ked
Ġwork ing
Ġsyn drom
Ġcerebell um
Ġprog ression
Ġ ess
Ġmark er
ic es
Ġe lic
Ġmedi um
Ġrec ently
ĠW ith
C L
Ġad v
x ic
Ġdisc uss
r ight
Ġmicrogl ial
Ġseiz ure
p ri
ĠEx perim
at s
ĠAl zheimer
Ġres id
Ġref erence
Ġen hance
Ġvox el
Ġcy cle
Ġdiff er
Ġind uce
Ġmain ly
Ġdevelopment al
Ġag ing
fact ory
Ġlin k
ti b
ĠInte restingly
ĠIn de
amm a
Ġres olution
5 7
Ġex tent
ĠC P
in ing
Ġg angl
ass ociated
Ġquan tit
Ġmeasure ments
ĠP V
ĠA LS
9 0
ĠF irst
Ġpo or
Ġde ep
i vely
Ġbet a
ĠĊĠĠĊ Ċ
ĠC T
Ġexclud ed
Ġstatis tically
Ġk in
ĠIn c
Ġt urn
Ġf ixed
ĠS pec
Ġlead s
ograph ic
Ġnecess ary
ĠA p
ann ing
ĠP A
Ġcho ice
E D
h icle
ot on
z ym
Ġs mo
ĠC ell
inc ip
h ood
Ġbl ue
Ġf ace
Ġne ar
amin ergic
or b
Ġman us
Ġpercent age
B M
Ġem erg
Ġword s
Ġal cohol
) -
Ġfin d
Ġb al
Ġb ro
Ġli ke
Ġc ue
Ġp epti
Ġevalu ate
Ġm agnetic
Ġam yloid
Ġobser v
Ġhist ory
Ġresul ted
ĠPar ticipants
ĠH C
Ġb est
Ġw ay
ĠĊĠĠ ĠĠ
H C
cor tical
Ġ âī
is ten
Ġpath ological
ĠT BI
w h
a ving
Ġflu orescence
is ing
Ġrequ ire
Ġdispl ayed
ĠB rain
Ġp aren
olog ies
Ġen ti
Ġdep endent
Ġr hyth
Ġrepresent ation
3 3
Ġmanus cript
Ġsub un
u an
Ġam ount
ĠC o
Ġnucle i
Ġstrong ly
ut h
ri e
Ġprol if
] .
Ġin st
Ġcogni tion
activ ation
Ġc ues
ĠN A
Ġem ploy
Ġl og
ul us
kn own
Ġin ner
es tern
Ġneurodegen erative
Ġestab lished
Ġ1 7
Ġinterven tion
Ġim pl
Ġinhib it
Ġsens or
N T
spec tive
Ġdec l
Âł Ġ
tr act
Ġpan el
Ġar ter
Ġb uffer
erg y
ĠA r
I S
Ġreg ard
u ter
Ġim medi
Ġse lection
u its
Ġw ave
Ġsmall er
Ġax on
ĠM A
4 8
Ġtrans form
Ġne xt
Ġl ast
ĠS upplementary
Ġcon tain
ant ly
Ġextrac ellular
Ġre ach
ĠAn im
ĠF C
Ġre vers
Ġdi vid
Ġcorresp ond
G C
ott om
Ġa utis
Ġdifferenti ation
Ġback ground
Ġox y
Ġcomp uted
Ġan est
ysi ology
Ġex erc
Ġmedi ated
ĠIn troduction
al le
Ġsh am
Ġre plic
Ġaut om
ign ed
Ġdel ay
ĠAddition ally
ĠAn alysis
Ġtrans mission
Ġactiv ities
ot yp
m g
Ġg ly
Ġout put
am idal
Ġinterneur ons
Ġnum bers
k in
Ġill ustr
Ġlaten cy
Ġother s
osp ital
Ġf ul
Ġres tric
Ġ lys
Ġsurvi val
ĠK O
res ent
ran ial
Ġtr ack
Ġman ip
Ġlob e
Ġsal ine
Ġde gen
ul s
k es
Ġfre qu
i i
Ġparadig m
ĠThe y
Ġphosphory lation
Ġbas is
Ġ Ï
Ġmedi an
Ġal one
Ġdrug s
Ġdec line
ĠDisc ussion
Ġanatom ical
Ġmyel in
Ġsens itive
ĠA M
Ġass ay
ic acy
Ġcap ac
Ġre action
Ġins truc
Ġt end
ult aneous
om otor
Ġenti re
ĠB i
ĠU sing
Ġimpro vement
ĠStatis tical
s on
Ġpoten tially
Ġwe ak
tern al
Ġne ut
x a
Ġdevelop ing
Ġselec tive
Ġrec om
Ġneurop ath
A l
gr am
il es
Ġc ent
3 6
Ġatten u
ĠN F
Ġd a
Ġsur gery
Ġinjec ted
A ll
Ġmon itor
Ġl as
ra d
ĠBD NF
Ġpr incip
Ġol factory
ĠC ons
Ġfib ers
re c
o ff
B B
Ġhetero gene
Ġmi R
d ay
Ġexp ressing
ĠPark inson
Ġc ing
Ġph armac
Ġthick ness
Ġun til
Ġs itu
ĠP er
M G
Ġc he
Ġinfer ior
der ived
Ġbro ad
f old
Ġm ild
Ġcon ver
Ġcan not
Ġwh at
Ġd ig
re quency
Ġg raph
Ġn at
Ġvol tage
Ġintegr ation
Ġpsych iatric
I N
Ġintrac ellular
ing s
Ġh or
Ġr ang
Ġcarri ed
ex t
R G
Ġcl os
Ġ4 8
ĠR ep
itud inal
Ġremo ved
Ġstrateg y
Ġe ffici
Ġap op
Ġemb ry
Ġpropor tion
w ent
li er
6 7
K O
Ġb re
Ġsuccess ful
Ġextrac ted
Ġmut ation
Ġorig inal
Ġalgorith m
Ġpair s
Ġro om
op e
Ġstrateg ies
Ġtr act
Ġaspec ts
Ġt aken
Ġc enter
om er
0 4
pri ate
Ġess ential
ign ific
ĠAP P
Ġischem ic
Ġcar di
ĠM T
n o
Ġcirc uits
ĠT R
ĠIns tit
Ġgu id
ĠA b
Ġpos ts
Ġaccum ulation
Ġcor rected
quenc ies
Ġp ap
Ġhal f
Ġposs ibility
Ġol d
Ġdiff usion
Ġemo tion
urren ts
Ġd imens
or al
Ġf as
Ġde v
ĠS ch
Ġpyr amidal
Ġcoord in
Ġfocus ed
Ġtyp ically
ĠInde ed
us ted
Ġen zym
Th is
Ġep is
ĠB l
tro ph
on ance
ĠP C
Ġcol or
Ġy et
om a
at in
ĠAs s
Ġpresent ation
Ġc ut
Ġm y
Ġthe ta
Ġpress ure
ear ch
ĠS E
o u
ĠD uring
ĠĊ ĠĊĠ
Ġfil ter
Ġapproxim ately
Ġve hicle
Ġpotenti als
ting u
Ġexpos ed
ĠI f
Ġf ix
ex p
oph ag
Ġdesign ed
Ġacc om
T I
Ġret rie
Ġevalu ation
Ġmet a
Ġoscill ations
st ream
Ġsyn thes
ig ma
Ġinvol vement
Ġdomain s
Ġin t
Ġar row
S I
Ġpro duce
P R
Ġisol ated
Ġcer tain
Ġr s
ĠL PS
Ġfre quencies
Ġsim ultaneous
w ork
Ġeff icacy
Ġcult ures
od el
Ġg ran
Ġgl ial
Ġtechni ques
um in
Ġc ore
Ġinhib itor
Ġma ke
ĠT D
m or
con trol
Ġfr action
P CR
W h
M I
Ġf ron
Ġ ir
Ġimport ance
our s
te ad
Ġerr ors
Ġgluc ose
Ġconf lict
Ġm anner
Ġda ily
ĠA cc
Ġneuro trans
Ġsyndrom e
Ġsequenc es
ati ents
Ġad ded
r in
Ġabnormal ities
Ġdop aminergic
Ġmig r
ĠG lu
] ,
P I
u tes
ri a
Ġb ound
ol in
Ġpre vent
D CS
Ġvolum es
Ġrepor ts
Ġ ide
3 2
itud es
Ġexerc ise
Ġpre val
n s
Ġtech n
Ġdifferen tial
am pl
ac hed
Ġen s
G G
an ced
Ġc urrents
Ġf ast
Ġis s
Ġreas on
pro te
Ġsim ple
Ġsc al
ins ic
Ġallow ed
n atal
Ġdispl ay
ment al
ĠB oth
Ġneuro imaging
Ġb o
Ġexpl ore
ien tific
Ġimplic ated
Ġsepar ate
3 4
ĠM ed
Ġoccur s
B D
Ġmark ed
og n
iff eren
istr y
Ġin duction
Ġreg arding
Ġtiss ues
I F
f usion
ap p
or ts
Ġth alamus
Ġcons truc
ĠT NF
a e
Ġproced ures
Ġcon tent
Ġv ent
Ġpre par
ĠM aterials
ĠC N
Ġexhib it
Ġde le
Ġd en
ĠS EM
Ġparame ter
Ġv es
ord er
Ġen ergy
om y
Ġo vere
Ġinvol ving
onstr uc
Ġapp e
o tic
ain e
ĠG en
G lu
ĠT wo
Ġmet hyl
im e
Ġcontrol led
Ġst able
Ġdiagn ostic
Ġm ixed
Ġg ood
ĠS V
ame ter
id ation
Ġrepe ti
im b
cle ar
Ġ2 1
ple mented
Ġaver aged
hen s
I R
Ġgener ate
Ġp aired
ĠGABA ergic
Ġlabel ed
Ġc hem
Ġlay ers
Ġtra um
Ġax is
ĠB y
in ning
og ram
9 9
Ġobjec ts
Ġuni que
c hes
Ġcomp are
he st
tr action
O N
Ġthough t
Ġmetabol ism
Ġ9 0
er man
S t
Ġinc l
Ġn or
O LD
Ġdel i
4 7
3 7
atic ally
op las
Ġset ting
Ġlear n
al ateral
u rom
Ġsub set
me an
ĠÎ¼ M
Ġful ly
Ġun clear
Ġlong itudinal
Ġat t
ip ital
Ġcult ure
Ġex ternal
Ġgen otype
at he
Ġv ascular
Ġmagn itude
Ġmetabol ic
ist ance
g ed
Ġup per
Ġg amma
L E
os es
Ġtrain ed
ogni tive
ic ial
ct ure
we ek
A N
Ġn am
Ġcompar ing
g ing
Ġexcit ability
ly m
ĠSt ate
Ġh oc
Ġres onance
Ġdo uble
Ġfor ms
Ġunderst and
Ġ &#
Ġse man
Ġun known
Ġremain ed
te e
Ġre tro
ĠS ince
ri p
Ġneurop sych
et ric
Ġ ips
vers ion
am ple
Ġno te
Ġmet ric
id ate
Ġbal ance
us e
Ġvari ation
Ġ ke
Ġpl ays
ĠG M
Ġgener ation
Ġpo ol
ot rop
Ġcaus es
pro cess
Ġat roph
Ġobser vation
as p
Ġblock s
Ġspecific ity
Ġc m
Ġr ating
ĠAD HD
Ġmo tiv
Ġb ox
Ġch rom
Ġcons um
ĠNo te
ĠI F
Ġcing ulate
Ġitem s
Ġro les
ĠD es
Ġbl ot
os ition
ocy tes
ter min
ap s
v als
Ġsom at
Ġ2 2
Ġtrans l
Ġend ogenous
Ġf lex
ĠG FP
Ġtreatment s
Ġpro duc
Ġorient ation
D R
6 8
er n
Ġpub lished
end ro
ĠCon f
Ġas ym
f requency
z ing
Ġgo al
Ġbe g
C P
Ġhig hest
RNA s
Ġhyp oth
if orm
l ial
Ġth ird
Ġs tem
Ġkin ase
Ġinf ection
c al
Ġappro priate
Ġco vari
ĠL i
Î¼ m
3 9
Ġv ary
Ġobserv ations
Ġorgan ization
Ġre pro
Ġvox els
le t
c ious
Ġd il
Ġpr acti
Ġoccur red
Ġretin al
Ġac tions
Ġter m
200 9
Ġrepres ented
Ġestim ate
L I
p ass
ec ause
Ġvect or
Ġsec re
Ġn ature
oc aine
L R
Ġ Âµ
Ġcomp ens
Ġuse ful
r uit
Ġod or
ĠĊĊ Ġ
L C
ĠP r
Ġun its
Ġnum er
Ġl ed
ĠH D
Ġapp ears
Ġse arch
or ing
Ġpub lic
Ġcontr alateral
Ġnat ural
ĠP S
Ġcontribu tion
id s
Ġf ore
Ġfib er
Ġt un
Ġlocal ization
Ġcapac ity
it ch
Ġex ecutive
Ġgen der
Ġdistribu ted
Ġpar alle
Ġrepresent ations
tem poral
Ġmorph ology
Ġw omen
Ġmajor ity
han ol
clus ions
Ġcondition ing
Ġposts ynaptic
Ġatroph y
Ġp H
Ġtum or
as is
Ġst art
Ġconst ant
Ġcytok ines
Ġed uc
om inant
ur s
Ġcons ent
Ġv el
ren d
Ġsu fficient
um an
Ġprolif eration
Ġca ud
Ġquantif ied
ro se
Ġf ig
m M
Ġmod erate
Ġtra ject
im mun
age ment
Ġear lier
Ġprojec tions
Ġs il
Ġinter f
C a
se mb
Ġ3 7
0 2
ĠN ot
Ġon to
ĠS econd
C o
Ġadmin istered
tif ication
Ġexplain ed
gen esis
Ġovere x
Ġrequ ires
Ġgra di
Ġmolec ules
Ġp up
T T
Ġoxid ative
Ġgener ally
Ġinform ed
Ġcur ve
Ġcomp re
ĠE th
e b
Ġag ed
ĠO ver
od ed
ĠRe g
Ġt e
Ġy ield
Ġw al
Ġsup pression
F F
ib ly
l in
Ġ ul
Ġn orm
R O
Ġdivid ed
Ġexp ress
esti b
ĠIm mun
Ġ #
Ġallow s
Ġprof ile
Ġinter vals
Ġcoup ling
Ġreg ulate
Ġar tif
Ġdetail s
G A
aren t
ab e
Ġm ask
Ġcr uc
Ġbiomark ers
Ġhome ost
Ġrespec t
g ue
Ġphen otypes
Ġv ide
Ġdegen eration
od endro
Ġelectr ical
rit ten
cep tib
Ġspec trum
Ġrec ru
Ġampl itudes
Ġman if
Ġl ig
Ġgre en
Ġinc or
ten tion
ĠG erman
Ġo w
Ġdis tingu
mit tee
Ġm ass
Ġset s
Ġfac es
E x
Ġpres ynaptic
g ra
c in
Ġcol um
m ost
ĠQ uan
Ġquantit ative
Ġp ict
ĠC ol
Ġref er
Ġper ceptual
Ġwid ely
Ġdi et
ro us
B A
Ġorig in
Ġmeasure ment
Ġidentif ication
Ġcoun ter
h ab
Ġdetail ed
O ur
Ġ8 0
os ensory
Ġlarg ely
Ġa w
Ġb ran
Ġrandom ly
ĠROI s
in o
Ġm amm
arge ted
Ġestim ates
Ġop pos
C M
tr al
Ġrece i
Ġno ted
Ġsuppor ted
Ġpref erence
Ġnucle ar
Ġdep ressive
Ġcon cer
Ġcl ose
pl ate
oh ist
ĠE RP
ili ar
Ġstep s
ores cent
Ġrec ruit
S M
Ġmus t
Ġpracti ce
m ark
Ġperiod s
ar ies
Ġconnec ted
Ġcompre hens
y ears
Ġtim ing
Ġsepar ately
ad es
Ġse ed
us ed
m at
g ic
ĠSimilar ly
ĠP FC
R E
Ġ) ;
s ec
Ġdecre ases
Ġproble ms
l ish
Ġt rend
Ġne urom
Ġh aving
ĠG F
Ġpredic tive
Ġseman tic
os en
Ġsl ight
âĢī Ġ
5 5
Ġlimit ations
m otor
4 4
Ġn odes
Ġtyp ical
Ġeffici ency
Ġprof iles
ra f
Ġhe aring
Ġmain tained
form s
Ġproble m
Ġoptim al
Ġv ess
urren ce
er y
Ġs izes
ĠM CI
Ġcomm erc
Ġadap tation
Ġloc ations
Ġtrans f
Ġdevi ation
Ġrespons ible
Ġcruc ial
PS C
et yl
Ġsub str
Ġ** *
Ġdataset s
Ġdiscrim ination
Ġrec onstruc
p ir
Ġdendri tes
ĠRes earch
ĠHe alth
ohist ochem
Ġf ar
Ġre pl
Ġautis m
Ġneut ral
Ġinvestig ation
Ġparalle l
c ular
is ting
orb id
Ġt ub
Ġin tro
Ġs en
Ġstrong er
ric hed
Ġconf idence
resent ative
ord ance
Ġprog ressive
oc ity
Ġsh or
Ġsh ape
Ġcomple ted
Ġsynap se
Ġcompar able
ĠG S
Ġtrans genic
go ing
Ġlit tle
we ighted
Ġcommon ly
C re
Ġprob e
ĠB OLD
Ġoxy gen
Ġhypothes ized
Ġga it
Ġcoe fficient
Ġneuro prote
Ġrec ogn
ĠT r
b in
Ġsus ceptib
Ġ ~
Ġintr insic
Ġimpair ments
Ġcomp ound
z yg
E A
p ts
Ġshif t
ate rial
Ġ ion
Ġobjec tive
Ġaltern ative
Ġrecru ited
Ġad vant
Ġpl a
de f
read y
Ġremain ing
ĠSpec ifically
Ġob tain
it ation
S upplementary
Ġolig odendro
Ġs qu
osom al
PS Cs
an alysis
osom es
m od
Ġapop tosis
le ft
sc ale
Ġflu id
ĠM R
Ġstri atal
Ġcontribu ted
Ġemploy ed
ĠD L
ĠA TP
OV ID
Ġas ked
ĠL ab
Ġmed ical
ing er
Ġst rain
Ġ2 8
Ġf und
p oint
Ġfollow s
x in
ol ic
Ġachie ved
Ġprim arily
3 1
or ation
Ġtarget ing
ox ic
a ff
Ġphen omen
C N
Ġcon sequ
Ġbec ome
her s
ran ge
Ġsub cortical
mit ted
Ġexp ect
Ġv estib
Ġdes pite
ak es
Ġm aking
D NA
Ġser oton
Ġsc an
Ġco heren
Ġsk ill
Ġinterpre tation
t ail
er o
ĠE A
Ġe as
ris ing
Ġsub group
Ġlabel ing
Ġc ocaine
iti s
Ġtrans port
Ġal ready
il ities
Ġcommun ication
Ġenvironment al
Ġaff eren
port antly
N e
Ġpl at
5 00
iz on
Ġfunction ing
Ġframe work
Ġpoly m
Ġmac roph
ri es
op erative
Ġpromo te
b le
4 6
t ual
anc ial
Ġmod ified
v ascular
p aired
ot al
ol ved
ic ro
Ġspi kes
trib ut
Ġdef ici
Ġneuro genesis
Ġs acc
Ġtrans ient
b bit
Ġsumm ar
ĠA T
Ġpath oph
og ether
Ġrel ation
Ġretrie val
Ġpro gram
G E
ĠÎ Ķ
CS F
Ġm or
an cy
ĠD i
Ġmus cles
Ġs ul
S N
di rect
Ġcult ured
g ical
tion ed
Ġmap ping
ĠM P
ver age
Ġpap er
Ġs he
ĠAcc ording
T able
Ġpath ogenesis
Ġw a
Ġaut ophag
dition al
er ved
Ġadj usted
t ypes
f MRI
Ġconsis ted
Ġvel ocity
Ġslic e
Ġw ide
Ġdi ameter
Ġatten tional
Ġadd ress
Ġaccom pan
Ġregion al
Ġm iss
ite s
er t
Ġmod ul
id ed
Ġt w
im otor
Ġdat ab
Ġfin ancial
ĠI g
ĠM o
Ġ5 00
a h
omet ric
ne y
ĠĠ ĠĠ
Ġelectro physiological
tin ction
in n
omet ry
ĠMD D
b rid
Ġresp ir
v is
c ar
Ġt DCS
Ġpl ate
Ġch am
ollow ing
Ġseem s
Ġocc ipital
Ġpreval ence
Ġp ut
ĠRep resentative
Ġste re
Ġtrans por
Ġpar tial
Ġwas hed
d om
ĠW estern
T C
ĠT est
Ġat tribu
Ġmod ulate
Ġra re
Ġpre ven
Ġsumm ary
Ġips ilateral
Ġtechni que
Ġfor ce
Ġpharmac ological
ĠG roup
r h
Ġimmedi ately
inf lammation
Ġgangl ia
line ar
ignific ant
ĠA AV
Ġmod e
N C
n ight
g i
ron i
izon tal
Ġbl ack
Ġvari ety
Ġantag onist
lu orescence
7 2
L M
U S
Ġs af
Ġun it
ever al
Ġis o
Ġthe ory
Ġn ic
Ġn ow
Ġcommerc ial
A d
Ġdef in
Ġcons tit
Ġp un
Ġar m
% ),
ĠB ecause
on fer
ĠP CR
ar row
ĠThe n
Ġ7 0
Ġcompar t
Ġd raw
Ġh ab
olar ization
em b
Ġacc el
ucle in
Ġsuppor ting
Ġestab lish
Ġaffec ts
opath y
Ġmod ulated
f ree
ari ate
d ays
Ġneurodegen eration
Ġc and
is ted
Ġasym met
onfer roni
Ġexpl ored
5 3
Ġet hanol
O E
Ġrec all
t op
Ġunder went
ĠMe an
un t
Ġb u
Ġread ing
Ġto xic
le ar
ĠS O
os ome
Ġ âĪ
Ġm T
6 4
mon th
Ġp ron
Ġaim ed
Ġspec ial
Ġins ula
w ith
Ġpro gen
Ġsour ces
Ġsynthes is
Ġsensor imotor
ĠIm portantly
hab ilit
Ġf rag
y ing
Ġdisc re
Ġcomplex ity
Ġow n
ĠP atients
Ġdel ayed
od ium
Ġt argeted
ĠC OVID
A M
Ġtrans ition
Ġhy dro
ten ance
ĠN P
an ted
Ġappe ared
ĠC C
ke le
ph as
ater nal
ĠT MS
Ġplace bo
ĠPre vious
al se
Ġmain tain
Ġch osen
el i
Ġprojec tion
T MS
E C
Ġreg ular
Ġag ree
ĠGF AP
Ġd one
ĠG iven
Ġd ark
Ġinterven tions
val ue
Ġmonitor ing
ill ed
Ġsur round
9 8
om es
Ġthere by
Ġang le
Ġrese arc
p s
lec tro
0 8
Ġpepti de
jec ts
ĠO R
l ated
Ġm is
in ations
ater gic
Ġat tem
Ġfix ation
ĠA S
Ġc oding
Ġsc ans
Ġpul se
ĠL C
cl inical
ric ular
ĠS uch
Ġb ip
Ġcon ven
uct u
Ġp ip
os ter
d imens
B L
Ġequ al
Ġinst ance
Ġe ight
ĠS I
Ġmed ication
ĠGerman y
lab el
Î ³
. )
tre atment
Ġreg en
ad s
Ġrepresent ative
Ġcons cious
ce ption
Ġvir us
i qu
Ġg r
ĠT rans
t urb
w ide
Ġsp ine
dep ress
Ġex tinction
Ġconduc t
Ġfield s
ĠP I
r or
Ġstain ed
O G
Ġpl ots
Ġpers onal
6 6
Ġmicroscop e
Ġmat ched
ĠO f
Ġend othe
Ġposi tively
y ond
Ġvestib ular
R e
Ġin duces
9 7
Ġelic ited
Ġdecl are
Ġh orm
Ġsomat osensory
Ġreview ed
er ing
ĠN R
Ġconc lud
Ġneurotrans mit
Ġcorrel ates
Ġoligodendro cy
ogene tic
b ox
Ġn m
Ġintegr ity
Ġpred ominant
Ġsubjec tive
Ġres istance
Ġbur st
Ġdist urb
Ġdri ven
ĠS ystem
ĠE r
S V
Ġex act
Ġmo od
ari etal
Ġacc oun
Ġacc ordance
poc h
bl ue
ĠState ment
m al
o ol
3 00
Ġexpl an
Ġapp arent
Ġsimilar ity
Ġcluster ing
Ġar ch
Ġblock ed
g reen
se quenc
ĠB BB
Ġmain tenance
m end
o ti
Ġclear ly
Ġ q
it us
f ield
in a
at ch
Ġreg ulated
ĠP ET
Ġclass ified
u k
Ġprovid ing
Ġvari ant
Ġt one
Ġins tead
U C
Ġband s
unction al
Ġw ritten
Ġgradi ent
Ġa rous
m ut
Ġdown stream
Ġb ottom
Ġcon tained
ĠD ep
p ath
Ġ4 5
Ġl atter
Ġgl i
rief ly
the less
ell ing
Ġab und
Ġplat form
Ġin take
Ġpro xim
Ġfl uctu
Ġc op
Ġcateg or
ol ute
Ġeduc ation
Ġen riched
Ġoppos ite
Ġpro min
Ġh ar
ĠUni ted
Ġcortic es
if ier
Ġsub types
v ision
inf or
Ġet h
ĠB ased
Ġdiscuss ed
ĠO ther
M C
ĠP P
Ġdiscrim in
ĠI V
Ġsegment ation
b a
ĠConf lict
ar s
l or
N D
Ġin direct
ĠD MN
Ġsc hem
Ġmorph ological
Ġquestion na
Ġiden tical
i val
havi oral
tro ke
Ġmitochond ria
habilit ation
9 3
er ated
oph il
6 2
Ġimmun os
Ġpre ced
Ġcurrent ly
Ġmigr ation
Ġm ach
ĠAM PA
Ġus ually
Ġglutam atergic
process ing
on ists
um b
Ġcoun t
Ġint act
dimens ional
Ġex tre
ĠT H
Ġdifferen tially
olin ergic
Ġtool s
Ġcont act
Ġbas ic
ĠP O
ĠS CI
Ġover night
Ġh ours
ĠP K
ĠEth ics
E EG
Ġexperienc ed
ĠS up
Ġsimultaneous ly
Ġmut ants
Ġver bal
Ġdistribu tions
Ġheterogene ity
Ġgen ome
Ġmechan ical
el ines
Ġmicroscop y
u fact
exp ressing
Ġwh ose
ĠP l
od ic
Ġprocess ed
Ġques tions
Ġcomp lic
Ġinclud es
Ġcomple ment
Ġ3 2
Ġindependent ly
Ġbar ri
Ġdep ending
Ġfrequ ently
Ġdefic it
Ġretin a
Ġz one
Ġunderst ood
ĠB onferroni
Ġgre at
Ġrestric ted
R R
Ġ2 6
Ġcon clusion
ĠF isher
p us
Ġ3 5
Ġthreshold s
hes ia
Ġst ability
Ġfoc al
re le
Ġanest he
rain ed
ph osph
Ġhe art
Ġposs ibly
Ġtrig g
Ġdi abe
Ġanti depress
rich ment
ĠA uth
m i
Ġre ducing
Ġstatis tics
7 8
Ġsc ler
r d
Ġcontribu tions
Ġsus tained
Ġprotocol s
Ġex cept
Ġman ufact
Ġle g
Ġy ear
Ġm al
ĠG l
c m
Ġmodel ing
Ġfam iliar
Ġp ast
ac ing
form ation
Ġm es
A L
Ġsubun it
, âĢĿ
ul ti
Ġpost natal
ĠExperim ent
ĠT ech
d raw
ill ary
Ġsp ent
ul ner
Ġincl usion
cer tain
ĠS H
Ġtermin als
Ġens ure
Ġsampl ing
Ġflu orescent
Ġdisrup tion
Ġev olution
Ġexten ded
Ġo uts
and ed
Ġs odium
re t
Ġconnec tion
O H
ati al
Ġsubsequ ently
Ġhor izontal
ad ian
Ġinjec tions
Ġey es
Ġastrocy te
Ġper turb
ĠIn ter
Ġalle le
as ive
Ġcons tr
e qu
Ġtr aces
Ġmetric s
Ġmean ing
Ġtoward s
Ġcol lection
Ġm ix
ĠH R
Ġneuro inflammation
The re
Ġpre pared
Ġop tic
Ġmethyl ation
Ġim plement
L e
Ġs oci
Ġwal king
Ġves ic
2 01
iv ity
ĠA B
lym ph
Ġaut o
Ġsubstan tial
Ġbrains tem
Ġsequenc ing
ĠD ec
ĠD M
ĠM AP
Ġconf ound
) :
ĠCon trol
Ġimmun ore
un e
Ġdef ec
Ġdis ability
Ġk ine
ĠN I
ov ered
8 8
Ġe poch
Ġcateg ories
r ine
ffec ts
Ġclinical ly
Ġsh ared
Ġrecruit ment
Ġprepar ation
ĠCom mittee
Ġ her
pec ted
Ġth alamic
L P
Ġtrans i
ĠH F
Ġden o
ure r
Ġdistingu ish
Ġconstr ued
in ess
i k
Ġag onist
C on
Ġvide o
ate n
syn uclein
Ġdescrib e
sequenc es
Ġscler osis
ati gue
Ġp ack
Ġinhibit ors
9 6
ol ding
Ġl ar
Ġdeli very
iz ations
iv ered
Ġregul ating
ĠD ifferen
he res
Ġspi king
Ġm V
d ri
Ġcontain s
Ġim plemented
Ġre duces
Ġreli able
ce ed
Ġse ven
tit y
e voked
Ġfac ial
Ġbl ind
ĠA C
Ġal most
Ġv ulner
Ġlip id
Ġmanif est
Ġele ments
Ġj ud
0 7
L T
Ġloc omotor
in ter
y ear
Ġcateg ory
Ġ2 3
9 4
Ġo pt
ro te
m id
s w
Ġfacilit ate
ac er
val ues
1 000
Ġfam il
ĠNe ur
Ġcon sequences
Ġquantif ication
ĠD G
Ġrod ents
Ġsc en
ell ow
ĠM ice
hy dro
Ġf alse
Ġp en
Ġexam ination
Ġres our
Ġconsum ption
Ġb odies
cor rected
Ġfor ward
Ġun c
Ġb ind
Ġcl in
W M
Ġmat ure
Ġm PFC
ocy tosis
A R
Ġup take
Ġtrig ger
en ess
Ġrecom mend
er ic
Ġre verse
Ġj ust
Ġdel ivered
Ġrespec tive
Ġd oc
ac ent
Ġre infor
ĠÎ ·
ox id
Ġprol ong
Ġk et
Ġbenef it
Ġin ser
a ult
Ġbenef icial
Ġminim um
vers ely
ec tions
Ġmanufact urer
c ies
Ġaccur ate
ĠTech n
Ġdep ic
ĠA g
Ġspec tral
Ġbe yond
Ġdele tion
ch o
mon ths
zyg ous
Ġcyt os
Ġex cess
Ġabs olute
Ġcan n
u tions
ĠM an
Ġpro ject
om o
Ġch olinergic
ĠSt ates
Ġslight ly
Ġcontrol ling
E N
ier arch
Ġcham ber
on omic
% ).
Ġz ero
il s
Ġsepar ated
S yn
ti zed
c ents
Ġarch ite
op s
ra ine
Ġpref eren
Ġsuc rose
Ġcolum n
Ġpromo ter
Ġaffec tive
Ġex ec
Ġcomplete ly
Ġneg atively
ke ys
Ġmat uration
Ġarous al
ĠL TP
z ation
ific ations
Ġregul atory
ffici ents
Ġâī ¥
G S
m L
Ġactiv ate
ĠIm age
ic king
Ġprog ress
gra de
p ose
Ġph ases
Ġcur ves
F s
ĠAnim als
d s
Ġcent r
Ġcomput ational
ĠM I
0 6
ene tic
Ġtr ue
ĠN S
Ġexcit ation
Ġsp read
Ġchang ed
am etric
activ ated
Ġits elf
or rh
ens itive
Ġdeg rad
Ġrapid ly
Ġdiagn osed
v ised
Ġ( âĢ
ĠN on
Ġcon tribut
Ġmed ic
Ġon ce
Ġreflec ts
Ġres c
Ġp or
t ub
sc ience
Ġf all
Ġdri ve
Ġwor ld
Ġaccompan ied
oid s
Ġlab oratory
a res
ĠP o
Ġnic ot
m ann
Ġc en
medi ate
is on
c ing
Ġoverex pression
Ġcomp uter
ĠF ollowing
Ġsp ines
Ġj unction
Ġadap tive
Ġinf ants
Ġperce ived
ĠC M
ĠD BS
Ġfail ed
her ic
ĠP ost
Ġmacroph ages
Ġcoheren ce
Ġen richment
Ġdis ch
ĠA CC
Ġpar tially
Ġins ulin
5 6
ĠI II
Ġischem ia
Ġwe ights
lu or
ĠI P
un g
oc ation
Ġendothe lial
ĠA R
Ġouts ide
us ions
ĠÎ ³
w here
Ġrandom ized
Ġcoe fficients
Ġinfluenc ed
as al
Ġon line
ĠCl inical
ever theless
Ġextens ive
Ġdom inant
Ġsk in
Ġf at
Ġpromin ent
Ġagree ment
al ian
Ġw r
Ġclos ely
ĠAuth or
ant ation
Ġincor por
Ġwith draw
Ġf ile
Ġresearc hers
g ative
Ġpsych ological
le y
ĠL D
Ġtem por
par t
Ġarter y
otrop ic
Ġ2 7
or gan
Ġinhib ited
ĠPT SD
Ġinter act
Ġfl ies
W T
c k
Ġinvol ves
ir ing
tail ed
ĠE D
Ġrepresent ing
ĠS er
ĠOver all
Ġdegrad ation
Ġseg ments
Ġsystem ic
Ġpar ts
Ġmost ly
Ġreli ability
Ġde ple
N P
Ġcall ed
w or
Ġal ways
rel ation
Ġcre ated
Ġm aternal
ĠC H
I t
Ġequ ival
Ġcyt oplas
Ġneuroprote ctive
ears on
itro gen
Ġimmun ohistochem
Ġab ilities
Ġbip olar
Ġstimul ated
Ġn oc
Ġsen ten
othe rap
Ġperform ing
Ġcontribu tes
ĠE C
Ġpl us
olog ic
Ġt ake
et a
Ġf inger
Ġt aking
Ġsc anner
Ġprec ise
V s
Ġne on
Ġcap t
8 5
ĠSc ientific
ĠS ome
Ġvalid ation
Ġel uc
is es
Ġcons ecutive
Ġestim ation
Ġd on
g t
Ġadj ust
ic tion
Ġin ten
Ġtem plate
Ġmon keys
Ġrating s
ro g
Ġth re
ĠDes pite
ub iqu
Ġfas ter
ĠM on
Ġenzym e
ac tic
Ġver tical
Ġp ix
ĠAn other
Ġtr acts
Ġenhance ment
Ġcontr as
Ġknock out
Ġre ached
ul um
ĠV TA
ĠT RP
Ġcomp e
m ia
l ateral
ov ascular
Ġh air
Ġd oses
g n
Ġd ate
Ġf atigue
Ġass igned
S e
Ġdis tal
Ġvari ed
er al
abil ities
Ġbarri er
in king
Ġhomeost asis
Ġup d
Ġobser ve
ĠB io
Ġgly c
Ġcaus al
ol ateral
Ġro w
ĠV al
v ance
E B
Ġchallen ge
Ġsystem atic
p sych
Ġdatab ase
Ġac etyl
ĠIg G
aus s
ĠAnim al
Ġrespir atory
ĠAl so
Ġinfluenc es
Ġadoles cents
Ġo c
Ġsc anning
Ġre active
Ġmo un
ffec t
h ing
A MP
Ġreflec ted
of luorescence
d r
M R
Ġcy cl
ĠP R
Ġdev ice
Ġz eb
Ġlas er
Ġprom ising
Ġpers istent
Ġsubjec ted
fer red
tr as
C B
Ġcytok ine
Ġcan cer
Ġcl a
Ġdepend s
p o
Ġtra its
Ġstar ting
Ġb ul
Ġevid ent
Ġvir al
id i
Ġadvant age
ĠN O
ĠS S
Ġinf ar
Ġar g
4 1
Ġprop ose
Ġaffec ting
Î º
Ġg ap
Ġst op
Ġcirc adian
Ġass ays
ĠN evertheless
Ġbur den
it ors
por ted
S EM
in ity
Ġ7 5
Ġc och
Ġma ze
il ing
Ġre habilitation
et s
Ġyoun ger
ch ol
Ġconsistent ly
Ġpredic tions
Ġallow ing
Ġmig raine
Ġanaly ze
Ġm aterial
7 6
if ug
Ġiss ue
Ġne ocor
ĠF uture
Ġd ual
b r
Ġne igh
Ġh ierarch
Ġprog n
ĠCom par
Ġact ual
Ġdemonstr ating
ĠS tim
Ċ Ġ
Ġst ored
Ġbeg inning
Ġst ra
Ġsubun its
ĠMed ical
Ġfail ure
Ġautophag y
e ed
tal ity
Ġn ull
ĠAP OE
isten ce
ĠCell s
Ġst ream
yp ical
ĠU K
ign ment
ox y
4 9
Ġsim ulation
Ġchild hood
Ġinc idence
Ġseroton in
Ġor th
Ġdifficult y
Ġm el
Ġrece ive
Ġret urn
Ġr ise
o ural
Ġsc ales
Ġh ospital
8 6
Ġcom orbid
Ġocc urrence
Ġvalid ated
Ġlocal ized
Ġachie ve
E K
Ġt ail
op ic
Ġgra d
Ġide a
raf ish
Ġc ost
ĠCons istent
Ġ iron
Ġscreen ing
+ )
Ġtranscription al
de hy
inn itus
j ug
ĠP M
Ġm ill
ĠI D
Ġsusceptib ility
Ġop tical
ot ing
Ġam ino
ĠM EG
Ġfil tered
oci ation
w ell
Ġdep th
Ġbel ie
ĠStud y
ĠInstit ute
Ġ3 00
Ġdep ri
Ġfund am
Ġepilep tic
Ġprec urs
Ġprote ctive
ti le
Ġprincip al
ati ent
Ġad op
Ġmemb ers
Ġvari ations
ber g
asp ase
p rising
Ġinte resting
Ġcap ture
Ġbiomark er
Ġn ode
av or
th ood
Ġar ray
in jec
U T
Ġtherap ies
Ġdi verse
Ġ3 6
d is
Ġim m
A A
auss ian
Ġneed s
Ġcorrel ate
ĠInte rest
Ġmo ving
ul thood
ĠD S
l and
ĠO N
Ġaggreg ation
am es
Ġcoordin ates
ify ing
ign al
ob l
Ġup regulated
ot oxic
tes ts
Ġfig ure
00 5
dehy de
l it
yel ination
ic ep
ĠM icro
Ġtrans lation
Ġregul ates
ubiqu it
Ġst abil
Ġdirection s
Ġe fficient
sub ject
p ers
ĠStud ent
ĠL FP
Ġneuropsych ological
Ġsuppor ts
Ġconf ocal
dri ven
Ġadj acent
ĠOn ly
Ġra w
Ġattenu ated
ax is
Ġconven tional
Ġl amin
label ed
Ġan ticip
Ġprolong ed
Ġcoh orts
in v
Ġprop ag
I L
ir th
Ġtun ing
Ġper spective
Ġplot ted
l t
Ġdiff ered
acti le
Ġtraum a
Ġcand idate
Ġproduc t
mat ched
Ġvis ion
Ġconf ig
P P
ĠO p
Îº B
Ġmor tality
Ġshor ter
ici ans
Ġmaxim al
Ġun certain
Ġdoc um
ĠTD P
Ġad verse
Ġcharacter ize
tiv es
Ġad ulthood
Ġex isting
ĠAm ong
oc c
ĠH ence
Ġle t
Ġsign s
Ġneurode velop
ĠF rom
Ġper me
Ġexp lic
re es
Ġl if
Ġtrack ing
Ġcondition ed
b ility
a ffec
se ud
T G
Ġch ain
p on
% .
ĠR ed
Ġquantif y
y e
ĠT ogether
Ġanal og
Ġskill s
ĠM ost
Ġser ve
Ġconsider ing
ĠNot ably
Ġ encephal
Ġper f
Ġhypoth alamus
ĠE MG
Ġform ed
E F
ĠD O
Ġn ig
Ġpeak s
ĠS everal
Ġrod ent
Ġcar ry
Ġat las
Ġrefer red
ĠC al
ĠD C
E s
Ġh ous
Ġmus ic
A b
ĠC re
Ġam b
tens ion
Ġcon cept
ĠâĪ ¼
Ġrele vance
ĠS U
un c
Ġ ur
Ġintegr ated
ĠB A
Ġmeas uring
Ġ lymph
Ġinter mediate
ox ia
ĠS o
Ġoccur ring
Ġinvestig ating
Ġiden tity
Ġref lex
ution al
re f
ĠC X
Ġsur gical
Ġexplic it
t rial
Ġr ule
ĠP ur
Ġg rid
n m
ĠN ational
ĠCon clusion
ĠT re
D M
eli hood
Ġconnec t
j ured
Ġselec tively
ippocamp al
Ġtranscri pt
6 3
is ual
Ġâī ¤
l imb
Ġins trum
Ġthe ore
er a
al ities
Ġpers on
ĠB riefly
ĠH ospital
Ġartif acts
Ġop i
ĠQuan tification
ĠT u
ĠÎ¼ g
N M
ad ic
rain ing
s ynaptic
H A
ocal ization
Ġeff ort
Ġon going
Ġiniti ally
ve y
termin al
Ġdisc overy
ace ment
Ġmed ia
Fig ures
lud ing
Al though
Ġ "
Ġtransfer red
Ġiniti ation
Ġsom a
is ms
M e
Ġnumer ous
ĠStud ies
Ġassess ments
g ans
Ġill ness
av ig
Ġde b
Ġhem orrh
Ġidentify ing
Ġt innitus
pl es
Ġcla im
Ġblock ing
bin ding
Ġsw it
se q
Ġdefici ency
Ġra bbit
Ġlearn ed
S igma
I m
5 8
is ions
ĠĊĠĠ ĠĠĊ
Ġm Glu
Ġput ative
Ġtr ace
Ġfib r
ent ate
it ney
Ġb rief
cept or
Ġh is
Ġguid elines
x y
Ġrhyth m
Ġh all
Ġanest hesia
omo tion
Ġf usion
rele vant
Ġob es
Ġcoup led
Ġposi tions
Ġph on
Ġzeb rafish
ann el
Ġparticip ate
Ġhighl ight
ĠR S
Ġdefec ts
Ġwithdraw al
Ġcentr ifug
ac ting
Ġintrac ranial
Ġins ights
oin ts
Ġmul tiv
Ġpredominant ly
Ġarchite cture
Ġexplan ation
R N
ust om
ocy te
R es
ĠS W
Ġmamm alian
s ur
ous tic
ol idation
Ġembry onic
Ġsim ulated
Ġrang ing
Ġe ti
ĠD RG
om ing
Ġh ind
Ġr ank
Ġj oint
m PFC
ĠT ime
ĠC ar
Ġequival ent
Ġinvol ve
ĠF our
Ġpat ch
ĠP SD
or n
Ġl isten
Ġincub ation
Ġdef ault
Ġpur pose
ul i
ĠW il
E L
Ġexp ans
ĠH igh
ac he
ul atory
Ġcl osed
F S
Ġep it
Ġconsequ ence
Ġfron to
op er
Ġsub s
pre ad
Ġclass es
ĠNA c
Ġvis u
Ġpron oun
a i
der ly
Ġgangl ion
Ġcomp ris
Ġpathoph ysiology
Ġcall os
Ġ7 2
D I
igh ting
al dehyde
Ġrecei ving
ĠRec ent
C om
Ġmedi ate
Ġc ode
Ġdepend ence
Ġpass ive
Ġdimens ion
Ġtransf ected
Ġad en
Ġhe at
Ġ( <
ĠC V
p r
Ġdi rected
Ġsim ulations
ĠG W
Ġmem ories
Ġsimilar ly
Ġphenomen on
Ġfunction ally
Ġimplic ations
met hyl
Ġexperienc es
ĠSN Ps
mor tem
ĠR el
Ġso le
n at
ĠT aken
Ġth rom
il tr
Ġcon v
ul se
M CI
P re
s k
m ed
Ġrati os
ĠP L
ophil a
Ġpla ques
otyp ic
Ġb irth
H R
7 7
ro tein
Ġto ler
Ġg e
os ine
Ġutil ized
ĠS OD
Ġh ard
Ġup regulation
ĠE P
Ġresid ual
ul ties
j e
Ġstandard ized
ĠG aussian
Ġinstruc tions
Ġket amine
Ġman agement
Ġpromo tes
4 00
Ġpan els
Ġ1 50
ros ophila
Ġminim al
Ġin n
Ġvary ing
alys es
Ġanesthe tized
Ġantidepress ant
Ġdef ine
Ġcl ar
Ġcol le
Ġrepe at
Ġpolym orph
Ġt ens
aren ess
m aking
Ġneurotransmit ter
am ide
v ity
Ġs ense
ĠB ay
re ased
Ġpul ses
Ġinterf erence
ll ig
ĠI CA
Ġdiabe tes
Ġk ind
ag en
Ġd entate
ĠA lex
in i
ĠD TI
Ġon es
um m
O P
an o
Ġsl ope
pos ition
uls ive
l isher
Ġimpro vements
Ġsupp ress
as hed
Ġremo val
Ġmanip ulation
b and
9 2
Ġaggreg ates
Ġregen eration
ĠB o
Ġlarg est
ĠM odel
ta u
em a
I M
ri atal
l ur
Ġassess ing
cent ral
Ġm im
Ġd rop
Ġfundam ental
Ġper fusion
Ġcarri ers
ĠA V
Ġbehavi oural
ĠF unctional
ĠNa Cl
tif ied
Wh itney
II I
ĠG P
Ġh r
ĠAddition al
Ġvesic les
u ing
ĠI s
Ch R
Ġsmo oth
ampl es
troph ic
ĠS ur
ĠP earson
7 3
Ġexpl oration
Ġd imin
Ġfluctu ations
5 1
âĢ² -
ĠM ann
Ġprec ision
Ġd ot
Ġcommun ity
Ġepis odic
ol l
Ġcomprehens ive
Ġel derly
Ġavoid ance
ĠR P
ĠS igma
tribu tions
at o
ĠN E
Ġintro duced
p ly
Ġrec urrent
ĠCh ina
Ġsuccessful ly
ra di
Ġw all
Î Ķ
il t
Ġ ubiquit
Ġbehavi our
I s
Ġdimens ions
G L
p inal
sp ring
Ġvess els
Ġparadig ms
Ġfrequ ent
Ġmembran es
Ġadv anced
Ġmach ine
Ġrel ap
Ġdi ag
Ġalgorith ms
Ġknock down
tero l
tiv eness
oc l
Ġmen tioned
ĠRO S
Ġsh ock
Ġhy brid
Ġoverlap ping
Ġdec isions
Ġcaud ate
Ġmin d
; =
Ġtermin al
Ġpronoun ced
Ġprob ably
gr amm
ĠO r
Ġex clus
as ter
n t
ĠM g
Ġcircuit ry
otherap y
truct ural
A ld
Ġd yn
Ġtrans c
Ġsubstr ate
Ġinterpre ted
ati ves
Ġcons truct
Ġgran ule
Î¼ M
ran e
R A
9 1
Ġsound s
Ġmotiv ation
ĠT au
b ur
ĠT E
MS E
v itrogen
ĠM od
Ġresour ces
Ġscal p
Ġfew er
Ġtraject ories
Ġins ight
Ġqu al
Ġdiffic ulties
ĠI S
Ġwid th
Ġreflec ting
ĠI Q
Ġpath ogenic
Ġp seud
con nec
Ġavail ability
od ynamic
Ġarrow s
Ġemo tions
k ines
Ġf old
oph ys
Ġneuro science
Ġtranscri pts
gl ia
p i
D G
Ġneuro to
Ġimmunore activity
ro ll
Ġdesc ri
Ġsurround ing
Ġc ustom
Ġep ig
Ġro t
Ġactiv ations
Ġexam ining
Ġcoord ination
ĠD rosophila
ist ant
une us
8 7
ĠCom pared
; &#
Ġel imin
Ġm ir
Ġcardi ac
Ġmin utes
h o
Ġrepro duc
p tive
Ġcomp osed
Ġmid brain
Ġsaf ety
Ġattribu ted
s te
Ġadap t
A CC
Ġa ir
Ġner ves
Ġregard less
ĠM O
Ġdec oding
se lec
Ġw ake
r us
ch ang
Ġlik elihood
Ġquestionna ire
Ġga ze
ĠC y
Ġw ar
utam en
H I
Ġwh y
Ġthe r
Ġke pt
Ġab err
affec ted
00 2
Ġag ents
Ġdri ving
lur ane
% ;
Ġsetting s
Ġexpression s
ul ative
Ġmod alities
ĠN L
Ġstar ted
Ġgl ia
Ġco ver
Ġtraject ory
lo ad
ĠO P
to tic
Ġeffec tively
Ġn avig
Ġinf iltr
Ġemb ed
Ġconsis ts
ĠD r
Ġb ase
athe tic
Ġpepti des
Ġmin or
G D
Ġsecre tion
Ġsepar ation
Ald rich
Ġtre mor
if t
act in
Ġinstruc ted
Ġt et
Ġpict ure
M K
Ġpre gn
Ġiss ues
Ġresp onding
Ġbre ak
c ognitive
Ġ1 000
Ġg i
Ġnicot ine
Ġbenef its
Ġwid es
ĠNMDA R
ĠO b
yel in
Ġcoun ts
Ġ(âĢ ľ
Ġex tra
ĠIF N
Ġrun ning
5 2
f ort
ĠF S
Ġwides pread
ann ed
Ġsh ap
Ġex traction
ĠG ene
Ġextre m
ĠT g
bl ack
Ġhemisp heres
;= &#
her ry
Ġlack ing
h oc
ĠTh ree
ĠST N
Ġrele ased
Ġspati ally
Ġcho ices
ĠA L
ĠFig ures
os ing
Ġmon th
Ġnorm ally
c a
vers ive
Ġselec tivity
Ġinvestig ations
week s
Ġqu ad
ĠTu key
Ġan sw
Ġc age
Ġconsis ting
Ġloc omotion
e ur
k er
as ic
Ġcor pus
Ġapplic ations
ĠS w
Ġas semb
ĠM C
oster one
ĠM B
ap an
Ġoff spring
Ġpredict ors
Ġc ir
Ġc am
ĠM ulti
Ġnecess arily
Ġcomp osition
Ġl ist
ons et
in hib
Ġdepri vation
ĠCon clusions
jug ated
Ġassum ed
Ġinde ed
Ġother wise
Ġnormal ization
immun e
t rom
. âĢĿ
an ding
ienc es
con taining
t arget
Ġgeneral ized
Ġafferen t
## ###
Ġn a
Ġro str
Ġneuro f
Ġtra ff
ĠD ise
Ġcontribut ing
Ġp utamen
Ġto ok
n ce
Ġisol ation
ĠB ar
li e
Ġc asc
Ġsynchron ization
unt ary
Ġdemonstr ates
/ -
ĠEA E
6 1
Ġex ist
Ġf etal
iven ess
con dition
p athetic
Ġp el
Ġrepeti tive
ĠSub jects
Ġk it
Ġp le
ĠCon tributions
Ġg ut
ĠC are
li k
st ance
Ġg as
Ġimmedi ate
Ġoscill atory
Ġclass ifier
Ġabs ent
Ġlimit ation
ĠN T
Ġag es
Ġdeple tion
Ġtraum atic
ĠP e
Ġconclud e
Ġto o
ros pinal
Ġtrans pl
Ġne ither
ĠH uman
Ġcontext ual
Ġyield ed
Ġrevers ed
Ġro ut
Ġ2 9
Ġmod ifications
Ġm akes
8 3
Ġtransform ation
Ġapp lying
Ġac oustic
Ġloc us
Ġcre ate
ĠE uro
oles terol
ĠN C
Ġin activation
ad ren
Ġreach ing
Ġsub c
Ġcy cles
Ġheterogene ous
t wo
ĠIC H
ĠT P
AP I
Ġsqu are
Ġun ex
ens itivity
Ġneon atal
Ġr TMS
u ity
Ġfree zing
Ġem pir
Ġto uch
ĠM G
Ġpl ane
Ġexpans ion
ochem ical
Ġnam ely
os c
Ġinf usion
D S
Ġke ep
m atic
Ġwe ighted
Ġcompound s
as tic
ag ent
Ġp ure
Ġc aspase
h inal
Ġof fer
ĠM at
for ward
s ample
ater ally
Ġ3 3
N o
Ġn ine
Ġbel ong
Ġclass ical
Ġph ag
ĠM AT
Ġproxim al
Ã ©
Ġtw ice
ĠA F
C herry
c ox
Ġsk ull
O ne
Ġre activity
ĠT LR
ĠI R
Ġch ance
ĠN ext
Ġcorrespond s
Ġtra it
lec ular
iti zation
Ġwh isk
Ġcann ab
ful ness
ĠEx pression
Ġsupp ressed
kin je
Ġcolle ag
8 4
5 4
; -
H P
Ġre duc
Ġco il
Ġconstruc ted
Ġmod ule
Ġt ext
ack ground
Ġc DNA
Ġhom ogen
it ored
Ġs uffer
Ġrepor ting
ter ing
Ġus ers
Ġgen otypes
ĠL H
Ġcon gr
Ġt onic
ong ru
Ġcriter ion
p end
Ġs or
rib ed
om ics
Ġhyp oxia
0 9
ĠJ apan
m ing
Ġfo ot
Ġval ence
Ġaw areness
Ġp all
Ġhighl ighted
Ġtranspor ter
ap ping
a id
Ġsp lic
Ġper mut
on ical
Ġre n
Ġt actile
Ġenc oded
ti a
Ġreconstruc tion
ĠB P
Ġfe el
al y
id ine
sec tional
Ġneigh bor
h aps
R ec
ĠAlex a
Ġe cho
ak er
6 9
tim ately
Ġsul c
Ġrecom b
Ġmiss ing
Ġcolleag ues
er ge
Ġc at
am b
Ġdep osition
Ġm other
Ġmon itored
Ġs uit
Ġpre ferred
ĠU S
Ġchallen ges
Ġrep air
is ation
Ġex ceed
c ting
M s
Ġembry os
ĠC G
Ġunder lie
Ġrecogn ized
8 2
ĠBe havioral
Ġh app
Ġreas ons
Ġautom ated
Ġpreven ted
ĠExperim ental
Ġv en
Ġextens ion
A t
Ġacid s
et hyl
B R
L AB
Ġfeed ing
Ġneuro bi
et ing
ĠM a
Ġsu ic
ĠAss ess
Ġwa ves
v ate
ĠT ask
7 4
ĠM c
Ġg est
et te
ti tion
Ġgl ass
Ġoligodendrocy tes
Ġmon key
hem isp
en ing
r ant
Ġpict ures
ol s
re ported
Ġmi RNA
cox on
M E
Ġtrigg ered
ines e
Ġne ver
las ts
Ġcongr u
er vation
Ġmultiv ariate
Ġadoles cence
Ġeas ily
ĠS R
l ob
Ġman ual
Ġem phas
Ġrostr al
Ġdom in
7 9
Ġvalid ity
Ġ ice
Ġman ually
lys is
Ġunder go
Ġpre clinical
Ġro tation
Ġtoxic ity
Ġvisual ized
20 2
N OS
Ġconscious ness
ĠG C
Ġpl an
T her
pos es
Ġmi RNAs
Ġsynap t
oti de
Ġb il
ro id
Ġrec ip
Ã ¼
Ġlar v
Ġsom atic
Ġpredict or
Ġang i
Ġconduct ance
ĠÂµ m
S h
Ġtra ditional
ĠS yn
ĠBay es
ro d
Ġb und
Ġaut onomic
Ġexten d
y cin
Ġ6 4
Ġf avor
Ġneurodevelop mental
Ġ3 1
Ġchem ical
Ġrun s
es ides
7 1
c am
he t
as h
ne gative
Ġtheore tical
Ġdescri ption
form ed
ĠIm aging
ĠEuro pe
port un
ch ym
PS S
ĠR EM
Ġlaten cies
b re
5 9
ĠPur kinje
ĠG o
Ġartic les
trac ted
ic a
Ġk Hz
inv asive
Ġm l
Ġsub type
ĠB MI
Ġg ive
ĠUn der
l ight
Ġen roll
Ġo uter
Ġsw itch
Ġscen ari
as eline
Ġslow er
k s
Ġre tention
Ġli ving
Ġcap able
Ġmoun ted
ĠM MP
Ġexcess ive
Ġob vious
ĠP N
z en
ĠO l
b s
- ,
Ġdefin ition
uff ered
ĠDL PFC
p op
Ġinter face
Ġ1 20
Ġcor onal
ĠM EP
ten cy
Ġmo tif
Ġb acter
Ġocc up
Ġvis ible
kele tal
Ġgrow ing
Ther mo
Ġf ine
Ġmain taining
Ġcons erved
Ġs i
Ġb out
Ġmolec ule
cep tive
es ted
ibr ation
Ġgre y
ĠL RR
ĠG R
Ġsw im
Ġelectr on
Ġen ab
D a
Ġneuroto xic
Ġpack age
m en
F R
Ġen able
ĠCh inese
Ġconst rain
Ġaccur ately
8 1
Ġwor se
as te
Ġdeg rees
Ġthre at
Ġcallos um
Ġc atal
Ġex clusion
O X
ir al
Ġvect ors
Ġsuper f
Ġradi al
Ġqu ick
Ġop portun
ro b
Ġlig and
Ġdisrup ted
ĠEr ror
ĠT A
ĠS MA
Ġcon clusions
P ar
Ġpar a
Ġcon ceptual
Ġpool ed
res olution
Ġfore brain
Ġiso forms
ys t
hem atic
Ġun ilateral
Ġimag ed
Ġcalc ulate
Ġmicro bi
ĠB CI
g ent
Ġun paired
Ġlimb ic
Ġmod ality
Ġvent ric
Ġsummar ized
Ġillustr ated
a ved
tis ol
Ġasymmet ry
ot a
Ġdecre asing
ir us
D P
ar p
Ġtechn ology
Ġrepeti tion
ex pression
H S
st ain
ĠR G
Ġrevers al
ari ties
Ġvir tual
Ġa versive
Ġcap s
ĠA I
Ġins ide
Ġdem ographic
B e
Ġauth or
Ġg el
Ġimmunohistochem istry
Ġchallen ging
Ġhypothes es
Ġcir cles
one ur
Ġmat ching
Ġpoor ly
Ġatt ack
ĠC ognitive
ĠPro tein
he ad
Ġver te
Ġh ub
8 9
Ġintens ities
Ġsubgroup s
S c
tific ial
Ġcardi ovascular
ig en
min istration
T L
Ġan not
ĠM CA
ugh t
ens us
ar acter
ĠC enter
r s
Ġepoch s
Ġmod ulating
Ġdel ta
Ġdil uted
Ġimpl anted
ch annel
c are
um ulative
s ensitive
Ġpotenti ation
en tially
Ġen ough
te ch
ĠM L
Ġcons olidation
Ġb one
Ġcapt ured
Ġno tion
Ġpro spective
Ġ2 50
er ating
Ġvess el
Ġcereb rospinal
Ġvisual ly
Ġf asc
Ġad hes
ip ped
Ġpor tion
Ġsim ply
ĠI N
Ġgro und
Ġsym met
l im
Ġ âĢĲ
Ġexam ples
ĠDise ase
ar se
Ġopt ogenetic
ĠSub sequ
ĠE S
com p
Ġexec ution
G N
Ġprecurs or
Ġac ts
Ġpres um
Ġpredic ting
Ġcomb inations
Ġmod ules
inc luding
Ġmix ture
ed ial
Ġcoun ted
Ġn one
ĠC x
p red
Ġhe nce
h yp
Ġgen omic
Ġautom atic
ĠH IV
ous ly
Ġag ent
Ġpun ct
all ing
Ġinte llig
ens ity
Ġus es
ag it
A m
Ġinc ons
Ġd ots
Ġl and
Ġal igned
ĠM NI
Ġab use
Ġmid line
Ġm ot
Ġelectro ph
Ġcaud al
Ġdev ices
ĠE p
er ase
ol ip
Ġa way
Ġw estern
ple te
ĠRes p
Ġsub reg
Ġex er
Ġsubstan tially
ĠM F
Ġw ays
g a
ĠCB F
Ġobes ity
Ġremo ve
ĠAc tiv
Ġcaus ing
ĠÎ¼ l
Ġimmun ofluorescence
Ġimpro ving
Ġch olesterol
ĠS m
Ġminim ize
Ġs n
ĠTre atment
ereb ral
Ġ( âĪĴ
Ġsh are
out h
T g
Ġhypoth alamic
stim ulus
Ġfamil ies
Ġ6 5
in ic
Ġlo op
Ġresid ues
d ata
Ġsup plementary
LI SA
ri o
Ġparticip ation
Ġgo at
Ġmetabol ites
n on
Ġreduc tions
Ġat ax
d T
Ġsmo king
ĠP rim
ĠGlu N
ay er
ĠE lec
emb rane
ici ent
ĠH Cs
ĠA x
row th
gl ial
Ġ â
Ġbec omes
Ġadd ressed
Ġmat ch
b umin
Ġd B
Ġcovari ates
tit ative
Ġac tin
Ġsub stance
id em
ti tive
Ġ3 4
ĠmT OR
ĠCon versely
Ġhab itu
Ġk ern
Ġdisc on
00 3
ĠIn f
Ġrhyth mic
Ġdec ay
Ġex tract
Ġprob es
me as
Ġle ver
Ġdep olarization
x b
Ġf ish
ĠT S
Ġneur ite
Ġn ons
as ome
ri um
Ġjud g
Ġste ad
Ġlog istic
G T
Ã ¶
Ġindic es
ĠF DR
Ġhom o
Ġ rib
ric es
Ġele ment
em ory
Ġgl ut
Ġepig enetic
icep tive
Ġbur s
Ġreward s
Ġphosphory lated
Ġad equ
Ġaberr ant
Ġor al
Ġneuropsych iatric
Ġcompart ment
oun ts
Ġopi oid
ĠB ackground
agit tal
Ġneuro physiological
: :
op a
Ġgu ide
Ġ '
t ask
N K
Ġul tras
Ġmicro tub
Ġdep olar
Ġdr am
lik ely
le ts
i j
O C
Ġsacc ade
Ġparticip ated
b on
Ġlow est
ĠN ew
Ġan eur
Ġv ocal
Ġcl ock
Ġreinfor ce
os ts
as ticity
enc ies
ĠMe as
Ġimmunos taining
ol um
Î¼ g
ĠLRR K
el ves
Ġinterpre t
Ġseg reg
Ġhem odynamic
ĠGS K
om as
n etwork
i tions
P T
Ġdisch arge
d ark
un n
Ġun iform
Ġp olar
ĠA Q
Ġafferen ts
Ġreg istration
Ġaneur ys
rd U
z er
ĠD I
ĠO T
i ke
Ġwindow s
ĠNeuro log
Ġin jured
Ġimag ery
A r
um ber
ĠWith in
ĠG raph
Ġfe as
Ġche mo
ch ange
Ġhyper tension
Ġprom oting
Ġsole ly
f rom
l ies
o E
Ġsuit able
ĠU se
Ġj u
Ġhorm one
Ġburs ts
di rected
er m
Ġt ight
Ġun affected
n g
Ġc ry
D s
Ġa ug
Ġaspec t
ĠB LA
Ġ4 2
Ġimplement ation
s in
ful ly
or ator
rit on
Ġassum ption
Ġpro duces
Ġcol l
ac ted
Ġinhib its
Ġtum ors
c ons
ĠS te
Ġindividual ly
Ġus er
Ġex istence
Ġchang ing
it one
Ġcontras ts
Ġsp ind
par atus
ic tal
Ġmat rices
Ġprogen itor
Ġar ms
Ġneuropath ic
l s
Ġp ig
Ġun f
ut ri
ĠIn dividual
Ġsitu ations
ĠN r
Ġinhib iting
ĠM ET
om ers
Ġsubstr ates
ongru ent
Ġexpl oratory
Ġcam era
Ġsp lit
Ġed ge
Ġaff inity
am ent
Ġadoles cent
ti g
Ġsc ored
Ġclear ance
ĠH I
Ġphot ore
ĠC L
Ġdem ands
Ġbec ame
on ia
l ock
Ġcor tisol
en g
Ġstate ment
Ġpost ural
et h
Ġmedi ating
Ġves icle
B C
Ġe c
ĠS F
A Î²
Ġpl anning
Ġflex ibility
d ers
ĠĊĊĊ Ċ
ogram s
Ġar tificial
Ġval u
ac r
Ġrhyth ms
C or
Ġfrag ment
Ġelic it
os a
Ġemerg ed
Ġt able
am ination
Ġcont acts
Ġcontex ts
Ġn ight
W I
Ġspati o
Ġex on
b ound
ĠT M
Ġcomplic ations
Ġfr ames
Ġuncertain ty
Ġstudy ing
A fter
ĠD API
ot in
Ġr ig
in dependent
O s
ĠAccording ly
u z
Ġax ial
k t
ĠO FC
Ġto m
Ġn ative
Ġet c
Ġrepor ter
Ġcompens atory
Ġdocum ented
orator ies
ly tic
cl ass
bor n
Ġis of
ĠRec ently
el ior
Ġn g
ĠO X
ĠP ub
Ġed iting
Ġvisual ization
went y
Ġconsider able
Ġneurom od
S ch
Ġdifferenti ate
Ġinter n
Ġ4 00
Ġexclus ively
Ġtraff icking
Ġepit he
Ġassoci ative
ĠF luor
Ġactiv ates
Ġepis odes
ing e
Ġeffec tiveness
Ġcharacter ization
enc ed
Ġequ ally
ĠAssess ment
P V
Ã ¯
DA C
Ġemerg ing
F inally
p oints
Ġqual it
ip it
Ġoc clusion
ĠA Ch
Ġv as
Ġf illed
Ġ %
ĠD R
ĠT riton
Ġdetect able
ĠI ba
resp onse
Ġprec uneus
a ro
un te
v ices
ĠWil coxon
Ġmodel ed
ĠG u
Ġadd iction
Ġstrain s
ti d
Ġsitu ation
Ġenviron ments
ess ion
F os
n ia
Ġm arg
Ġastrocy tic
Ġcomplex es
Ġlit term
ĠP sych
er ve
Ġpup il
Ġs at
AP P
Ġdys regulation
F T
heren t
Ġhead ache
Ġfit ted
Ġmod ification
Ġalter ation
Ġdiscre te
h uman
Ġlarv ae
Ġat ypical
th reshold
vent ricular
Ġdors olateral
Ġun likely
Ġsur prising
Ġ5 5
control led
v ical
Ġen semb
Ġcompris ed
Ġdr inking
Ġshif ts
Ġdisturb ances
Ġbin ary
n ed
ĠT T
Ne uro
ur ally
Ġam elior
ĠWM H
ĠF R
âĢĿ )
Ġop tion
Ġenzym es
Ġi ter
Ġdi ver
A c
Ġre tic
Ġneuro trophic
ĠM or
Ġn an
Ã¯ ve
path y
s qu
Ġautis tic
Ġro ot
ox ide
ĠD ue
Ġreve als
Ġre actions
Ġgener ating
ect or
h igh
Ġop tions
acer b
Ġhemorrh age
ĠD N
Ġmot oneur
ĠH EK
Î¼ l
Ġrem ark
Ġab ol
wh ich
Ġeti ology
Ġphosph ate
c it
I CA
Ġaw ake
k B
Ġmedic ations
Ġbound ary
Ġinte res
imin ary
Ġw rote
ĠSN P
AN OVA
ĠF T
Ġpublic ation
Ġt en
ĠSc hematic
ĠTechn ologies
Ġdiff us
O T
Ġcorrect ly
Ġent ry
n es
ĠE M
k al
Ġappear ance
Ġcons ensus
Ġconsis tency
Ġnew ly
ĠmGlu R
ur ine
ros ine
sc ore
Ġcytoplas mic
D H
Ġsol utions
Ġlo o
Ġ3 8
im ilar
Ġhous ed
Ġst atic
Ġthe ms
Co V
Ġsp in
B s
s ided
cept ors
ĠEn gl
ĠF M
Ġv ag
Ġthems elves
Ġsuper nat
g ated
Ġsulc us
Ġmyel ination
ell ed
Ġincreasing ly
qu ently
Ġsym b
Ġblock ade
ĠAm eric
Ġdetermin ing
Ġtre at
Ġdifferenti ated
Ġ9 6
Ġcontinuous ly
Ġsex ual
Ġproduc ts
osp inal
Ġsc ientific
Ġnear ly
Ġmul tim
ĠER K
ĠInstit utional
b ens
Ġrese mb
Ġbul b
ĠA UC
ĠK Cl
D e
ĠA IS
Ġes c
ĠGW AS
Ġex acerb
um p
Ġtend ency
Ġabund ance
atom ical
Ġin verse
tim es
i ef
epti de
M et
Ġsal ience
T BI
S Y
un ting
Ġh old
ĠM V
p m
Ġvol unte
Ġr an
ang es
ro zen
Ġneurotrans mission
Ġcomb ining
truct ure
Y FP
Ġvulner ability
h ion
Ġcirc um
Ġenhan ces
Ġl isted
Ġcan onical
n c
cl amp
yl ation
phosph ory
Ġform al
Ġutil ity
Ġempir ical
e lectro
te en
est he
Ġsch ool
Ġwr iting
Ġrece ptive
Ġn M
Ġpup s
ĠT C
ĠIn tern
Ġ( *
Ġmo ve
Ġpreced ing
ton ia
Ġactiv ating
Ġsol uble
Ġap ical
Ġsub mitted
if i
Ġmorph ine
ad ap
k y
Ġantag onists
Ġem ission
chang ed
Ġg ave
Ġoff set
Ġpropag ation
p hen
Ġy ellow
P ro
Ġmodul ates
selec tive
edi atric
Ġsynchron y
Ġins tit
ĠM E
ĠS ignificant
Ġdist ances
g ence
Ġam ounts
Ġnig ra
organ ization
Ġl ost
Ġp il
Ġtra vel
Wh ile
Ġpair wise
Ġadap ted
Ġar ise
hemisp heric
ĠR E
Ġim mo
Ġconc urrent
Ġhierarch ical
Ġprogn osis
Ġparen ts
y ll
Ġsup plemented
Ġpla que
Ġcoch lear
a fter
Ġreg ress
Ġinc om
def icient
Ġdete cting
a ut
ĠNI H
ĠMAT LAB
P ET
Ġdraw n
ĠSC N
ap pro
Ġselec t
Ġdiscre pan
Ġcare gi
Ġrep er
S p
Ġper haps
PS P
Ġre ly
Ġcompart ments
ĠT BS
y le
Ġag onists
s troke
ten ed
Ġm il
Ġaccum bens
pt in
Ġn arrow
Ġisof lurane
ĠC an
G s
ĠIm ages
ĠK it
Ġvol untary
Ġdepic ted
Ġgrad ually
ges ia
Ġcomp rom
m ouse
us cular
Ġdig ital
Ġdiag ram
Ġmarked ly
Ġartif act
Ġalle vi
Ġcontin ued
Ġrespond ed
eed back
ĠG AD
29 3
Ġdi versity
re p
b ottom
l lec
Ġstead y
Ġli ver
ĠCompar ison
Ġdevi ations
per itone
ec k
lor ide
Ġvi ol
Ġsim pl
Ġsampl ed
Ġcen ters
it ting
ar di
ĠLe ft
kele ton
par ametric
00 4
ĠTh ird
D es
ĠE T
ĠN etwork
Ġso ught
Ġp itch
ĠBayes ian
ati ble
s ocial
b eta
ĠE LISA
ĠRe view
Ġdown regulated
M o
Ġpl ates
Ġinf ected
ĠP H
ten ded
Ġneocor tex
Ġattem pt
Ġch ose
Ġul timately
Ġc old
eren ces
form aldehyde
ĠN D
ĠL ong
ĠH S
Ġder iv
ot ass
otass ium
Ġhom olog
pro tein
Ġdimin ished
or hinal
ĠV isual
ĠH yp
jec tion
Ġlob es
Ġpre m
Ġins u
Ġanti psych
Ġpip eline
Ġview ed
Ġed ges
Ġinf erence
em ic
Ġbi ochemical
in tens
enc ing
Ġhyper p
Ġsubstan tia
yn chron
T BS
Ġpub lisher
Ġhetero zygous
Ġgenetic ally
Ġl oci
wor th
com it
s ensory
Ġsign alling
p ulse
Ġpsych osis
Ġco v
Ġhist ological
Ġrel ate
Ġp A
oc ular
Ġsup plement
Ġtom ography
Ġdec om
B rain
ĠW nt
het amine
ucle ar
Ġfit ting
ĠR ight
ĠH ist
Ġextens ively
O n
Ġcomput ation
Ġanalys ed
Ġpres erved
Â° ,
p arietal
Ġreli ably
Ġconver ted
ĠR F
Ġtechn ical
al k
ros is
Ġche ck
ĠGlu A
Ġperme ability
id ent
T E
ĠLi ke
id ated
Ġfasc ic
U D
c re
Ġun able
Ġeng agement
Ġevalu ating
Ġle uk
Ġl act
Ġreplic ation
ĠD MS
ur a
ĠP CA
U N
Ġembed ded
ul ates
S O
Ġkern el
v ents
llec tual
Ġ( >
Ġfilter ing
w ord
ĠC urrent
p tions
Ġadhes ion
MK II
ĠSD S
Ġpara formaldehyde
Ġinter view
Ġconfig uration
1 50
Ġeng aged
str um
ple x
otoxic ity
he l
Ġexp on
ym ptom
Ġpro gramm
Ġth or
Ġrang es
Ġagg ression
ĠSA RS
Ġhomeost atic
Ġautom atically
ĠV ari
Ġang ular
Ġauto immune
Ġassemb ly
Ġcomprehens ion
âĢĿ ,
I A
et r
Ġrel ax
Ġsequ ential
ĠC onse
Ġperf used
qu id
ĠS ignal
Ġindic ator
ly c
ang le
ran k
Ġpre motor
ord ers
ĠE lectro
av age
A LS
et ine
Ġcer vical
n ers
Ġl ibr
Ġsystem atically
Ġin ducing
NI RS
l ife
Ġfron t
Ġstere ot
ĠB ut
Ġimplic it
Ġm om
ĠE ven
Ġver ified
Ġexclud e
Ġfacilit ation
Ġ) :
Ġsl ides
Ġprogen itors
Ġpre processing
ĠTh at
Ġun treated
Ġinter le
t or
ap l
Ġmethod ology
Ġc umulative
Ġtrans m
Ġsc ene
Ġeluc idate
Ġpre l
Ġmamm als
Ġdem yelination
Ġdis tract
n ic
ĠO ut
Ġprim ates
Ġ4 4
Ġsub pop
ĠM y
Ġreinforce ment
Ġ( ~
the tic
b ut
ad j
Ġpix els
Ġlab els
G R
Ġmagn ification
s s
Ġmon o
ĠD o
Ġcon e
Ġdel ine
h al
ph ase
Ġtub e
am s
Ġd ashed
ĠH A
Ġin jur
Ġsymptom atic
ĠT otal
Ġb ed
ar an
ic ated
Ġco vers
og lob
Ġquick ly
Ġv o
Ġad mission
L F
Ġdendri te
ul f
op rotein
ap h
def ined
Ġtransform ed
vail ability
Ġmim ic
uls ivity
Ġex ert
Ġpres ents
Ġspec tra
Ġeff orts
Ġsym pathetic
Ġd up
Ġt aste
Ġin ver
s ide
form ance
Ġconstruc ts
Ġhe ight
Ġper c
ĠEurope an
Ġload ing
or age
Ġsens ors
ĠE ar
Ġinn ate
um ination
Ġelectro encephal
Ġbil aterally
Ġadop ted
ear man
hy dr
Ġpl aus
ocl onal
gt hen
Ġswit ching
ĠF P
Ġe vo
ocor tical
i ra
ob ic
Ġsc hed
Ġcalc ulation
Ġco inc
o z
ĠMan y
Ġcon version
Ġsub tle
Ġdyn am
ĠR D
ĠT ris
Ġan is
h ang
Ġnon linear
Ġpoten t
ĠSP M
Ġiniti ated
Ġsenten ces
as ant
ĠP an
Ġanti oxid
umm ary
f low
Ġap paratus
) /
ang les
In vitrogen
Ġoscill ation
L i
ĠP E
Ġinte llectual
W E
Ġrang ed
p ens
ĠB rdU
Ġimpro ves
ĠG r
EG F
Ġmac a
The se
ĠS Z
ĠD em
Ġhall mark
atter y
ud e
Ġp otassium
Ġt ag
Ġneurobi ological
y rosine
ĠR R
ĠO CD
Ġnavig ation
Ġb order
of rontal
r ist
ĠM ill
ĠIn strum
Ġkine tics
id er
1 20
Ġex ogenous
Ġaver aging
Ġor bit
Ġr ich
Ġspec tro
ĠConse quently
id ering
Ġhyper activity
ati vity
ad a
Ġincor rect
Ġbut ton
lec t
Ġpresent ing
Ġbre ath
Ġblot ting
g u
Ġpermut ation
N E
Ġpreferen tially
Ġcon j
Ġenhan cing
Ġhom ogene
Ġpar cell
ven ous
Ġprim ing
Ġunex pected
os itive
Ġmedi ators
Ġbran ch
Ġac cept
ot omy
Ġcomplement ary
S E
ĠA ge
ĠK v
ĠSch w
Pre vious
Ġfocus ing
p H
os in
Ġinf ant
Ġen ter
c ribed
Ġlink s
Ġintra peritone
ter isk
Ġpur ch
Ġdys tonia
arg ed
Ġrelap se
Ġser ial
en z
ĠST AT
ereb ell
Ġpregn ancy
Ĩ Ĵ
ar a
om ato
D ata
Ġprote ction
Ġv it
Ġbran ches
s uch
Ġanaly zing
ne uro
Ġsuperf icial
Ġad ding
Ġref ers
Ġen l
ĠNe u
Ġprincip le
ĠT op
Ġenroll ed
Ġprel iminary
Ġoligodendrocy te
Ġex ception
Ġarter ial
Ġspec ified
Ġsp arse
on ly
Ġd im
ĠTRP V
Ġcon comit
Ġsur vey
Ġdeter ior
Ġcasc ade
Ġdiff use
Ġes tro
Ġinjur ies
umb ar
Ġc AMP
Ġth alam
Ġl ag
rection al
C G
Ġgl omer
Ġdec ades
Ġs atis
Ġvi ability
ĠL P
Ġresc ue
Ġbind s
M O
Ġoff ers
H ere
Ġsi RNA
Ġphon ological
Ġed ema
chol ine
Ġtrans duction
rom e
Ġc e
d h
on in
AC E
Ġpur ified
Ġp lex
ĠP Cs
Ġconfound ing
ĠC p
ers ion
ra bbit
r isk
Ġele vation
c r
Ġpart ly
Ġcirc le
Ġfre ely
Ġun changed
Ġch ron
2 50
Ġent orhinal
ip ore
ĠC at
Ġvulner able
Ġposition ed
Ġmus ical
ĠNeur ons
um atic
ĠV er
ĠM MSE
Ġmap ped
Ġph ysiology
Ġcereb ro
B l
Ġintellig ence
Ġrepl aced
g rowth
Ġretro grade
Ġqu ite
our ce
m us
pec tive
Ġcarry ing
Ġcondition al
ĠP SP
ĠP B
Ġmethod ological
li um
Ġdiss ected
resp ons
Ġp i
ĠĊĠĠĊ Ġ
ĠE ffects
i as
P h
dep end
PA R
stan ces
injec ted
ĠM ar
toc in
Ġbu ild
ĠR A
ER K
Ġoper ation
cri ption
Ġf us
ion e
Ġdens ities
Ġen ables
Ġabund ant
Ġgraph s
Ġl ing
Ġcomp os
ant a
ĠG D
u x
ĠSc ience
Ġb ins
ot opic
ĠM SA
Ġview ing
Ġg y
Ġw ors
Ġtransc ranial
lin ked
Ġaddition ally
ĠE d
Ġ3 9
Ġl ive
P BS
P ad
Ġf ed
op o
Ġt ip
et he
Ġtre ating
op rec
men tioned
) ]
ĠF e
ĠmT BI
e iss
w ave
ile pt
Ġdep ressed
Ġvolunte ers
Ġadv ances
Ġlim its
p ted
Ġinte st
E n
Ġconsid eration
Ġgra de
Ġpro ducing
Ġex tr
Ġn it
et t
ĠB V
tro cy
Ġcovari ance
Ġvalu able
f ord
ĠT ype
c irc
Ġac ting
ĠP F
pos terior
NM DA
all ed
ĠE V
at her
Ġst orage
Ġdep os
Ġinner vation
Ġth in
Ġd ip
: </
Ġro und
Ġdam aged
ĠG O
ĠSubsequ ently
odel ing
Ġoverex p
ĠS an
Ġdur ations
Ġregul ator
Ġpur poses
Ġdel ays
al ine
r act
Ġenc ode
Ġdown regulation
Ġdisc ussion
Ġcon duction
Ġapp ly
i em
Ġbel ief
Ġinfar ct
ra ft
O A
Ġg et
Ġgreat ly
Ġsacc ades
Ġf er
ig ible
ĠAQ P
Ġstimul ating
Ġinterneur on
ocor tic
u istic
w id
Ġout l
r ig
Ġsenten ce
Ġt el
Ġreconstruc ted
Ġpersonal ity
ĠĠĊ ĠĠ
ĠE l
c ol
Ġsp or
Ġiso form
Ġcol on
H L
ĠN K
Ġtract ography
B io
ĠS PSS
no ise
Ġpath ologies
Ġsusceptib le
Ġpunct a
Ġunder p
Ġcentrifug ed
cl er
T M
ĠS B
Ġphen otypic
Ġ4 3
Ġschem e
Ġpower ful
ro tid
Ġneut roph
ĠE qu
op es
ach ment
Ġdist or
Ġsign ed
G ABA
l ar
ĠIn formation
Ġcl amp
havi or
D i
stain ed
ĠD IV
con jugated
ĠS G
I g
P er
un cture
k inson
Ġatax ia
Ġpro inflammatory
art ment
Ġequ ation
Ġpreven tion
ĠA A
il arities
Ġprim ers
ĠCh ild
Ġscal ing
Ġim bal
Ġh ost
Ġ4 6
Ġpathoph ysiological
ĠĠĊ Ċ
Ġex ists
Âµ m
Ġcon ce
Ġvalid ate
Ġchrom atin
all is
ethe less
ĠmRNA s
Ġorgan ized
Ġover view
ĠEngl ish
Ġt akes
ĠSo ftware
Ġmultim odal
Ġhor n
op y
Ġgli oma
ĠD AT
Ġdisc overed
Ġelec tric
iss ue
Ġretro spective
Ġcri tically
St ud
st rap
Ġn A
Ġfin ally
ĠSe e
Ġwave forms
Ġtransf ection
ĠS CA
Ġrequ iring
Ġfl o
Ġbound aries
co up
Ġintegr ate
ĠĊĊĊ Ġ
Ġguid ance
b ital
Ġre in
Ġverte br
in ary
Ġstrong est
Ġparen t
Ġmeaning ful
Ġli quid
Ġimm ature
roph ic
O ver
row n
Ġfr actions
cep ts
Ġcov ered
ia z
otrop y
Ġpix el
ot strap
ĠCl ass
Ġbe gan
Ġrecip ro
b p
Ġal ignment
ĠH DAC
ĠPK C
Ġhist one
Ġweak er
A p
et ry
Ġpsych opath
ĠIns tead
Ã ¡
Ġimp ed
ĠÎ µ
Ġg ame
G l
ĠI GF
ĠC F
Ġcongru ent
as ion
ĠNL RP
Ġimpl antation
ĠS l
ap ine
I ON
ar tile
et ail
Ġstud ents
Ġp al
Ġmanifest ations
yl in
Ġbe h
Ġmechanis tic
ĠAl tern
Ġact ually
Ġrecomb inant
Ġl ib
ig her
ĠCon nec
AT P
ĠLab oratory
Ġapop totic
Ġbelie ved
Ġd f
Ġchrom osome
Ġflu ency
Ġt ones
Ġle ak
H b
ĠG reen
l ocal
Ġfig ures
E CT
Ġtool box
Ġlaten t
ii i
Ġvis it
b all
Ġmill ion
tribu tion
Ġt yrosine
ĠC am
Ġnoc iceptive
Ġtransi tions
Ġrespons ive
ĠA verage
ic ular
Ġfl ip
abil istic
Ad ditional
ĠV S
ĠThe ir
ĠIn hib
ĠĠ âĢīĠ
Ġhyp ers
âī ¤
Ġcolum ns
Ġtoler ance
dom ain
M AP
Ġneuro cognitive
F TD
por ting
ystem s
Ġperturb ation
bl ast
ĠR ats
ĠL im
P M
v an
de mic
end s
k ine
ĠPr P
wh ite
ic y
Ġres to
S m
Ġprop rio
Ġser ved
Ġaccoun ted
ĠImage J
ĠE m
Ġreturn ed
car di
Ġparen chym
Ġh our
id den
ĠM N
ĠN or
Ġf ly
Ġreview s
Ġcortic o
Ġform er
Ġmicrobi ota
Ġc osts
bur g
Ġenc oun
Ġwor th
V S
d el
Ġmedi ates
el ing
pl ay
Ġset up
Ġadv ance
Ġdiscrimin ate
Ġs agittal
Ġan tero
Ġneuro an
l ip
Ġprof ound
Ġillustr ate
Ġadvant ages
rop y
Ġconcer ning
ĠA ut
Ġhel d
Ġtrain s
Ġneighbor ing
ĠInc reased
Ġread ily
ome ter
ĠD E
Ġinflu x
Ġtrigg ers
ex posed
un k
g raph
Ġabs tract
Ġtens or
PD RS
Ġra ised
Ġincons istent
L s
Ġhabitu ation
Ġanti gen
ĠE ffect
Ġse mi
Ġindic ative
Ġp aw
ĠCh anges
Ġmed ull
est ing
reg ma
l ong
Ġpre natal
Ġdup lic
in us
Ġpurch ased
em ber
al ing
Ġbelie ve
Ġpall id
Ġs yll
ĠT ra
ad ing
ol ab
Ġspor adic
ĠCR F
Ġmanip ulations
Ġl umbar
Ġemerg ence
ĠL V
ĠDi agn
Ġen tered
Ġbi ases
v ol
Ġpredic ts
Ġca rotid
Ġp ediatric
Ġrecommend ed
ĠM K
Ġatt ached
Ġorbit ofrontal
Ġn utri
Ġmir ror
ĠÏ ĩ
Ġmo ved
Ġmon oclonal
Ġtransl ational
ĠO FF
Ġdispl acement
Ġinfar ction
Ġimp acts
opath ies
ol gi
ad i
Ġexpl oring
up uncture
ĠSystem s
Ġplas tic
om nia
r ate
Ġsubreg ions
re view
rel ations
Ġcirc ulating
m iss
ĠDO I
yl ated
ĠC CL
Ġun related
pend ed
st andard
cep ted
Ġlas ting
h r
Ġf rozen
Ġres il
Ġopen ing
Ġextrem ely
AG E
ĠA G
Ġac et
ĠRO C
ĠERP s
Ġsol id
ĠR ating
ĠQuan titative
GF R
Ġamb ig
ĠCo hen
ĠSA H
l a
Ġfamil ial
Ġadjust ment
ĠL TD
. ).
us ting
W ith
Ġoptim ized
und red
Ġhighl ights
ĠDifferen ces
M an
ĠY et
Ġampl ified
ĠÎ ´
ap ed
at ase
Ġline age
Ġmon ocytes
Ġnovel ty
Ġin herent
ĠRG Cs
Ġdifferent ly
Ġg ating
is ter
Ġrem odeling
ĠP G
Ġprogram s
Ġfor ced
Ġinfiltr ation
Ġneuropath y
Ġr ated
Ġplace ment
T r
ĠG E
iv ariate
Ġprevent ing
ĠMulti ple
Ġhybrid ization
Ġres ol
Ġeas y
F urther
ĠO B
H M
in jury
Ġcut off
Ġinsu fficient
ĠN AD
wh at
ograph ical
Ġbi o
ĠV M
Ġrespons iveness
las ting
ĠLab oratories
ĠS ingle
id ing
Ġesc ape
Ġm urine
ys te
pec ific
ĠE F
ic ine
Ġp ed
Ġr ules
Ġhyp o
W hen
Ġcomp rising
p c
Ġor gans
Ġdesc rip
obl ot
Ġreplic ated
ack son
Ġsaf e
Ġcount ries
Ġseroton ergic
ol m
asc ul
st age
ĠAn y
p ost
Ġinc ongruent
Ġv an
v a
S MA
osp atial
re tin
act or
A AV
Ġaff ili
Ġl en
Ġreg istered
com pass
Ġaden osine
dT omato
ph oton
ra ys
ĠI ll
ĠNeu N
i ro
Ġdispl ays
C NS
Ġsign ature
rus kal
ad ministration
Ġab lation
ĠIntern ational
Ġs ed
ĠH P
Ġadequ ate
ĠAr c
otyp ing
Ġrec overed
Ġver ify
ifi ers
wid th
t raining
ĠA MP
b il
ĠW here
ĠB F
ĠMET H
ia tic
he ads
Ġwave form
Ġre organization
s ignificant
or f
in dividual
os ity
til ity
Ġsul f
ĠL ew
oc rine
Ġlob ule
ox etine
Ġland mark
t rained
v in
Ġprepar ations
Ġn et
ĠF X
ros cop
Ġfas hion
ĠS M
ĠThe r
Ġspecial ized
T S
Ġconf lic
Ġdesc ending
ĠIF G
Ġ8 5
Ġweak ness
Ġplaus ible
l ength
Ġprob abilities
Ġsp an
al pha
Ġup stream
Ġcen tered
Ġdys lex
Ġappro val
Ġseg mented
Ġexp anded
gl uc
Ca MP
ĠQ u
Ġcogni tively
ĠR em
ĠG BM
Ġincom plete
Ġpreval ent
Ġ4 1
P H
ut aneous
ĠM aterial
Ġstimul ate
p atient
ĠÏ Ħ
Ġplas mid
Ġubiquit in
Ġpost operative
ĠL A
Ġaim s
Ġfrag ments
ĠB esides
e y
Ġpar s
W allis
T s
Ġread s
Ġaccel eration
Ġna Ã¯ve
Ġd ye
x iety
ĠN ormal
ĠĊĠĠĊĊ Ċ
Ġrec over
OR T
ĠS ections
ĠS NA
Ġsecond s
ĠDep ression
ĠF ree
G al
un it
Ġcoordin ate
Ġattenu ation
re y
ĠI SI
Ġoxy tocin
ĠI tal
a uc
Ġen compass
âī ¥
P K
Ġposs ess
r ical
Ġindic ators
ap it
Ġcortic ospinal
ĠU p
BD NF
or i
Ġlys ates
Ġassum e
Ġsuffer ing
ĠA vailability
Ġconfirm ing
Ġtr acing
Ġins pec
Ġover come
c he
Ġmom ent
Ġcommun ic
ĠDe velop
Ġbu ilt
Ġs ten
ĠMP TP
Ġsee king
Ġsil encing
Ġvent ricular
ĠBo ard
Ġspatio temporal
ĠH EP
ĠG L
Ġsubset s
od opa
Ġsyn thetic
Re g
Ġcomple tion
ore r
iti zed
ocy tic
U n
Ġhomo zygous
ĠMAP K
c oding
Ġsim ilarities
rob lasts
ĠS tr
ĠP PI
Ġcol ors
ĠD el
Ġ25 6
Ġc is
Ġep ilept
Ġdistin ction
Ġconclud ed
d ec
Ġstren gthen
Ġfus iform
Ġthe ories
Ġrout ine
Ġclar ify
ĠTechn ology
Ġlitterm ates
O M
ici an
us h
Ġther mal
an ti
Ġnam ing
Ġcytoplas m
Ġcon trac
Ġent ropy
Ġrel ies
ĠT GF
ĠA re
Ġform ing
Ġor d
) )
h and
Ġsome times
Ġincl usions
Ġopportun ity
Ġperc enti
az ine
Ġlig ands
is ely
Ġmod est
ĠS Y
in oid
Ġinser ted
vi an
Ġser ious
reg ular
Ġb attery
Ġsubs tit
Ġflex ible
Î ´
Ġdiss ociation
wh ile
Ġcirc ular
Ġac cepted
ĠD ay
Ġmul tic
Ġalle les
EG s
wor ld
en ed
Ġkine matic
B ased
v odopa
Ġcon form
ĠV R
valu ation
Ġcon tro
Ġa phas
de m
Ġ4 7
Ġdiffus ivity
ĠL O
op sy
Ġdil ution
Ġstart le
Ġare na
Ġabol ished
y ot
Ġsens itization
pos ure
Ġm A
ophys ical
Ġtempor ally
ĠS ignific
+ /
N et
I Q
Ġtend ed
Ġconcomit ant
ĠD P
k i
ish ment
Ġde x
ĠH ar
T wo
ĠG ly
Ġbo otstrap
Ġs ong
ĠC e
ĠM ic
ine ar
Ġnumer ical
ĠP ath
em inal
Ġm ism
ĠF L
ĠAb cam
Ġsyn erg
Ġaud i
ĠH T
p air
Ġ2 000
ĠCh R
Ġfat ty
es pan
Ġlo ok
Ġsplic ing
d ose
S everal
ĠS K
c ult
Ġ20 20
ĠPro te
T au
Ġstri king
G M
Ġf NIRS
Ġimportant ly
vid ence
Ġprote ase
Ġcompens ation
ĠG LM
ran ce
ox el
Ġen velop
Ġtrans mit
EG FP
Ġ48 8
ĠB ra
ĠElec tr
00 6
Ġinter acting
Ġvisual ize
Ġcontr action
Ġinter fer
ap er
Ġins ular
I T
jec tive
Ġoper ating
Ġprob abilistic
Ġgu aran
Ġglyc ine
S er
Ġampl ification
Ġtr yp
ĠF TD
Ġpar kinson
Ġimp ulsivity
en n
Ġconj unction
Ġle x
Ġshap es
u kin
f ixed
han k
Ġh idden
Ġpre vents
acr ific
ti ce
ĠF l
Ġclin ic
m V
us ing
Ġblind ed
Ġy ou
bit r
D uring
ĠSC Z
st riatal
Ġproxim ity
Ġpr ac
Ġmem ber
ĠB r
Ġcompos ite
Ġdist ress
Ġwhisk er
Ġcoun ting
Ġintra venous
Ġwake fulness
Ġvolum etric
Res ults
Ġthrom b
Ġan tic
Ġpart ner
ward s
o e
Ġap art
Ġrequire ments
Ġcomput ing
ĠAn d
Ġcerebro vascular
Ġb all
hydro xy
ĠP y
h am
Ġpan demic
f r
Ġreplic ates
Ġdiagn oses
ĠOn ce
ĠG A
iz er
ĠS troke
ĠInstrum ents
Ġ5 2
Ġphenomen a
e ffects
ti ll
ĠQ ues
ate st
Ġcom mittee
Ġs acrific
ĠRT s
Ġimpl ies
h anded
Ġstra ight
Ġh undred
ĠM it
Ġout growth
Ġtranscri ptom
CA M
ink i
omer ic
ĠR ab
Ġ5 6
Ġevent ually
Ġcle an
ĠDMS O
Ġv acc
ar ray
Ġcle avage
Ġju ven
Ġd ense
Ġ( Â±
M ed
plic ation
A SD
ĠG AP
Ġolig omers
+ </
Ġaccoun ts
els inki
ĠCor relation
Ġequ il
Ġcategor ical
ul ator
00 8
Ġscreen ed
g et
ĠL S
Ġcontin ue
Ġam p
Ġin e
it ations
Ġrecei ves
Ġlys osomal
Ġrestric tion
ac etyl
Ġhorm ones
Ġcor on
Ġneuroprote ction
Ġdet rim
cell s
Ġenc our
ut ing
Ġem pathy
f rontal
Ġsoci o
ird s
d a
gl ut
ĠS ocial
sc ores
Ġquestionna ires
Ġansw er
ĠT issue
Ġmel an
Ġcomp ute
Ġeng age
Ġsens ation
ĠActiv ation
ĠH elsinki
Ġhypothes ize
ĠM in
a em
Ġele gans
ĠR o
N ext
N N
ĠS leep
Ġdeg ra
Ġjunction s
Ġantioxid ant
Ġprote ct
Ġreplic ate
ĠMg Cl
orph ic
CA G
Ġ6 3
Ġproper ty
Ġcoch le
ĠR et
ak ers
Ġs we
Ġreason able
depend ence
Ġs inus
Ġperturb ations
Ġmicrotub ule
Ġanis otropy
kines ia
ig uing
Ġneocor tical
Ġlact ate
Ġsc iatic
ect omy
tr y
Ġcon ting
f l
Ġtranspl antation
Ġoptim ization
val idation
ĠNS Cs
G o
yl ase
ol uble
ĠD iff
Ġnor adren
ĠD D
ru z
Ġindirect ly
Ġb right
Ġg over
Ġgeneral ization
H e
R F
id ity
ĠSchw ann
ĠPr ism
ed ing
erebell ar
Ġgre atest
om al
Ġpresum ably
Ã ¤
od er
ĠĊĊ ĠĊĠ
Ġepis ode
Ġlif espan
ĠPrim ary
ĠAp p
ĠW ang
Ġn om
Ġsupernat ant
th al
Ġod ds
Ġc ued
Ġall oc
Ġconcer ns
Ġox ide
Ġventric le
ĠGen eral
ĠT G
Ġremo te
Ġf resh
Ġlisten ing
Ġpl ayed
Ġcalc ulating
Ġs hed
Ġcl on
Ġprec isely
v ice
Ġlex ical
ack ing
stim ulation
Ġinterf ere
Ġextre me
Ġspec ulate
Ġsal ient
Ġsuic ide
ad ed
ĠV PA
ĠStatis tics
Ġse pt
Ġgy ri
Ġparen tal
he ther
ĠF ox
Ġfacilit ates
Ġunder going
Ġacetyl choline
inhib ition
Ġprincip les
ĠAn alyses
Ġagg ressive
Ġcon tra
O L
Ġclos er
ĠEar ly
Ġpropor tional
ĠF US
Ġsc oring
Ġbroad ly
ĠWh ite
S ince
RI D
Ġa id
ĠSN R
Ġexperiment ally
Ġshif ted
Ġv aries
Ġel se
Ġgr ating
G en
Ġcirc ulation
Ġv ital
ĠL ast
Ġillustr ates
Ġnec rosis
Ġun ivariate
Ġlife time
Ġinf ections
S ur
ĠN GF
Ġremo ving
Ex perim
Ġpost mortem
ac ch
Ġdeno tes
Ġlet ter
ĠN H
ĠT LE
ĠL ED
Ġq PCR
C ell
arg es
ĠHEP ES
Ġfib roblasts
ent ric
Ġlimb s
Ġas c
â Ħ
A g
Ġte le
Ġmotoneur ons
Ġantag on
Ġmin i
Ġ201 9
Ġneuropath ological
Ġrepe ats
in te
ĠT F
Ġslow ly
Ġ ign
Ġpap ers
Ġmul tif
Ġnec k
ang er
C H
R ad
s m
ĠAss ociation
Ġscen es
g el
Ġexpl o
Ġbo ard
Ġr ins
ĠO S
ĠDifferen t
Ġfil es
Ġneurotransmit ters
ffec tive
dis c
ĠS amples
Ġexten ding
An other
ĠSp earman
Ġadj usting
ĠF I
Par ticipants
ro bor
Ġsecre ted
ere x
g ray
ĠF lu
Ġperipher y
Ġmen ing
li ers
ĠĠĠĠ ĠĠĠĠ
Ġco verage
chem ical
Ġencephal itis
il ding
Ġvisu ospatial
Ġexperim enter
ĠCl us
ĠPro ced
am il
Se q
Ġad ip
ĠCons idering
D O
Ġide al
Ċ ĠĠĠ
ĠP atient
Ġtransm embrane
Ġinter s
Ġle ptin
00 7
ĠV A
es e
Ġv ig
Ġpartic les
Ġlin king
Ġpers ons
Ġcop y
m Cherry
Ġpr ion
ĠH b
Ġop posed
us ive
d o
ĠG CaMP
adj usted
b oth
Ġlas ted
oxid ase
ĠC SD
Ġimbal ance
Ġsatis f
trac ting
Ġher it
Ġstrength s
i osis
Ġeth ical
Ġsevere ly
Ġfour th
ĠCa Cl
Ġcare fully
ĠG olgi
Ġstr ict
ĠR GC
Ġinf lamm
hem a
p f
re w
un ing
re port
Ġ idi
Ġdetrim ental
m er
ac ial
Ġconstrain ts
S ub
Ġanatom y
Ġconnect ome
vis ions
ame ters
Ġscenari o
V A
Ġtransi ents
t t
Ġpolymorph ism
ĠT em
lar ation
i od
ĠVal ues
) =
ĠMCA O
ĠNe ural
Ġconstit ute
iem ens
Ġd os
Ġpo orer
Ġneg lect
ĠC d
idi rectional
ĠL ow
m ill
Ġal ters
ĠCom p
ĠE E
ĠD unn
Ġfil ters
l PFC
Ġfraction al
Ġbl ast
Ġtr acer
Ġreveal ing
Ġpar ametric
Ġmod ular
Ġrecommend ations
Ġre vised
Ġar gue
Ġflu or
Ġdefici ent
Ġfascic ulus
es ter
Ġterm ed
Ġar bitr
ĠImmun ohistochem
Ġsqu ares
Ġm iti
Ġequ ipped
âĢĻ ,
is hes
Ġcross ing
ĠNeurolog ical
ĠM emory
rom edial
Ġgroup ed
Ġcomorbid ities
ip itation
Ġs ides
ot hed
Ġclin icians
D L
opath ic
GL UT
ur ning
Ġpar ah
ear ning
Ġill umination
ophag y
Ġrecord s
tion na
Ġpar as
Ġl ung
OH DA
y t
inf ected
Ġex change
Ġenc odes
am ily
ĠSV Z
Ġsup r
Ġro ute
Ġprim ate
Ġresc ued
ov a
part ate
Ġins omnia
ĠBe fore
Ġdig it
Ġun s
Ġem erge
Ġbroad er
Ġeffici ently
Ġbi ased
Ġprogn ostic
Ġv mPFC
Ġvit amin
Ġbe am
ĠOP Cs
Ġre tained
Ġatt achment
H o
ib rium
ĠD ef
Ġpi ec
Ġsign atures
Ġdomin ance
Ġd ed
Ġload ed
ess ive
Ġcannab is
B E
ac ute
Ġfl at
Ġgo als
Ġpur s
Ġtrig eminal
b ody
bal anced
ĠÂµ M
f il
ell ent
Ġgain s
GF AP
Ġhar mon
M L
neur onal
D BS
Ġprior i
f ig
Ġres ection
Ġno vo
os tim
F AD
ĠStim ulation
Ġad ren
Ġwork s
Ġclaim s
t ogether
Ġdeno te
Ġbeh ind
N R
ĠTher mo
Ġactiv ely
l en
idem i
H Cs
Ġpen etr
ran i
Ġinten se
Ġout puts
al low
ĠS ection
Ġtranspor ters
Ġpseud o
Ġsh arp
ĠH SP
enc es
Ġreview ers
op rote
Ġme et
Ġpro ven
ĠDec laration
Ġcor robor
Ġsyndrom es
ĠNR EM
stim ulated
Ġgas tro
LA IR
Ġsynthes ized
ĠV EGF
ĠT w
ffici ently
ens ive
ĠÏ ĥ
oc he
ro l
Ġcon cepts
injec tion
Ġbout ons
Ġche c
Ġsh RNA
Ġinter connec
G iven
] )
it um
Ġres olved
ran d
u ate
ĠB etween
t d
an i
Ġneur ites
ud itory
Î ©
cent ric
bre vi
c n
Ġwhere by
ĠR I
ĠSignal ing
ograph ics
Ġpromo ted
Ġg old
ĠLike wise
vi e
Ġt it
Ġinter acts
ard ed
Ġro ugh
Ġelectroph ysiology
Ġexhib iting
ĠLe vel
er v
Ġreason ing
Ġtre e
res istant
ĠM MN
Ġc KO
ĠI den
Ġmod ulations
id ates
ib ling
Ġrecogn ize
Ġconv olution
in ding
ĠE G
ĠAn ti
is c
ĠK ruskal
Ġsynchron ized
respons ive
Ġrare ly
A CS
ĠL ife
pe ak
Ġper icy
Ġst ret
ĠM OG
Ġ5 4
a ver
W il
Ġpart ners
f our
Ġre w
ĠS ix
Ġprojec ting
Ġpo le
ĠM otor
i able
ann ab
ĠAMPA R
Ġneurotoxic ity
ĠC ri
Ġdescrib es
imb ic
ith ium
ĠAltern atively
Ġattem pts
uc if
Ġar ri
T H
Ġexhib its
sup er
Ġz ones
ov ine
Ġb r
ĠWh ole
ĠRed uc
ol ation
W S
Ġworld wide
Ġdiscon tin
Ġcho ose
Ġcovari ate
Ġaphas ia
Ġp ri
Des pite
ĠH PA
A K
intens ity
ors al
Ġe ating
otyp ed
Ġinver ted
Ġbacter ial
Ġpolymorph isms
ĠV e
Ġmulti sensory
lec tively
Ġsome what
Ġpublic ations
Ġdem and
ract ory
Ġun corrected
Ġinspec tion
yste ine
Ġsc aff
Ġmotiv ational
Ġover l
ĠCa MKII
ĠAc tivity
lock ed
Ġ5 3
ra red
ĠPh ase
ĠH u
H owever
ĠZ eiss
EM G
Ġb orn
bi ased
Ġbreath ing
Ġpresent ations
Ġn ame
Ġresto red
res pective
A cc
Ġin duc
Ġenab led
Ġch loride
Ġb ath
ĠM ut
g ia
ĠNon etheless
ĠCO X
ff e
Ġe g
ĠCR EB
an alyses
ĠÎ ¸
Ġ1 80
m r
a verage
t DCS
Ġdi vision
brid ge
ĠP rior
kn ow
Ġser ves
Ġensemb le
gen eration
ĠBl ack
m odal
ĠE GFP
Ġpsych otic
Ġcontr ary
u ation
Ġex osomes
Ġdiscrepan cy
Ġcom es
cl onal
Ġo cular
l ines
Ġqualit ative
Ġrec urrence
bl ind
um ab
oh n
ro pt
ĠSup er
on om
Ġdram atically
Ġeth ics
ĠBi osc
ĠC hem
Ġe con
Ġexc ellent
Ġexpect ations
Ġconcer n
at t
Ġhighl ighting
Ġdatab ases
Ġmother s
Ġm ess
CA P
Ġanticip ation
Ġle vodopa
Ġaccel erated
Ġdescrib ing
Ġprojec ted
il st
sec ret
ĠS ox
Ġcol ored
ĠBio tech
Ġexplicit ly
el in
Â ®
Ġrepl acement
F DR
exp ressed
ĠDr ug
Ġtechn ologies
Ġan n
Ġrec t
Ġperform ances
Ġir regular
V R
Ġstandard s
D C
Ġcoordin ated
Ġf its
op amine
Ġconsequ ently
Ġregul ators
Ġclass ic
Ġfacilit ated
Ġcortic osterone
Ġwar ran
AS T
ĠM ini
RO I
ste p
M F
ib er
Ġmo bility
Ġst ated
ĠU l
Ġbi ology
ĠG TP
medi an
V C
ĠK n
ĠQues tionna
Ġo re
Ġwas h
ĠS tro
Ġphag ocytosis
Ġreper fusion
Ġ Â°
Ġneuro pl
ĠC ruz
ĠAmeric an
Ġe ct
Ġperiod ic
am yloid
ill ing
ĠS ource
Ġpr actic
ops in
Ġimpair s
utis m
Ġsegreg ation
Ġbund le
- (
ĠTR EM
b b
dition ally
Ġf las
Ġexclud ing
Ġneurom uscular
NS T
Ġswim ming
sh aped
ĠM edi
Ġs keletal
C ar
Ġbal anced
hema tical
ĠC U
tre al
Ġmus c
ĠF und
heren ce
Ġdeterior ation
âĢĿ ).
Ġtri ple
por ation
Ġcytos olic
ĠS ST
Ġevid enced
Ġoutl ined
Ġjuven ile
ĠD SM
Ġdiff ers
Ġsc anned
Ġra d
Ġcyt ometry
Ġbi os
obl ast
U sing
Ġdeli ver
Ġconstruc tion
Ġmod ify
Ġpreferen ces
process ed
Ġtransl ocation
i tem
ĠS al
ax ic
m ap
Ġac upuncture
ĠAp oE
it uit
Ġh arm
Ġtop ic
Ġspind le
C O
erg ed
Ġconsider ably
ce phal
Ġlet ters
ĠU AS
Ġmod es
B F
Ġpil ot
Ġun like
ment ation
Ġloo king
Ġregard ed
ĠM ac
Ġaccoun ting
oun ting
Ġs ing
yr in
ĠC CI
b ile
ĠMeas ure
Ġlateral ization
Ġantipsych otic
Ġwh om
Ġdistingu ished
- &#
am iliar
Ġ4 9
ti se
f aces
ĠBl ock
oplas mic
Ġprac tical
Ġsynchron ous
Ġ5 1
Ġprim er
ob al
Ġintest inal
Ġsc atter
Ġgluc ocortic
SP R
om in
ĠS ummary
ĠV IP
E PSCs
Ġregress ors
ĠP CC
Ġcour ses
ĠCN O
Ġimpl ant
Ġper man
Ġnucle otide
L TP
Ġ] ).
p rim
Ġeng ine
ĠS hank
a vi
Ġrespir ation
PS Ps
Ġassum ptions
Ġbe ads
Ġ5 8
Ġprem ature
rog ate
gen ase
Ġcompe tition
Ġar bor
un ately
coup led
re ward
Ġpre treatment
Ġkin ases
Ġv ast
cl ine
acch ar
Ġcol lab
ac ies
Ġspec trom
les ion
Ġob s
Ġhall uc
eren t
g al
ĠO x
b ors
Ġdef ining
ĠNM O
ĠG al
ven tion
fold ed
ĠL ou
Ġpro s
Ġcomp atible
Ġend ocytosis
Ġclus tered
Ġtr unc
Ġtun ed
Ġf ate
ĠC r
Ġdesign s
Ġsex es
Ġtrans gene
ll er
Ġmacroph age
ma ze
Ġph asic
Ġsmo othed
ĠTNF Î±
Ġform at
Ġal ign
N a
agent a
t otal
Ġm aterials
ĠFS L
Ġorgan izations
meas ures
Ġh olding
ĠSh am
ĠB ur
ĠM ouse
lym pus
Ġpro pos
G AT
Ġimp ly
i at
ĠR ef
Ġout liers
ituit ary
ĠExperim ents
estab lished
m bl
Ġlibr ary
aten in
ĠI T
Ġd raf
lo op
Ġentire ly
Ġcomp l
Ġgi ves
Ġmod er
od yn
S OD
ĠLew y
Ġdisturb ance
Ġcategor ized
Ġconver gence
ĠS ample
Ġan odal
Ġn ar
Ġgener ates
Ġdiss olved
c an
Ġg rip
ĠCor tical
l ocalization
th alamic
M CA
Ġflo or
Ġanal ges
Ġc ages
ĠC Y
Ġextrac ts
ĠSV M
be ing
St atis
Ġbox es
Ġod ors
Ġcross ed
Ġres us
yelin ating
um er
Ġmetabol ite
ĠH ow
squ are
Ġh ouse
el t
s or
Ġconstit u
Ġtrend s
Ġs ibling
ord in
c alled
iz z
ach ing
ĠB ro
Ġb ovine
en viron
M c
6 00
am ycin
b led
ĠChild ren
in t
ĠT wenty
ĠR ho
th at
B ar
ic tive
ĠÎ »
ĠP las
Ġsor ting
it ol
Ġvis its
Ġpro st
Ġschem atic
V D
Ġsc ar
Ġy outh
Ġ6 00
Ġparcell ation
Ġdisrup t
Ġel ong
Ġdivid ing
ĠPer formance
Ġbran ching
Ġcand idates
ĠDis orders
Ġinter play
Ġst och
n f
Ġlim iting
Ġview s
ĠInde x
Ġm os
p ain
electro de
ĠV I
Ġdes ired
Ġinterle ukin
pt y
k a
x ia
Ġend ors
S R
be it
Ġlar val
ĠN f
pon ent
ne a
Ġobser ver
Ġd ry
Ġcomp eting
Ġdiss ociated
ep ilep
ĠN G
Ġst ack
Ġfor ces
Ġhydro x
ĠCS T
C ons
ic in
anc ing
Ġpel let
Ġvo ice
ĠN B
ĠIn vent
te ction
Ġb ring
trans fer
Ġ6 8
mit tent
Ġpro t
ĠK A
tib odies
Ġd y
Ġcatal y
l ands
vis ual
F isher
Ġc athe
Ġconnec ting
Ġv ic
Ġhemisp heric
g mental
encephal on
Ġinser tion
ĠD H
tra umatic
Ġdetermin ation
2 000
at onin
Ġpre term
Ġmask s
ag ic
Ġparah ippocampal
im en
Ġreproduc ibility
Ġinform ative
ĠSI RT
Ġhand s
ĠDI SC
ĠDep artment
umin ance
Ġp ort
ĠL earning
Ġsu fficiently
Ġprogress ively
Ġan k
Ġv ibr
av y
ĠT a
Ġfron top
il ed
vel ength
Ġ6 6
Ġ6 2
ucle otide
Ġent rain
Ġrecipro cal
ĠCh aracter
Ġcontro vers
Ġiniti ate
Ġsil ent
em pl
Ġover t
Ġclass ify
Ġtimes c
ĠInvent ory
ĠO GD
Ġhyper al
review ed
ox in
os h
ĠA kt
Ġcom e
ĠANOVA s
17 0
Ġv ascul
tic ular
R D
ĠD ig
Ġlib itum
ĠCX CL
Ġasymmet ric
E PSC
Ġe igen
ĠPro cess
ropt osis
Ġrec ons
Ġc rani
Ġjudg ment
Ġm L
tr ast
Ġasc ending
Ġ5 7
ti ous
Ġpoin ting
Ġn ose
c f
ĠH igher
O F
Ġf a
Ġtop ological
Ġpre central
Ġfamiliar ity
Ġgrow n
Ġm Cherry
Ġorgan oids
Ġmism atch
on v
Ġsus pens
end er
r iting
Ġpron e
P L
Ġter r
ĠNM J
Ġsubc ellular
Ġinst ant
ĠF GF
Ġinflamm asome
if ies
Ġmodul atory
Ġestro gen
be havioral
Ġsummar ize
Ġdisplay ing
Ġexpect ation
f e
Ġat trac
ma xim
t ome
ĠB ACE
h om
M ore
c ers
C as
Ġin active
ĠD etail
Ġr ing
Ġvide os
Ġpip ette
Ġguaran te
di agn
y ellow
Ġpoly clonal
Ġtranscript ome
Ġevo ke
Ġhard ware
Ġpolar ity
Ġar rays
Ġsub field
Ġrequire ment
ĠQuestionna ire
Ġlength s
00 9
Ġoff line
h ou
T NF
D em
c ts
n orm
Ġdiet ary
Ġphosph o
Ġelse where
B i
ĠA f
Ġcovers l
Ġmaca que
ĠP red
og onal
Ġ |
ĠK D
ĠMed icine
Ġevolution ary
trans f
ĠA K
Ġb rid
Ġplex us
Ġc ard
Ġcal ibration
N O
f lu
Ġrobust ness
ĠIn v
hyp er
old s
ip o
Ġcomm iss
ĠF r
ĠEx ample
Ġrepeated ly
Ġchar ge
Ġdirection al
ĠHF D
ĠS anta
ĠB C
Ġinstrum ental
th ase
âĦ ¢
am ents
12 9
ic o
ĠĠ ĠĊ
EP s
Ġmedic ine
a ves
y cl
c atenin
Ġi PSC
ot o
Ġantidepress ants
toc hem
Ġdri ves
ed om
Ġpropor tions
or ic
E V
Ġinstrum ent
Ġdiss oci
Ġvers ions
Ġenvelop e
ucif erase
Ġcon to
âĪ ¼
ra is
ĠW hether
Ġ201 7
occ ipital
Ġrisk s
qu isition
Ġk id
Ġimmun oblot
Ġd raft
ĠTh rough
Ġresil ience
Ġretin as
Ġd ich
ot rans
qu artile
Ġobserv ational
Ġradi ation
Ġ6 7
Ġmat hematical
p ine
we ight
Ġbi otin
ill in
Ġmyelin ated
iaz ep
ĠL M
1 01
Ġproprio ceptive
ĠO SA
ĠAg ain
Ġp ore
sc opy
ĠF unction
Ġc ath
Ġendors ed
ad der
re ceptor
Ġdisch arges
Ġling uistic
mid dle
Ġw orm
Ġorig inally
Ġplay ers
Ġcompens ate
Ġl um
ampl ing
th on
Ġ*** *
ĠAp pro
Ġl ens
ĠÎ¼ L
Ġdiabe tic
Ġnew born
ĠRep e
ĠMon treal
ĠOl ig
spec tively
Ġl ithium
ĠS L
Ġelec trom
ĠL o
Ġbl ots
ri ed
di tive
ĠNP Y
Ġguid ed
ic ulum
ĠNot ch
f illed
ĠB M
n R
Ġfeas ible
Ġenab ling
im odal
ir ty
Ġhab it
terisk s
oprec ipitation
ĠNeur onal
Ġir respective
H O
tens ive
an ol
one y
Ġst ation
oun g
th rough
ĠL F
co ated
Ġneuroan atomical
Ġpro ved
ĠCO N
ĠMor ris
ĠTr kB
Ġac uity
Ġ201 6
est in
Ġalter ing
Ġphotore ceptor
Ġintraperitone al
Ġcorrespond ed
Ġent ries
Ġutil izing
ĠM ark
Ġnormal ity
Ġcoheren t
Ġref ractory
sub jects
Ġaneurys m
Ġlamin a
ĠF D
ĠWhere as
Ġinv asive
ĠB SA
Ġcon es
ĠF in
Ġpost ure
Ġgi ving
om atic
ĠC E
Ġhist ogram
cler osis
l ig
s econd
Ġor ange
Ġdri ver
Ġsurvi v
Ġsub di
an aly
Ġwas hing
Ġattem pted
ĠSc iences
Ġexper t
Ġ er
RO C
Ġdisc arded
Ġmet al
Ġarter ies
iel ding
troph y
S up
Ġb le
ĠD T
Ġeduc ational
d ic
yot rophic
mo tion
ĠOp en
Ġinte ro
Ġnot able
em o
oid al
c old
ĠStro op
es ts
lear ning
Ġ201 8
Ġlip ids
Ġdr ift
secret ase
ĠB aseline
ĠM ul
Ġrec apit
Ġloc ally
Ġneuro inflammatory
Ġbund les
oglob in
/ âĪĴ
A UC
Ġar c
Ġf ire
Ġpreced ed
ec tin
Ġch ick
Ġintro duce
ph rine
sp ace
ur nal
ves ted
Ġneurolog ic
Ġimmunohistochem ical
In te
ĠCP P
ag g
Ġinfluenc ing
odyn ia
Ġbeg in
ED s
Ġelimin ated
] ;
p ress
Ġremark able
Ġs ter
Ġsched ule
ĠIn tr
xim ately
Ġflu x
Ġmicros tructural
en han
Ġmin us
ear ing
Ġa fore
ĠB L
Ġhyperp olar
Ġgradi ents
Ġrest ore
ĠCp G
Ġpsychopath ology
Ġsacrific ed
tag ged
ran dom
phosph ate
Ġcan al
ĠL I
Ġsyn thase
tr l
v it
ig g
il le
Ġlymph ocytes
b ach
ĠInstit utes
ĠR M
Ġz inc
el d
Ġcomprom ised
ĠE le
c el
GA L
tis ts
Ġsmooth ing
ĠM Ns
pers onal
ĠResp onse
Ġdos age
Ġrins ed
epti des
Ġcochle a
w ake
ol i
âĢĿ .
P E
ĠM us
val bumin
ĠDL B
fort unately
th ree
Ġback ward
P r
Ġf air
Ġpercenti le
x ious
Ġeffect or
> -
Ġwal k
Ġdis pers
ĠE vidence
it ance
ĠSt andard
Ġincorpor ated
Ġjudg ments
ĠF OV
ĠMet hod
Ġbelong ing
c ap
ab or
Ġstress ors
Ġfall s
ĠMat lab
ĠNMDA Rs
ĠDes ign
Ġmus cular
Ġdot ted
ra z
Ġacqu ire
radi ol
Ġo il
Ġless er
ĠJ ackson
Ġlen tiv
Ġpain ful
Ġin ward
ĠPro ject
Ġhar vested
condition ed
Ġl nc
Ġinst ability
Ġscenari os
Ġapplic able
ver bal
Ġdistract or
ens or
ĠCol lectively
Ġn s
Ġintegr ating
ĠUn like
Ġafore mentioned
Ġcre ating
bo ard
et ary
Ġthrom bo
b c
ĠMill ipore
ĠE B
ĠC hen
Ġin ability
Ġexpon ential
Ġdeep er
ĠT e
ĠN Y
our se
Ġguarante ed
Ġattack s
DO PA
ron e
Ġfacilit ating
Ġsor ted
Ġinter mittent
Ġar ising
Ġc up
Ġc odes
M icro
z o
Ġgrad ual
ĠN one
Ġpass ed
P e
Ġvesic ular
Ġfavor able
Ġore xin
ĠIP L
aff in
ĠD EGs
Ġconst rained
er obic
Ġod d
Ġdepos its
Ġnit ric
Ġc oded
Ġaffili ated
ath y
umin a
igh tened
ut ter
Ġcover ing
ĠT I
endri tic
Ġb regma
ocy tochem
Ġsti ff
Ġf ing
Ġradi us
Ġpat ches
Rec ent
Ġcaregi vers
Ġ6 1
ĠC RI
op hen
Ġst ressed
ĠF ound
Ġev ol
Ġhypers ensitivity
ĠBl ue
ber t
thes is
Ġnot ably
Ġarg ued
M a
ĠBi os
Ġdef ect
oss ible
im ination
Ġupd ate
ĠRNA i
fact or
ĠP FA
Ġsc ram
Ġref ine
Ġinten ded
Ġte am
Ġp iv
ampl ed
Ġdec ade
( +)
Ġfunctional ity
he ri
ĠLou is
Ġinteres ts
ra tive
ĠL td
n ology
ĠLe ica
prising ly
Ġsten osis
ĠRel ative
8 01
trac ellular
Ġhyperal gesia
at ten
op en
H F
Ġampl ifier
C E
ĠO F
et o
u um
Ġh ot
Ġfeed forward
Statis tical
ink s
Ġparenchym a
ĠE PSCs
Ġfeas ibility
Ġeluc idated
Ġp ent
d ensity
ĠSignific ance
Ġmet h
s ignal
Ġimmo bility
ĠGM V
Ġfr act
ĠF ive
ĠTT X
Ġthalam ocortical
Ġr amp
Ġcall s
Ġinter p
ĠED TA
Ġpun ishment
Ġin tention
ĠM U
Ġc ranial
Ġcap illary
Ġdepolar izing
ĠDM EM
ĠS oci
Ġclass ifiers
Ġcentral ity
ill i
ĠBl ood
Ġdo ub
pt ors
ĠInc re
Ġthor ough
Ġstabil ization
Ġquad rant
Ġlesion ed
Ġstr atum
Ġ( #
o L
re qu
Ġelimin ate
ĠN umber
ĠJ an
ĠI A
Ġcol ocalization
Ġcontrovers ial
Ġmiti g
Ġis otropic
Ġphosph atase
ĠH o
unting ton
Ġtop ography
ĠPro b
Co G
ri pt
uc k
Ġcompl ain
Ġwa velength
Ġ rip
ol ated
Ġsuccess ive
Ġun less
ĠZ hang
Ġbu ilding
Ġoper ations
s ed
Ġturn ed
Ġth inking
PA GE
p rin
rag ue
Com par
Ġhyp oxic
Ġupd ating
ang ular
Ġcol lap
sp atial
state ment
Ġno is
com ing
Ġarbitr ary
Ġchec ked
ro om
pred ict
h ouse
Ġcomplic ated
Ġren der
Ġ ions
Ġaccess ible
ur ated
Ġp in
Ġm ere
Ġam nes
P ark
Ġstereot axic
Ġel imination
ĠV i
ĠMS Ns
â ĨĴ
Ġkeep ing
Ġcaps ule
Ġstatis tic
Ġcompar ative
ĠGAP DH
Ġmedull a
Ġtight ly
Ġburst ing
tim al
low er
ĠS Cs
ĠMo lecular
Ġtest osterone
Ġreal istic
range ment
Ġall ocation
Ġatten ded
Ġl uminance
Ġsp ot
ĠM id
Ġperf ect
n M
Ġfre edom
Ġdist ant
m ac
Ġmicros tructure
lies t
ĠReg arding
R ed
Ġorth ogonal
IN K
ĠHR V
Ġal bumin
Ġsubpop ulations
Ġunderp inning
in ine
ĠO D
ĠBe havior
ti ties
istic s
Ġcomp li
Ġneuro genic
ĠNIH SS
Ġ9 9
see king
sk i
st ud
Ġsc ience
ĠRNA s
Ġca ution
Ġst ay
adap tive
ol ing
ĠB G
ob ar
ĠEn d
Ġselec ting
Ġsurviv ors
Ġresour ce
F irst
Ġinstit utional
Ġwr ist
Ġprof iling
resp ond
rais al
ĠD a
Ġsubstan ces
Ġdon key
ug e
ap op
Ġexten ds
Ġed itors
Ġw arm
it in
Ġsubc utaneous
g rad
Ġtr unk
e ffect
il ia
Ġ edi
ĠMean while
Ġac know
r at
ur ations
Ġevery day
ĠLast ly
Ġscal ed
ĠE PI
Ġmach in
ĠP ax
ĠPK A
epilep tic
Ġall odynia
aw ley
mi R
ĠLim itations
Ġang les
Ġnam ed
ĠS he
Ġinv ari
at tern
Ġsymb ols
ĠB en
g ens
Ġven til
Ġaggreg ate
Ġmel atonin
Ġhierarch y
ĠV GLUT
Ġmotiv ated
em ale
Ġcytos keleton
ud den
Ġintens ive
cor relation
ĠG e
Ġwild type
P atients
Ġimmun olab
Ġt or
Ġle aving
Ġm t
Ġcentrifug ation
Ġepithe lial
ĠSp atial
Ġexer ts
k ers
Ġg al
Ġplay ing
Ġspectro scopy
Ġc ra
mic ro
d ifferen
0 25
ĠTo ol
Ġoptim ize
Ġs ke
trocy tes
ĠR s
Ġupd ated
ten tial
form ing
b uffered
ĠSt ress
Ġinvestig ators
Ġass ign
ĠG Cs
Ġnat urally
ĠT arget
ol ine
par ts
Ġdyslex ia
ti um
Ġear liest
Ġp ay
Ġmicro array
cit ability
Ġn odal
ĠRP E
Ġst re
il ance
L a
Ġresus pended
Ġper oxidase
Ig G
ĠF os
lud ed
Ġprecurs ors
Ġdevi ant
ĠFound ation
utam ate
Ġpl ated
ad mill
Ġinteres ted
Ġprob able
Ġanatom ically
as partate
Ġsupplement ation
Ġre activation
H s
it ron
ĠB ox
ca ud
Ġaccum ulated
Ġstruct ured
ĠRe al
ĠM echan
Ġsom ata
ĠGraph Pad
Ġmanip ulated
Ġemploy ing
G AP
ĠE t
Ġb riefly
Ġlinear ly
Ġf oci
Ġfeel ings
Ġtrans verse
Ġcol lic
S CI
worth y
ot om
Ġhand ling
Ġtop ology
environ ment
ĠIn vitrogen
Ġstimul ations
g f
os ocial
Ġseed ed
Ġfrontop arietal
Ġori ented
Ġneuropath ology
L PS
Ġan ten
Ġper in
h le
Ġnorm ative
Ġpiv otal
Ġk Da
pro p
Ġultras ound
Ġinstant aneous
gluc ose
ĠR ob
Ġp olarization
ĠG enetic
ĠV ol
Ġlys is
Ġbar rel
Ġhe avy
ex isting
12 5
P l
ĠAd ult
Ġex empl
Ġrespond ers
est radiol
Ġdysfunction s
ma x
Ġapproxim ate
ĠM ental
Ġfibr ill
3 01
Ġtrigger ing
o tes
ĠâĢ Ŀ
Ġneurof eedback
ar ched
Ġacid ic
M ill
Ġspontaneous ly
Ġ5 9
Ġspread ing
Ġmedi ator
v ary
Ġ( +
ĠS CD
amin o
Ġder ive
Ġrest rain
Ġdon or
encephal ic
Ġshe ll
Ġb idirectional
Ġbacter ia
Ġal beit
Ġhe p
ĠN SC
Ġsur faces
Ġhem at
Ġy ielding
ĠD ys
Ġtre admill
lic es
L ife
ĠS ol
ĠCN N
Ġmin ute
atom a
vers al
ĠSP L
Ġvent ro
k en
Ġres istant
Ġpro ceed
ĠD at
Ġneurop il
MG B
Ġw t
Ġstoch astic
E RP
Ġl ists
ĠAn xiety
Ġpercent ages
ĠM BP
ĠL a
it z
NA c
Ġsp ars
abol ism
Ġin version
Ġat he
condition ing
Ġshe ath
ĠResp ons
Ġneutroph ils
Ġdeb ate
Ġsuper vised
Ġwid er
ĠS elf
resp onding
Ġcap ability
UN EL
ĠCB D
Ġp y
ĠPub lisher
ter ious
ĠAN D
Ġhapp y
ly cer
H g
ĠCom b
Ġquantit y
s ite
Ġ12 8
Ġaver ages
armac ological
Ġrelax ation
Ġch or
st able
Ġat tribut
ĠNP Cs
phosphory lation
n ine
Ġsh uff
Ġbiological ly
ĠS LC
Ġform ula
Ġneed le
Ġst anding
Ġevalu ations
os cop
Ġt ex
Ġsupp ly
ac et
Ġcomp act
ow el
Ġper ox
n d
Ġestablish ing
Ġir relevant
Ġidi opathic
Ġinter rup
heri ted
Ġmachin ery
Ġmotif s
Ġorient ations
Ġencephal opathy
Ġre agent
Ġcomb ine
ĠU PDRS
Ġaltern ating
an ine
arch ite
Ġrough ly
Ġgran ular
s en
Ġcon jugated
Ġrepeti tions
Ġcol ocal
Ġ8 00
ĠAP s
Ġs ad
ĠP ND
Ġgro ss
st in
Ġre ality
Ġfibr ils
row s
CA T
v FTD
ĠA ct
Ġphotore ceptors
U R
ĠCh i
ra tic
Ġeth nic
a o
Ġexper ts
ĠMo CA
ĠI ts
1 10
Ġphot o
ĠFT LD
Ġkid ney
ur acy
ti form
Ġread er
ĠFund ing
ĠĊĠĠ Ġ
Ġess entially
Ġp olic
Ġep idemi
ph one
Ġsugges tive
ĠWh at
Ġshif ting
ĠEx amination
Ġinfer red
ĠSp rague
Ġ] ;
ĠDC X
ĠÎ¼ V
12 8
ĠQ ual
olog ists
Ġestim ating
ĠV P
y roid
esthe tic
ĠT im
Ġph ysi
ob i
Ġresid ent
ĠS ep
Ġinter hemispheric
ost riatal
Ġsl opes
Ġaccom pl
Ġconcentr ated
ĠStim uli
Ġex t
ist ar
ĠCh AT
Ġto xin
Ġmac ro
Ġinstruc tion
Ġfit ness
g amma
ĠImmunohistochem istry
Ġassoci ate
ĠB T
brevi ations
ĠInv estig
ĠAf ric
Ġl ac
Ġcann ula
io tic
ech o
se x
Ġaccur acies
ĠP RS
Ġentrain ment
Ġt ACS
Ġte gmental
Ġon t
Ġhy d
rec ting
Ġv ice
or tical
A I
ĠP a
Ġneuropl asticity
ĠK CC
Ġrein statement
Ġhe ightened
ock tail
ĠR CT
Ġdetermin es
Ã Ń
ĠEqu ation
test inal
Ġaut ore
Ġhelp ful
TD P
Ġparticip ating
ĠF F
ĠST G
Ġaut osomal
Ġre min
Ġconsider ations
Over all
de g
ĠA O
Ġresid ue
Ġsuspens ion
Ġund ers
Ġgenetic s
i ver
Ġm ar
Ġexact ly
G O
o ud
Ġin troduction
Ġmedi ation
Ġapp rec
ro ids
Ġsh aring
Ġem pty
ĠO L
Ġvir t
Ġfore limb
Ġmiss ense
ĠB er
Ġrew arding
Q u
n ov
Ġrem yelination
Ġfronto temporal
re pe
Ġanti s
Ġpop ular
Ġmor ning
ĠMicro glia
k Hz
aw a
Ġanalges ic
M ice
up take
Ġst ock
ĠPV N
im ent
Ġcon ten
M ar
Ġhist ograms
Ġsat uration
Ġad ditive
Ġmanifest ation
aten cy
ĠDis order
Ġcle aved
ibr ated
ĠCon dition
Ġcon gen
Ġtransi ently
Ġus age
D MN
Ġintern ational
ĠE Vs
Ġrel ates
Ġhealth care
ur able
Ġspe akers
Ġser vices
Ġflu oxetine
Ġ7 8
Ġt ap
ĠV an
sc ales
Ġre aches
and er
Ġcategor ization
Ġattenu ate
is econd
ffici ency
Ġgly co
ad her
ĠL ip
lu x
Ġhyp erex
Ġhomogene ous
m n
Ġb irds
rad y
Ġdram atic
ne e
Ġwarran ted
Ġslow ing
abol ic
ĠM W
Ġmos sy
Ġc av
m odel
ĠS iemens
tub ulin
ien tists
Ġ( âĪ¼
Ġ201 5
Ġperi vascular
C V
P G
ĠP ositive
ĠCam bridge
ĠP ers
neur on
Ġde af
amp hetamine
orbid ity
Ġdis par
ic on
c ellular
Ġsur rogate
Ġhub s
ĠCh ronic
Ġins ult
Ġorigin ating
Ġtub es
ĠJ NK
Ġre jec
Ġprob ed
ĠL inear
Ġobser vers
Ġcounter parts
ur c
Ġsub tracted
Ġchemo kines
als o
Ġconf ined
Ġorgan ism
ĠAc ross
Ġcur v
tif ying
Ġbehavi ours
iling ual
at ine
Ġperman ent
amin ob
Ġtr im
ĠM M
Ġsp anning
Ġno xious
Ġexceed ed
Ġquantit atively
resent ation
a rest
Ġsub scale
ut y
Ġ6 9
Ġs udden
b ow
Ġturn over
Ġred und
Ġrel ating
Ġcol lateral
ĠSw ed
Ġcompris es
W ang
Ġelectroencephal ography
Ġactiv ator
y er
ĠBrain s
Ġend oc
Ġoverlap ped
Ġflex ion
Sur fer
ĠCA G
Ġunc ons
b asal
ĠBiotech nology
b ar
Ġemphas ize
P O
a ural
Ġprojec ts
HT T
se mbl
Ġspind les
ĠG T
Ġexpos ures
Ġnois y
Ġas ynchron
Me an
bl ock
Ġconflic ting
ĠNeuro imaging
Ġcham bers
ĠC z
B ecause
Ġretrie ved
Ġtranscriptom ic
Ġcomput ations
R el
Ġco op
Ġsymmet ric
Ġun biased
Ġaneurys ms
if th
Ġ7 1
Ġneuro chemical
Ġvers a
Ġarrow heads
Ġpl ant
Ġaud io
ĠI HC
Ġgeneral iz
ĠA CSF
O FC
Ġdele terious
Ġmet ast
ĠF mr
Ġdys regulated
C ol
Ġmaxim ize
Ġn asal
Ġexcit otoxicity
ach n
Ġp ressing
Ġh ap
ĠH untington
ological ly
Ġherit ability
load ed
il ent
Ġneg ativity
Ġmorph ometry
ĠCRI SPR
ĠK ing
ran ular
Ġan a
reg ulate
ĠC ent
Ġrevers ible
Ġambig uous
pl ates
Ġ(âĢ ĺ
Ġan ch
J D
ĠH y
ĠK I
Ġindic ation
Ġa ware
Ġmyel oid
m ain
word s
ĠCe A
ical s
aver aged
ti p
Ġill usion
Ġex ons
als y
Ġ7 6
Ġc ros
ĠR RID
Ġv ac
Ġhomogen ized
ether lands
yl ate
it ter
ĠHC N
ĠNr f
V al
Ġaggreg ated
Ġexperienc ing
T ime
Ġhippocamp i
Ġamp hetamine
Ġexplain ing
Ġlisten ers
Ġmarg inal
Ġcorrespond ence
Ġlink age
Ġlandmark s
Ġab stin
. ),
n umber
Ġsal iv
ath ione
ĠAc ute
Ġneuromod ulation
Ġmut ated
Ġmo vie
ĠW istar
Ġanalog ous
Ġdec ided
Ġthreshold ed
Ġlo ud
est yle
Ġdisc over
Ġhe avi
Ġvis cer
ĠO CT
Ġinc en
Ġi NOS
ĠT MT
Ġl aw
al og
ĠMT L
Ġcomorbid ity
ri tis
oblast oma
01 5
on ym
Ġma x
m ids
Ġlo ops
Ġcomm and
Ã ³
A F
Ġar ises
Ġ8 4
Ġequil ibrium
function al
ĠU pon
ul omotor
ĠB ottom
Ġecon omic
Ġ ult
Ġins et
Ġacetyl ation
ĠL R
Ġdysfunction al
ĠW ork
ĠA U
Ġcoll agen
Ġcomp ression
Ġin herited
phosphory lated
Ġg ir
am ing
V I
Ġepithe lium
Ġanaly tical
ĠHealth care
Ġneurop eptide
or ld
Ġso ft
ab s
Ġde hydr
il in
ur ity
+ ,
ĠC ult
ĠD ie
Ġcop ing
Ch Rs
Ġspectrom etry
hes is
Ġsus pected
AL FF
q PCR
Ġwors ening
ir ms
Ġ) ].
om an
Ġcon vey
Ġbelief s
olum e
lec ted
ĠE PSC
ffe ine
im al
ĠSO M
Ġconfig urations
Ġinf ec
ticip ant
ĠA CT
Ġcompli ance
Ġcons erv
ibr illary
Ġt i
cl osed
tex t
Ġinte g
Ġch i
ac rine
Ġvent romedial
ĠGl obal
Ġsuper im
E NT
ĠN etherlands
Ġblock er
rom o
Ġat hle
ĠA ff
Ġdiffer ing
am a
ic illin
r as
Ġcar bon
ess ional
Ġsc ope
ĠA utism
t oph
iz ure
Ġdem yelinating
Ġ7 3
ĠPer cent
ad emic
S F
Ġrap he
ple asant
ĠP res
Î µ
ĠÏ ģ
ont ine
* *
Ġp g
f it
f erence
Ġstress ful
in jured
ace u
Ġb ig
Ġrest oration
ĠT RI
Ġenl arged
Ġisol ate
Ġsuppress es
Ġven ous
ĠC ORT
Ġlamin ar
Ġepilep tiform
ur y
ĠD WI
Ġattribu tes
ĠW riting
ĠM OR
Ġ ictal
ĠS ES
e z
Ġtrans p
Ġdiscon nec
ĠAL FF
) ].
G raph
C al
ĠL ight
Ġhist opath
C hen
Ġrem ission
ĠK ir
Ġver tex
Ġhomolog ous
MD D
Ġ7 4
Ġfear ful
ly ce
ok ine
Ġelectr onic
Ġpl anned
Ġpre p
Ġdocum ent
Ġtermin ation
Ġsub tracting
Ġre jection
h u
Ġa MCI
ĠF B
Ġdraw ing
Ġcra ving
Ġangi ogenesis
Ġuni qu
Ġin stances
r ise
Ġref erences
Ġhous ing
in testinal
transf ected
Ġattribut able
P N
Ġspe aker
ĠPh ot
Ġve in
Ġir radi
Ġmil k
Ġchrom at
ell es
Ġwe b
ĠT SC
Ġpel lets
Ġvag al
( -
Ġdi ed
Ġr ace
om edial
Ġmut ual
ĠP ower
Ġoverexp ressing
ir t
Ġdes ens
Ġattrac tive
Ġwh ilst
Ġsen es
ĠB R
Ġh it
Ġmon etary
ĠI PS
ran ged
pl ot
ĠM H
ri z
p ur
Ġth ink
ĠR N
Ġpolym erase
ĠCal c
Ġprote cted
ĠS ynaptic
athe cal
v entral
g s
Ġt rap
ĠT raining
Ġdecom position
om ial
Ġprim e
Ġob taining
Ġconce ived
ĠPD E
Ġrap amycin
Ġrobust ly
Ġnear by
ĠThe rap
Ġfund ing
Ġdynam ically
Ġspecific ation
Ġseem ed
ĠâĢ Ķ
ib ilities
IQ R
ĠPo ly
Ġconf irms
Ġpred is
Ġgra ded
T rans
R K
ĠP ain
Ġser ine
b aseline
Ġpro of
Ġneuro vascular
Ġre vision
Ġco ated
Ġhelp s
Ġathe ros
Ġmo tility
Ġt angles
ak a
Ġpsych osocial
ĠK i
ec onomic
ul y
ĠT L
ĠDiagn ostic
a icin
un ted
ag ents
d iff
or adi
Ġt apping
Ġinter active
ĠBios ystems
Ġpoin ted
k o
Ġtravel ed
Ġobser ving
Ġthough ts
Ġqu ar
Ġp ump
Ġ8 2
ate chol
Ġc od
H Cl
Ġpericy tes
Ġsibling s
Ġax es
Ġcaus ality
Ġstation ary
Ġq RT
Ġimmunore active
s mo
ĠP AG
Ġpar valbumin
ĠDevelop ment
Ġexam inations
Ġeff erent
apop totic
och rome
Ġgain ed
Ġpallid us
Ġsp aces
Ġmo uth
Ġpers istence
iles ional
Ġresol ve
ĠClass ification
onom ous
Ġp alsy
Ġasym ptom
op tic
ĠSN c
ĠI CC
ĠInhib ition
Ġsynerg istic
amil ton
ĠF LAIR
est hesia
h n
Ġillustr ating
pir atory
her ical
ĠL og
Ġnoradren ergic
M NI
Ġra ises
ĠRec e
N L
ĠS TA
Ġyield s
troph in
omy cin
Ġasymptom atic
ĠAss ay
Q X
01 6
Ġpath s
Ã¼ ller
Mo lecular
Ġaccel er
n ull
201 9
ĠConf ocal
Ġabnormal ity
Ġbec oming
ĠFree Surfer
Ġse arched
Ġkind s
Ġan hed
Ġso on
Ġimped ance
Ġsub threshold
ere stim
ac l
Ġmo bile
ĠO A
ĠNe gative
ĠM i
Ġp ad
str uct
ĠO ff
Ġb ilingual
. <
8 00
Ġt an
Ġd lPFC
app a
Ġna ive
tr on
Ġsal t
S H
c ross
ĠFour ier
Ġcharacter izing
uc cess
Ġdifferenti ating
pt or
K I
norm ally
ti ated
Ġimp ulse
tin uous
Ġcounter balanced
om p
Ġcarri er
Ġsub traction
Ġequ ations
at ology
Ġde activation
oph osph
Ġske w
Ġh apl
ond on
an a
ore pine
Ġpsych ometric
ik on
termin us
Ġvascul ature
Ġr up
Ġpub er
ac ic
par ticipants
cl os
Ġseed s
ĠL T
err ing
ĠSur prisingly
Ġle ave
Ġo t
Âł Âł
Ġinterconnec ted
k Da
Further more
Ġ9 4
Met hods
Ġinter ictal
Ġn ur
ĠCG RP
transfer ase
Ġoxid ation
ĠConnec tivity
im od
Ġpro ve
ut ral
Ġg on
S im
Ġ8 6
re vers
Ġf ol
ur ipo
âĢĻ )
Ġdeb ris
id ak
ĠM ay
Ġbreak down
ref eren
ĠC s
Ġsup ram
ochond rial
ĠT s
ran ger
mac roph
it ary
Ġprop ensity
ĠB cl
Ġun predict
Ġrequ est
Ġexper tise
Ġspec imens
ĠFX S
id el
M M
Ġa version
Ġsupp ressing
Ġt ax
Ġm oral
Ġchemo kine
l ayer
G roup
v ating
el ch
Ġcl imb
PA G
i us
arm aceu
te tra
01 2
os itol
ĠR V
ĠR MS
ak i
01 7
Ġappe titive
cho ice
Ġimp lying
ĠT UNEL
Ġex ocytosis
d ominant
Ġa erobic
Ġannot ated
IF G
CR EB
ĠCan ada
Ġple asant
] -
Ġinteg ral
Ġpers ist
Ġhalluc inations
ĠP Ns
Ġmed itation
Ġfall ing
Ġcollec t
ĠV O
ĠS tructural
ox if
Ġank le
Ġcalc ulations
ĠM RS
Ġdem ographics
Âµ M
Ġorigin ate
Ġ7 7
Ġarg um
ĠUn fortunately
ĠC ross
Ġ8 8
Ġe ut
ĠV ector
orepine phrine
Ġt dTomato
Ġsl iding
l ational
Ġdis app
c ue
r un
Ġpers isted
Ġqualit atively
W ork
Ġglomer uli
t aking
ĠAc quisition
Ġbin ocular
14 0
Ġoppos ing
Ġ8 3
ĠH em
ti ation
ĠPy thon
ĠR ap
ĠmTOR C
encephal ography
as ping
ĠH L
Ġreward ed
ĠA E
ĠLe e
Ġconf er
Ġ7 9
am id
u vate
Ġan ces
Ġmoun ting
pl ane
ati d
Ġpe er
S imilar
Ġt urning
ad vant
Ġretic ulum
Ġstr ing
Ġcollic ulus
Ġhemorrh agic
ĠEG TA
ag er
F ollowing
Ġ9 8
Î¼ L
Ġintr iguing
Ġd imer
Ġund erestim
Ġintrac erebral
p atients
i agen
or ange
ĠG PR
gu ided
on a
Ġc ocktail
ĠR L
Ġk nee
ha i
M B
ĠSoci ety
Ġb vFTD
ĠH IF
Ġlif estyle
As s
Ġunf amiliar
of lu
Ġmicro b
Ġsubpop ulation
Ġmal ign
Ġfeel ing
ill a
Ġmill isecond
ĠT B
c i
Ġstiff ness
or tium
Ġh ol
Le ica
ĠC CR
ĠC K
Ġvertebr ate
Ġbl adder
Q TL
Ġd og
Ġpre fer
Ġglob us
ĠI r
ĠL G
Ġlow ered
Ġmod ern
Ġrec on
olog ist
oc ardi
Ġhel ped
s he
Ġreproduc ible
Ġrem ember
ĠU V
Ġphosph olip
Ġl a
Ġorient ing
ores is
Ġprogramm ing
ilep sy
id a
Ġglut amine
ĠRespons es
V E
Ġor bital
Ġ Ã
Ġster ile
ĠBiosc iences
Ġur ine
o uts
Ġvertebr ates
Ġp ull
Ġc it
form atic
Ġel igible
acc ade
Inte restingly
Ġbul k
Ġcoversl ips
13 2
Ġcom fort
Ġfib res
ymptom atic
or in
ĠF WE
ten ing
Ġdistinguish ing
Ġde hydro
s i
Ġvi able
Ġventric les
Ġsens ing
Ġstra tified
Ġfocus es
Ġtrack ed
ĠS MN
Ġpor tions
13 0
Ġopportun ities
ĠTh ose
resh olding
Ġtransl ated
ti go
as y
ĠD V
trans formed
ĠP AC
ĠR ES
Ġm RS
ĠDie go
ĠIn iti
Ġaug mented
mit ting
Ġsequ entially
Ġ201 0
Ġel usive
Ġmask ed
01 1
Ġenzym atic
achn oid
ul o
Ġ1 40
Ġch aper
Ġprote o
ĠCC K
Ġn ational
Ġs aw
Ġsim ulate
F L
ĠH LA
if orn
HC O
ĠAl together
RO Is
Ġadjust ments
emo tional
A kt
ĠR ac
Ġneurof ibrillary
f irst
Cl inical
Ġintr an
Ġsub scales
ĠAC E
ul ed
Ġup right
ici ency
Ġimp acted
Ġoc ulomotor
Ġparkinson ism
] ).
ĠR B
Ġnatural istic
or ous
Ġill umin
ĠT en
Ġgly cer
Ġrecei ver
drom al
ep s
st ac
ĠTh ough
Ġloo ked
Ġtrunc ated
Ġcycl ic
Ġre tain
Ne ur
Ġrec ycl
Ġin versely
et amine
Ġin dependence
ap pe
Ġpos itivity
Ġcon formation
Ġmoder ately
Ġp ow
Ġantero grade
is chem
Ġcy to
Ġdeno ted
E ach
Ġmicro circ
Ġoper ant
Ġcon ception
clus ive
Ġver b
ophys in
Ġconc ussion
izz iness
vi vo
Ġexplan ations
ĠA ustr
Ġb if
Ġcomp rise
ĠM agnetic
ili ary
Ġvig ilance
yp ically
Ġas pir
Ġpred omin
Ġassum ing
N G
ĠA Z
Ġben z
Ġca ffeine
ic ate
Ġannot ation
ĠSpec ific
25 6
ĠV BM
Ġoxid ase
Ġdistor tion
ĠF ield
ĠNeuro science
Ġchron ically
Ġ24 0
is ons
Ġpl uripo
IN G
Ġcircum stances
ĠD RE
ĠFM RP
Ġexp and
ĠT rial
Ġ8 1
s ession
ĠO PC
Ġrel atives
ĠP PAR
c urrent
ĠD own
ol imbic
ĠA UD
op ulation
Ġbo ys
ser ies
Ġdepic ting
Ġneuro sc
Ġdepic ts
12 4
yelin ated
Ġdynam ical
Ġread ers
Ġl uciferase
Ġtra de
ĠE CoG
Ġacute ly
Ġat tract
ord s
ĠC oun
ĠF re
ĠB al
r hyth
ĠR ather
Ġcurv ature
up per
Ġsens ations
limb ic
Ġhem atoma
Ġensemb les
Ġp ac
01 3
ĠG a
Ġunc over
H u
Ġqu iet
Ġpre operative
Ġ20 21
Ġconten ts
Ġnam es
Ġdef lection
B oth
gl iosis
Ġstri p
ant om
el ed
f ive
Ġposs ibilities
U TR
Ġgran d
Ġout per
âĢ² ,
Ġprom ise
super vised
Ġagg ra
ing ly
Ġ8 7
Ġm erged
Ġ9 7
Ġprote asome
Ġrel ay
Ġscram bled
f at
ĠF DG
Ġb ic
ĠE L
Ġimmunos tained
Ġwall s
o tics
c enter
pl ace
ines cence
Ġmicroscop ic
s ol
Ġaccum ulate
ĠP ER
Ġap oE
Ġsplic e
Ġgr asp
ot oxin
Ġc atechol
ippocamp us
ti te
ĠProced ure
IC H
Ġtr uth
Ġcap abilities
Ġch ow
Ġdiss ection
tingu ish
ĠProcess ing
ĠZ n
ch aracter
oxif en
ong ue
ĠM CP
Ġstro kes
Ġo ste
W HM
ĠS u
I PSCs
18 0
ul ators
ations hip
vari ate
ĠAD NI
le ge
Ġencoun tered
ar th
Ġcl ones
Ġneuro blast
Ġsol ve
Ġdefec tive
Ġoff ered
Ġdefin itions
Ġfil aments
ĠL ondon
ĠLi u
ĠS ame
Ġ9 2
ill aries
Ġb p
Ġper for
Ġacet ate
o te
os ide
ĠG ray
Ġbre ast
Ġdistin ctive
ĠA SC
Ġbe ha
Ġpsych iat
F rom
ĠV L
Ġoper ate
en riched
con f
sur gery
ĠM orph
Ġbl ank
Ġgastro intestinal
am oxifen
en di
Ġintrac ortical
clus ter
Ġplate au
C r
ĠL es
con trast
ef ined
Ġexplain s
Ġuniqu ely
G P
ti zation
p aw
Ġc ub
; &
d ens
Ġcontin ues
ĠSm ith
acchar ide
on i
caud al
Ġre uptake
ĠC entral
Ġded icated
Ġheavi ly
ĠL ower
Ġfragment ation
ĠE CM
Ġjud ge
mon ary
Ġac ademic
P o
Ġther m
Ġcontra d
CB F
Ġ Â
p A
Ġass ignment
Ġmodul ators
Ġglucocortic oid
Ġadd ressing
Ġsumm ed
ĠOr gan
Ġdegen erative
Ġperme abil
ĠSS RI
sp e
ion ic
Ġday time
Ġventro lateral
Ġgl auc
Ġdiver gent
Ġhyperp olarization
m T
Ġt ang
Ġ1 30
Ġstar ts
h ippocampal
Ġl on
e ast
m is
sp ike
Ġth inning
W AS
Ġro s
Ġcasc ades
B OLD
ĠL ys
ha us
Ġtherapeu tics
pl ies
Ġdecl ines
Ġmodul ator
Ġsummar izes
opo lys
D TI
Ġec centric
Ġwave let
ĠSE RT
Ġinter quartile
ĠS il
ĠP PA
ĠN PC
MCA O
Ġlateral ized
Ġwe ighting
Ġdis advant
az ep
bo tic
ĠF BS
Ġno tice
ĠN av
Ġste roid
Ġposition ing
ĠB I
ĠK im
P PA
adher in
Ġglut athione
Ġpr uning
Ġrow s
p ic
arg inal
Ġde ploy
an al
Ġestablish ment
Ġconserv ative
ĠH ippocampal
Ġidentif ies
ĠH O
immun ore
Ġepilept ogenic
Ġp ne
Ġbi ophysical
Ġreflex es
Ġrestrain t
Ġs uffered
ĠB as
or ative
ĠC ase
Ġwhisk ers
ĠED SS
ĠCA A
Ġapprec i
ptom ycin
Ġdegra ded
um ps
a rose
Ġpres ervation
ĠT X
Ġallevi ate
Ġretic ular
ĠF G
Ġmal adaptive
b ind
tiv ities
/ +
01 8
Ġf used
ĠCurrent ly
Ġinter personal
Ġimmun ity
Ġequ ip
ocytochem istry
15 5
me tic
ĠGen es
Ġapparent ly
ĠB NST
Ġneurodevelop ment
phen yl
Ġpolym er
Ġsp asticity
ok en
ĠH E
al ed
Ġsub network
Ġj our
Ġstop ped
01 4
Ġsuperim posed
Ġob stac
Ġinstrum ents
Ġam yotrophic
Ġatten d
Ġa ven
or ption
ib co
Ġinn ov
ĠL oss
15 2
Ġremark ably
Ġquantif ying
Ġdiag onal
Ġcaps aicin
Ġhydro gen
Ġspeed s
angu ages
et tes
ĠH MGB
Ġcontin uum
ĠJ ohn
v ations
Ġout line
b etween
pri ately
oz apine
Ġar rangement
ĠGlu R
Ġtens ion
ĠH or
Ġhydrox ylase
Ġsw allow
Ġpost ulated
Ġvisu omotor
ys tag
Ġodor ant
Ġwell s
ĠImmun ofluorescence
ĠP U
P rim
Ġillustr ation
Ġiter ations
vid in
Ġabstin ence
F l
M V
Ġexer ted
M ulti
un s
por tion
ĠL E
ear ly
ers ed
l ate
r ation
G u
ad en
Ġap athy
Ġstimul ates
D ifferen
z a
or ical
Ġmark s
Ġcongen ital
Ġeas ier
og ens
Ġinner vate
Ġcannab inoid
Ġeut han
Ġdimension ality
ĠS ex
ĠS ynap
ĠB PD
Ġolig omer
Ġinterpre ting
ĠG mb
ĠL ocal
Ġcycl ing
ĠClus ter
Ġ7 00
Ġastro glial
ĠNor th
Ġhyp omet
te ct
gen erated
P CA
Ġun pleasant
Ġmon os
ĠAt las
p ub
Ġauto an
d B
Ġpro xy
Ġh M
ĠAn g
ur ring
Ġd ro
Ġgra f
ys ical
Ġcons ist
Ġtrans cardi
ĠS outh
ym pathetic
G e
Ġviscer al
Ġtrans mitted
Ġ201 4
Ġplate let
rel in
appro priate
Ġsus tain
l oc
Ġinf rared
ate ning
ĠNMO SD
obar bital
ĠCY P
ĠS ign
Ġun a
Ġlab elled
Ġanal gesia
Ġcord s
Ġev olved
ĠSch ool
H B
v ic
ĠP av
nR H
Ġper cept
Ġcontrac tions
Ġcap illaries
Ġplas mids
Ġsuic idal
Ġtr ust
Ġan ger
S K
Ġinf usions
Ġbas olateral
ĠR BD
ĠM ale
Ġph yl
Ġcompe titive
ales ional
ĠS pan
Ġl anguages
res ented
az ard
connec tivity
ĠĊĠĠĊĊ ĠĠ
Ġb is
ĠC RP
ĠRe Ho
Ġworm s
R ep
Ġsur ve
ĠLevel s
Ġcho osing
ĠW al
Ġend point
Ġrandom ization
Ġmicrotub ules
R M
V TA
ĠW ritten
Ġpurs uit
om at
NI H
ĠO lympus
Ġm uc
Ġodd ball
ĠGmb H
h i
Al zheimer
so ur
0 24
pers on
ampl itude
X N
ĠSup porting
Ġsub iculum
i ang
M EG
ac ers
Ġweak ly
Ġanx io
pr ise
ar yn
ĠP INK
Ġtop ographic
C F
ĠU SV
ric k
Ġorgan isms
ĠNf L
x ins
Ġleak age
ĠO E
local ized
t te
tic ism
Ġtex ture
em ia
ost atin
Ġsymptom atology
Ġrob ot
Ġprof essional
Ġ[ (
hod opsin
D awley
Ġcl aus
Ġ12 5
ĠIndividual s
um ing
Ġdistract ors
S te
arm os
Ġdecl ined
ĠMeas ures
ĠR y
ĠC ore
Ġf ri
ĠNa HCO
oc ellular
Ġ estradiol
Ġbo uts
C OVA
Ġlocal ize
Ġdeep ly
gra tive
Ġinc ision
Ġ[ âĪĴ
Ġphys ically
Ġth resholding
Ġpoly genic
Ġattenu ates
ĠF ast
c oded
car inic
O f
ĠG PCR
Ġuncons cious
Ġpre processed
ĠIn tra
o on
Ġdescrip tions
ĠMS Cs
Ġh ope
ĠEx p
Ġtri plic
ov isual
Ġswit ched
N eu
Ġbe at
pl ots
Ġreli ef
as ia
Ġpar alysis
Ġhomogene ity
Ġst and
Ġperin atal
Ġw ire
om ain
Ġ+ /-
Ġper is
iss l
Ġlateral ity
Ġrec ol
Ġfas ting
Ġb rady
Ġres erve
Ġanhed onia
14 6
Acc ording
ĠN ucle
u ary
ĠEt OH
F unctional
ip lin
Ġfil ament
zym e
s pl
im an
ĠM ain
Ġhyperex citability
ra ti
or ient
Ġdehydro genase
A CT
Ġbios yn
Ġpromo ters
t actic
Ġincorpor ate
ĠV T
Ġdes ynchron
Ġfib ro
R oche
ĠY FP
Ġchar t
uc l
Ġstress or
Res earch
bind in
ĠH er
Ġad herence
Ġint u
iz umab
ĠC he
ĠStim ulus
Ġâ ĨĴ
Ġgli omas
ĠItal y
Ġmt DNA
Ġwe aken
Ġad mitted
Ġenhan cer
Ġincorpor ating
ot ted
op timal
Con trol
sur gical
ĠP PC
Ġse ek
ĠSl c
om ed
Ġrepro duce
Ġc ave
Ġdep ict
48 8
Ġmod elling
ST S
Ġdis inhibition
Ġpure ly
d ys
ĠE CT
Ġutil ize
ĠOb ser
ar tic
Ġgro oming
ĠD en
Ġnicot inic
at able
Ġend s
ĠPh osph
g lyc
Ġsp herical
ĠS n
re test
ĠS ymptom
ref lex
Ġenl arge
Ġins oluble
et us
ell a
Ġ1 10
ph ag
Ġpos itron
it zer
ĠAd ministration
iplin ary
Ġmes h
ĠP os
Ġass ayed
Ġl ap
Ġgir ls
Ġas sembl
ystag mus
Ġbeg ins
oti des
pro jec
Ġdig es
Ġlys osomes
L O
Ġmagn itudes
C y
th ick
Ġwork flow
ex posure
Ġsulf ate
n el
ĠA H
Ġobes e
Ġfl ight
ĠCol lege
Ġvirt ually
in ely
f lurane
Ġre aring
Ġra ise
Ġh ole
ĠDe tection
Ġsp len
Ġtem plates
ĠTw een
tib ody
ĠĊĠĠĠĠ ĠĠ
Ġdescrip tive
or ov
Ġrig id
ĠTem poral
Ġp S
ĠR ever
ĠL B
Ġproper ly
ti les
Ġver tigo
Ġm arrow
ĠIll umina
icep tion
Ġf olding
Ġbi opsy
Ġanticip atory
Ġg ate
ĠV NS
Ġpreferen tial
NMDA R
L TD
ith metic
Ġcing ulum
Ġg h
h old
oc entric
Ġhe te
op us
Ġdesign ated
ĠIC P
Ġcol our
io tics
y es
Ġunder lies
sp i
ĠReduc ed
Ġcatal og
Ġbehavior ally
Ġhind limb
Ġoverl aid
Ġmask ing
P ost
termin ed
E r
Ġgen otyping
Ġar ranged
Ġ ure
ĠTP J
Ġsyll ables
ĠE valuation
ĠCh o
ostim ulation
MP FC
Ġli e
Ġre app
Ġendoc annab
ag o
Ġdepend ency
Ġen tering
Ġpost central
endi x
chym al
appe ared
Ġrisk y
Ġd pi
ĠB a
ĠK ey
c il
iforn ia
Ġh aem
Ġconstit utes
ĠMet a
ge al
it o
burg h
ĠF low
ĠP it
ĠL RP
ri te
l an
Ġt ongue
er ule
ost at
Ġsurvi ve
Ġadapt ations
Ġdisrup tions
m y
Ġass ist
Ġtranspl anted
Ġstret ch
tr acking
Ġsyll able
amb ig
Ġapproxim ation
Stud ies
ĠW est
Ġhold s
Ġar t
Ġre ar
st ack
Ġturn s
ĠRem ark
Ġloss es
ur ance
ĠĠĊ ĠĠĊ
W A
Ġmis folded
Ġachie ving
Ġpregn ant
ĠF ST
Ġhomogen ates
ĠAMP K
ĠC irc
Ġavoid ing
Ġt ib
Ġn orepinephrine
Ġvirus es
ater s
qu ality
Ġ9 3
ĠDis tribution
ĠItal ian
Ġpl ug
Ġrecycl ing
oth alamic
Ġmigr ate
ĠGS H
Ġr ation
Ġmit ophagy
Ġpair ing
az ole
ĠCor relations
ĠM HC
Ġd izziness
Ġn itrogen
Ġpro dromal
Ġmanif ested
ticular ly
Ġnot ing
Ġhar bor
Ġund e
Ġderiv ative
Ġepileptic us
f ile
t z
Ġanx ious
Ġv on
Ġdefin ite
Ġdef e
ĠL SD
In s
Ġastro gliosis
D E
Ġsp le
ĠG I
Ġconver ge
ĠAre a
Ġl ies
Ġinc ome
Ġintr athecal
Ġc ame
og o
Ġcont amination
Ġembry o
Ġrs FC
0 22
se ver
Ġg aps
ĠDe vices
BB B
U ni
tim ate
ĠCol or
ĠMo vement
Ġdiscrimin ative
v oxel
Ġ201 3
Ġvocal izations
Ġdemonstr ation
f os
Ġf elt
MP s
op erated
Ġclimb ing
Ġsoci ally
Ġinternal ization
on ucle
Ġcur sor
ograph s
Ġst ance
Ġsp oken
Ġsmall est
ic it
PS D
plement al
Ġcath odal
ost atic
lo vian
Ġs way
reg n
Ġpen icillin
Ġm orbidity
od ily
ĠB el
ĠRec ordings
s um
Ġal ert
Ġsu ited
Ġaccom mod
Ġnoc ice
activ ating
Ġmet all
l ights
ĠH PC
ĠF z
ĠEx pl
Ġfibr illary
Ġb ond
D ep
maxim um
ri le
ĠMEP s
ic ted
Ġser vice
Ġb atch
Ġins ec
Ġc arg
ira ble
ĠSm all
it ted
Ġconvolution al
Ġunpredict able
Ġl ick
de velop
ĠC as
f itting
Ġno tic
T ra
ĠJan uary
Ġs ent
Ġun us
Ġabs orb
ĠA uditory
Ġat tit
Ġsqu ared
Ġpractic es
s elf
Ġneon ates
ĠGD NF
Ġext rap
dr ug
Ġathle tes
Ġhyd roph
B y
Ġ( -
Ġhand ed
Ġmicro v
yel itis
st atis
Ġh its
S econd
Ġdimens ional
ĠH al
Ġse m
disc iplinary
ar ith
ĠH amilton
Ġhe d
ad min
Man y
Ġinc oming
AD D
Ġdisrup ts
tim ulus
Ġend oplasmic
L ab
ul os
ph asis
Ġstimul ator
over lap
Ġa z
Ġk ain
at tention
Ġgly cop
Ġelectrom y
Ġk g
Ġinterfer on
oci ties
ĠT rials
Ġutil ization
u j
ĠQual ity
ĠC u
Ġdiscrepan cies
Ġro ta
Ġpur ple
las tic
Ġinner vated
Ġper spec
Ġopt ogene
h l
Ġdiss imilar
u f
ĠF rance
duc t
dom inal
i ving
Ġantipsych otics
Ġtrans duced
1 05
20 6
Ġkinematic s
ĠEx amples
Ï ĩ
iden tified
ĠP ol
ĠG old
Ġins ults
ĠIm p
Ġreconstruc tions
ĠCR H
Ġrepresent ational
Ġf ill
ĠC TR
ĠAd ap
l ases
it als
b our
ĠT HC
Ġarchite ct
aro x
Ġdevelop s
Ġir rit
âĢ ¦
lic e
Ġconst ants
gl igible
Ġprote cts
drom e
Ġph one
Ġperi ventricular
Ġshor test
Ġdors omedial
Ġsuper oxide
Ġperspec tives
Ġb inge
deg ree
) ).
ab otropic
Ġaudi ovisual
Ġchromat ography
Ġhab en
s ection
ĠPl us
ĠE O
U P
Ġcar b
Ġfa vo
ĠR esting
Ġseed ing
Ġt on
Ġan omal
Ġ9 1
Ġdil ation
M ost
Ġlys ed
Ġintero ceptive
E PSP
Ġb ott
ĠEth ical
v s
Ġun stable
Ġel abor
Ġnote worthy
Ġsymmet ry
Ġge ometry
AD HD
ĠM ass
ole t
lec tive
Ġsecre t
Ġcorrection s
ĠAss oci
ĠJapan ese
Ġformal in
re active
ro t
ĠLH b
Ġrecomb ination
Ġsp aced
Ġy east
am ed
ati le
op ositive
ĠHe ad
ĠReg ions
Ġanticip ated
ori ented
Ġsw elling
po ly
H ow
ĠP i
Ġsp ro
ĠDR D
Ġd ream
opolys accharide
0 23
Compar ison
Ġh azard
ocy cline
Ġgli osis
ĠCal ifornia
ipit ated
Ġf ell
Ġh i
ĠL Y
Ġanesthe tic
Ġfing ers
a ven
Ġcontr alesional
Ġband width
Ġcav ity
Ġimp ulsive
Ġprolif erative
Ġequip ment
Ġn ystagmus
Ġmicro environment
Ġautophag ic
Ġsp ots
Dem ographic
Ġde al
ĠCom mun
Ġcop per
oc on
Ġcor ner
Ġint rap
re ed
ĠC AP
e ight
e ff
s il
F I
og lyc
Ġj us
Ġpres cribed
Ġage ing
Ġ201 2
Ġtrack s
ĠDi rect
toph an
Ġvel ocities
Ġun m
an terior
Ġm armos
ĠE stim
Ġcaregi ver
z es
Ġout ward
Ġexec uted
ĠL L
ine ur
Ġperce ive
ĠNeurolog y
Ġleuk ocytes
Ġdeli rium
d l
Ġp ons
ĠOX T
Ġg els
Ġ16 0
ĠID H
s a
R FP
Ġreper to
ĠH B
trans lational
F M
ec p
00 05
Ġnig ro
d nf
end ocrine
g ulation
Ġang ry
NC E
Ġgener ator
Ġcontras ting
tem por
Ġmanip ulate
ent ally
Ġpath ologic
Ġneutroph il
ĠAfric an
Ġextr insic
s ix
ĠUnder standing
ar achnoid
Ġimmun o
truc tion
ĠNeuro psych
ine a
ell er
Ġout lier
ni x
Ġedi ted
oster ic
Ġfluctu ation
M y
Ġappro priately
Ġdon ors
01 9
Ġmon ocyte
Ġpres er
Ġexclus ive
uz z
ĠS em
Ġstrict ly
ĠEx tended
rup t
Ġe lu
R C
ĠN issl
Ġflas h
Ġred ox
ĠF EF
ha o
Ġpne um
th re
ĠG LP
RG Cs
ĠS ema
Ġeff lux
Ġimp ossible
Ġgr asping
ky o
Ġult ra
de x
cy cl
ur ate
Ġexacerb ated
b B
ĠP BM
Ġdig itized
Ġphag ocytic
Ġfr uit
r c
Ġo ct
ang hai
Ġchor oid
Ġm agne
ĠAl pha
Ġorgan elles
ĠTo M
E p
os al
osp itals
e lec
Ġ ery
Ġneurof il
an z
t ypical
ar ic
Ġat tain
Ġmiss ed
if ting
to xin
per fusion
um a
Ġhe x
Ġdys kinesia
Ġus ual
M ath
Ġ $
Ġtub ulin
Ġhypot her
G CC
plic ity
lesion ed
Ġper m
Z hang
ĠE ph
ĠBra ak
Ġsh aded
Ġverte b
Ġsurprising ly
Ġm u
Im mun
e GFP
Ġsub acute
oph istic
ser ine
An alysis
T aken
âĢĿ ),
Ġmus carinic
Ġad versity
ĠI BM
Ġste ep
ĠP GC
ĠB ody
Ġsection ed
ĠC ap
sc ape
Ġd ACC
Ġmicrobi ome
Ġw ound
Ġreg ime
Ġprote omic
AS P
Ġconduc ting
r um
Ġect opic
ĠD an
Ġsup ra
Ġord ered
Ġth ous
ten ce
Ġinter cept
Ġgroup ing
Ġrejec ted
es tr
Ġd amp
Ġsp ared
ĠW A
ĠW orld
lyce mia
el ve
Ġdepend ed
Ġelectroph oresis
Ġassembl ies
Ġcathe ter
ĠS CR
Ġag arose
Ġb odily
ĠĠ ÂłĠ
oper atively
Ġl icking
Ġfac ility
ĠIn set
Ġmod ifying
Ġdem anding
Ġaccording ly
Ġbrid ge
c ore
ĠPo tential
Ġmere ly
Ġ âĢĻ
Ġcytos keletal
Ġtend s
Ġge ometric
ĠM AG
ĠF luorescence
ĠW u
ĠST S
ĠInte gr
Ġphys icians
Ġm ell
Ġd ock
ĠD CM
ĠN OS
Ġimmunos up
Ġben ch
Ġg er
ĠN V
ĠR H
Ġref eren
Ġar ithmetic
n ucle
Ġsymb ol
4 50
end ym
Ġfac ing
Ġsubdi visions
ĠA SM
ĠL y
cy tes
t aken
Ġear s
eu tic
Ġelic its
Ġamong st
p rom
reg istered
Ġfib re
umer ous
Ġgest ational
ĠI CD
> +</
Ġconduct ances
Ġp ituitary
Ġconstit utive
Ġconsum ed
ĠCent re
ĠD B
Ġem phasis
Ġran ked
C CA
M on
Ġsumm ation
m emory
Ġre nal
Ġtranspor ted
ĠSecond ly
Ġaccept able
ĠR andom
Ġhist amine
Ġincorpor ation
c ase
al ia
K e
x Tg
Ġir revers
ĠMod els
ĠFA CS
p y
ĠV E
Ġrota rod
Ġde em
ĠD ynamic
Ġderiv atives
as on
te ll
0 27
Ġe ver
P earson
10 6
m ale
Ġim per
Ġocc asion
Ġre agents
Ġiniti ating
Ġgest ation
ĠSO X
Ġrep ress
Ġr h
Ġne arest
ĠSer um
ar in
Ġsacc adic
ĠTRP M
ĠAb breviations
ĠU NC
I Ns
ĠAMPA Rs
Ġconform ational
ST M
I K
Ġcons ult
arrow s
Ġcyto archite
ter ase
Ġneuro ph
Ġepidemi ological
Ġvag us
Ġplay er
ĠC FA
a j
ĠKing dom
ĠSh ort
ĠAr g
Ġclon ed
11 9
Ġ8 9
igg ered
B o
Ġhorm onal
ĠC MT
Ġalong side
Ġsurvi ving
Ġcomm ands
I f
ĠG nRH
ĠD F
Ġintraperitone ally
reg ulating
Ġconfirm ation
H uman
Ġw at
ne xin
Ġinf ancy
u ated
x FAD
O b
Ġhist ology
ĠSNA P
Ġsleep iness
ĠEP M
Ġcon tig
ĠIden tification
Ġsurvi ved
ass ess
Ġel bow
Ġpiec es
b ec
ip olar
Ġinduc ible
ĠM Ã¼ller
bur st
ĠĊĠĠĊĊĊ Ċ
as i
Ġhallmark s
res olved
Ġre bound
Ġblock ers
DL PFC
r p
ess ation
glut amine
u is
Ġcl ick
Ġimm ersion
Am ong
Ġgrating s
oin formatic
ĠI PSCs
Ġchallen ged
S ome
s ens
ol er
Ġmultiple x
erule us
ĠR ank
Ġmind fulness
Ġglauc oma
Ġg erm
Ġhem oglobin
Ġsequenc ed
ST AT
ĠM n
ĠF actor
ĠL N
Ġdisc ounting
ĠM Î©
ĠCa v
13 3
tic es
ĠM il
rod mann
im ol
Ġphysiological ly
Ġm as
ĠE v
Ġinf erences
Ġpe ers
Ġc ation
ĠHyp er
Ġdis appeared
Ġpres erve
olm og
MS Cs
ĠY oung
Ġansw ers
Ġc ul
ĠSU D
ĠSp ike
on ate
b ad
Ġ( [
Ġdraf ted
Ġrout inely
Ġt ilt
Ġemerg ency
emb ered
H ar
âĢ ľ
ĠP NS
Ġmicro vascular
Ġhom ology
ĠnA ChR
ĠL in
ĠT SP
ĠI l
Ġembed ding
S L
l ist
ĠT reg
rough t
Ġresult ant
Ġsimpl ified
ord ant
Ġelong ation
o active
ot axis
Mill ipore
Ġs ophistic
di alysis
ĠSc ore
ĠNe ither
Ġincons isten
Ġpyr uvate
ĠF CD
tr iggered
Ġsynapt ogenesis
Ġmaca ques
ĠHC P
Ġcontrad ict
ent ricular
Ġaltern ation
im paired
om b
of ol
Ġweek ly
Ġinfec tious
Ġspec ulated
h room
ĠNeur on
an in
Ġme eting
os taining
Ġrepro duced
in er
Ġch imer
Ġdisturb ed
Ġregress or
ann els
Ġcl one
Ġlibr aries
as m
Ġh ip
Ġt a
Ġtransform ations
ĠAT F
Ġpool s
ĠRR MS
Ġimmun oglob
Ġemphas ized
Ġann ual
ĠCom put
Ġap er
Ġpublic ly
Ġf ifth
ĠE PSP
Ġanatom ic
Ġs ug
Ġcoop eration
ĠH is
ĠV AS
m agenta
Ġvisu o
Ġin oc
as ure
ish ing
om ere
olmog orov
v as
Ġi PSCs
ipher al
ĠE ye
Ġshould er
et z
Ġdeline ate
Ġb ases
ĠSte p
Ġa CSF
Ġg ames
ĠDunn ett
Ġind is
Ġacc lim
Ġresemb le
Ġsubstit ution
Ġdo ing
Sm ir
Ġc essation
in oids
ĠH TT
ĠL GN
Ġow ing
ĠM al
ĠDe ep
Ġlog arith
ĠP AS
âĢĻ .
ari able
ĠB MP
Ġtryp sin
iss on
R OS
path ic
he alth
Ġstream s
yst olic
ĠT ables
Ġanxio lytic
hes us
Ġregen erative
Ġration ale
Ġinterf aces
Ġcons pecific
Ġamelior ate
ord ed
Ġconto ur
Ġocc ipit
Ġd osing
ĠR isk
Ġo vari
g ressive
. ;
p ower
inhib itory
ĠCom plex
respond ers
01 0
yl ene
p eptide
ĠER D
ĠP lex
uccess ful
ĠS et
os tics
Ġmicro graph
Ġexerc ises
Ġpar tition
ol a
Ġrefine ment
Ġpattern ing
ĠPav lovian
re te
Ġb rought
tr an
Ġemerg es
ĠF K
Ġhyp og
Ġw anted
Ġminim ally
Work s
Ġne gligible
par ation
ereb ro
Ġpass ing
Ġaut opsy
Ġleuk ocyte
0 28
in ergic
meas ured
Ġdis abilities
Ġst ory
am ines
Ġsh r
Ġdec oder
Th ree
Ġcommun ities
Ġinterfer ing
Ġmonos ynaptic
Ġsenes cence
itor ies
Ġprolif erating
ĠRel ationship
Ġcl ozapine
Ġcomplain ts
Ġr am
Ġregard s
Ġs on
Ġwas hes
Ġinte grative
Ġnotic ed
EM ENT
Ġband pass
ph thal
Ġreg imen
t ri
Ġterr itory
in ner
ag ulation
ĠP art
Ġs yr
ĠV OR
ost asis
ĠH sp
ĠG BA
Ġsub divid
are tic
Ġdam s
ĠCN V
s l
ĠH olm
Ġin hal
Ġm ating
Ġunex pl
ĠI Ns
Ġunderpinning s
P LA
Ġmell itus
ab ular
Ġsupram arginal
tinguish able
Ġro utes
Ġc red
Ġ4 50
ĠCy t
Ġend osomes
D o
ten se
Ġmodular ity
NS S
Ġsept um
ĠCharacter istics
Ġsub thalamic
ers hip
rip ts
ĠT IA
Ab cam
Ġreproduc tive
me ans
ĠDiff usion
Ġag o
ĠS yt
ĠC och
Ġ] )
ĠGP i
Ġmet abotropic
Ġ12 9
Ġscaff old
Ġtop ograph
Ġneurop eptides
Ġuniform ly
Ġthrombo lysis
Ġwhe el
Ġst ore
Ġattribu te
Ġun w
Ġparad ox
ĠN RG
roscop ic
ed uc
Ġcarg o
Ġg amb
pend icular
Ġconstrain t
Th us
ĠP c
Ġp ol
ĠDo uble
ĠL oc
LA G
Ġ {
Ġdetermin ants
Ġdomin ated
Ġv oc
Ġmus hroom
Ġag ency
ĠTo kyo
e ti
in ated
ĠL SM
ol ig
Ġdur a
ĠSecond ary
E l
ĠM EC
ĠPre c
id one
ĠNa H
ap iro
Ġcare ful
Ġsple en
Ġmitig ate
ut ch
op artic
Ġinf used
Ġaug mentation
Ġrecol lection
Ġabs orption
Ġthor acic
Ġmus icians
Ġstra tification
Ġm aster
is ite
ĠPe ak
Ġappear ing
ĠFin dings
ĠF OX
Ġab dominal
ĠâĢ ²
Ġdiscrimin ating
it a
Ġpredict able
Ġcataly tic
ĠM ath
Ġro ll
Ġtransmit ter
c en
Ġleg s
Experim ent
Ġaim ing
Ġmono amine
Ġsubfield s
ĠT O
ĠE ucl
Ġdeem ed
or a
ĠM agn
in der
ve hicle
d am
ro in
Ġposi tives
Ġopi oids
Ġpl acing
Ġpass age
Ġc ats
ĠR C
Ġtranscardi ally
phag ia
ĠMid dle
Ġsegreg ated
ĠF requency
Fig s
Ġaccompan ying
i tic
ir iform
Ġbif urc
Smir nov
ater als
Ġglob ally
cor related
V NS
Ġexpect ancy
ĠU C
Ġclos est
Ġpermut ations
Ġat lases
Ġur inary
Ġtimesc ales
LT S
Ġdrop ped
ĠMF G
D F
Ġ ri
Ġide as
Ġcapt ures
ag ger
p in
y x
un ed
Ġmarg inally
ren ch
oxy gen
an ing
Ġcent re
h our
Ġt amoxifen
Ġpro ton
Ġrepro gramm
Ġpresum ed
B CI
Ġread out
Ġproblem atic
G ene
Ġref lection
Ġcult ural
Ġbiotin ylated
Ġin qu
Ġsyn tactic
In ter
Ġre v
Ġshap ed
Ġsupernat ants
Ġvari ances
ĠG ra
ank er
SA H
ĠAt tention
ol us
ĠP LS
ĠF FA
Ġins pected
Ġaltern ate
ch loride
Ġcrani otomy
ĠACh E
od iazep
ĠĊ ĠĊĠĠ
Ġtransl ate
Ġlac un
L ong
p g
Ġamelior ated
ĠMe CP
Ġens uring
Ġmass ive
EG G
ens tr
an y
ĠK CN
n A
ĠG B
Ġp he
ĠO pt
ĠG AT
b lasts
ar ia
Ġsub arachnoid
Ġar rest
ygdal a
ĠH RP
ĠT N
ade qu
O r
Ġenlarge ment
inc ub
ustr ation
DI O
Q iagen
Ġb old
ĠE X
ĠSh h
ĠCoun cil
U PDRS
gen eral
2 12
Ġhe par
ĠP RO
om ated
Ġqu ies
Ġsubreg ion
ro f
ĠMA O
0 21
Ġdis ent
Ġrec essive
Ġf lic
Ġhem ip
ĠZ T
Ġent ail
Ġshap ing
D el
G AG
ĠG re
Ġgeneraliz ability
l ay
Ġend ovascular
Ġv ibration
ĠAn aly
Ġg ent
ex perim
Ġsmo kers
Ġb at
pl an
ati bility
Ġbi ogenesis
Ġdetect or
character ized
Ġsp acing
se vere
ri ers
Ġnigro striatal
uty ric
ew al
ĠCO MT
ĠS RS
Ġimmo bil
Ġl ights
10 4
J un
ob e
zyg otes
ĠT ur
ĠG CL
Ġconc aten
Ġdele tions
Ġstraight forward
ig are
Ġaut ocor
m ol
Ġmy ocl
ĠAs trocytes
h asic
ide an
tric ted
Ġquad ratic
Ġn NOS
with in
ĠTh irty
vail able
ĠEp ilepsy
Ġdesens itization
iman ual
ĠM unc
IS H
Ġantis ense
Ġdispers ion
Ġrep os
Ġprom pt
ĠSTAT EMENT
Ġab normally
ĠH H
ĠPan el
I PSC
ann ers
Ġchain s
Ġoverexp ressed
Ġsocio economic
ĠH i
Ġcaus ative
Ġhospital ization
Ġoxygen ation
ĠSNA RE
lor o
Ġw aking
Ġinv asion
Ġneurolog ists
Ġgran ules
Ġincen tive
Ġadequ ately
ĠP TP
Ġstabil ize
Ġcompens ated
Ġangi ography
ĠF ood
22 3
F D
ĠK ore
alth am
Ġlys ate
Ġexpress es
are a
ĠHe at
Ġper pendicular
Ġpluripo tent
GC a
s ch
ĠM apping
Ġoper ational
Ġhead s
Ġf av
Ġrel ie
oflu orescent
t onic
Ġrepl ay
Ġobserv able
mT OR
Ġlab elling
Ġar te
ric e
ĠPO MC
al tered
erg ing
ĠRE ST
ĠPA CAP
ĠFirst ly
Ġplan ar
Ġbarri ers
Ġpro social
5 000
Rec ently
Ġpar am
oph ore
Ġqu in
om od
18 1
F DG
ar box
Ġth i
Ġdri ed
NI F
ĠE Z
Ġplan es
av is
ĠLFP s
Ġspin y
ĠL ibr
Ġimplic ate
GCa MP
Ġ( &#
cor rect
Ġeng aging
Ġsol ving
Ġtrans duc
Ġc G
ute ro
ĠPT EN
k b
Ġs ick
Ġplat forms
ĠT or
Ġips ilesional
esthe tized
Ġcoll aterals
Ġco eruleus
onstr uct
ĠAll en
Ġtum our
Ġpersonal ized
Ġindis tinguishable
L FP
ĠAm pl
Ġc ysteine
uc ine
Ġph r
Ġph antom
Ġgh relin
ex c
Ġsynapt ophysin
im a
overlap ping
on y
ĠS lices
Ġpar affin
ĠNA A
ĠM u
ĠIC V
Ġkine tic
t argeted
reg ional
ĠSt ri
ĠRemark ably
ĠM ecp
ĠP W
Ġreperto ire
Ġepilept ogenesis
M RS
ĠB ars
Ġs g
Ġsur prise
um or
Ġros tro
rati o
ĠCS P
ĠF orm
ĠAb s
ĠE mb
Ġun equ
Ġde formation
Ġpro tr
N ew
Ġcop ies
f ib
0 26
ul line
E X
Ġdetermin ant
ĠElectro physiological
ask et
reg ion
Ġrec anal
Ġpress es
Ġgli oblastoma
T otal
w a
op ram
ĠD Y
Ġcor recting
ares is
Ġstep ping
Ġtr aced
Ġconver gent
ĠAK T
Ġstr ide
Ġsw ing
Ġmanip ulating
out put
ob ia
Ġharm ful
Ġpropos al
Ġtransp arent
ĠC ox
arc ts
Ġtw in
st ress
ak o
ĠCri ter
Ġdiges tion
yn ure
otyp ical
Ġgl and
Ġconf lu
r TMS
Ġd ental
id ol
Ġe GFP
Ġm Ab
Ġsc ripts
Ġdiver gence
ĠIn dependent
U CT
ĠEC G
Ġcolon y
m ade
p yr
te l
Ġunder taken
Ġhum idity
Ġperform s
Ġmat ches
ĠCh IP
Ġlip opolysaccharide
p ip
ĠMa xim
ĠMAP T
Ġorth olog
Park inson
U AS
Ġ) ]
Ġpred efined
Ġswallow ing
erc k
ke ep
Ġcytos ol
P B
Ġcol i
Ġencompass ing
or ted
Ġap plies
Ġindex ed
Ġphot ostimulation
Ġp aid
Ġdri vers
ĠP LP
Ġimpl ants
Ġdis ab
ash i
Ġrot ations
ĠSubsequ ent
Ġantagon ism
os yl
ĠSV D
Ġfor get
Ġdispar ity
Ġlitterm ate
d ig
Ġparkinson ian
Ġadop t
Ġo mitted
op od
Ġimp osed
ĠPub Med
N ot
ĠT U
Ġion ic
K L
Ġop in
Ġdis h
Ġemb od
ĠIQ R
inte gr
Ġaccess ibility
Ġaccel erate
ĠCX CR
Ġgeneral ize
Ġr he
ĠLi k
ot onic
t ages
Ġsinus oidal
itzer land
ĠTa q
red uc
Ġcontribut or
Ġtr acers
normal ized
el le
Li u
Ġh ospitals
Ġst aff
Ġneuromod ulatory
Ġhundred s
Glu T
ĠF E
ĠMD S
ĠAB C
Ġ ut
Ġs aid
Ġp arox
Ġimmunoblot ting
Ġsophistic ated
ox ylin
Ġocc as
Ġanti epileptic
ĠEA AT
ij ing
Ġsc ript
. :
Ġund ue
P a
Ġde ad
Ġarter i
rog raph
Ġlnc RNAs
Ġglyco lysis
okine tic
ĠN an
rep resented
ĠAV P
ub b
V O
Ġrecons olidation
L N
Ġgen u
ĠF OG
u o
ĠHF S
K D
ten one
a ud
Ġcon ve
sk y
Ġpul monary
Ġnever theless
ĠEx clusion
d or
ĠâĢ ¦
op i
Ġsurround ed
p a
Ġhypother mia
immunore active
to id
Ġb ad
Ġmim ics
tic k
with out
idel ity
Ġhe ating
ĠDem ographic
ant h
Ġassum es
Ġref ined
ĠBD I
Ġconver t
Ġdepri ved
Graph Pad
mo vement
vo flurane
Ġpro active
erc ise
Ġgover n
000 2
Reg arding
ĠA ging
Co hen
Ġoccup ancy
Ġsc r
Ġhabit ual
ital opram
Ġorig ins
Ġparas ympathetic
Ġend ocrine
j amin
l oss
ĠM CS
Ġhe roin
CA A
ĠPV T
an ic
ĠM el
sour ce
an yl
act ors
Ġmm Hg
Ġpallid um
Ġrot ated
ant ine
AM PA
Ġtemper atures
OD S
at ome
form ations
O ther
s ize
th ird
Ġf etus
ĠP et
ĠP aired
ran ts
M MSE
Ġfor nix
ĠV is
Ġprog ester
atom y
ĠPlas ma
M aterials
Ġphon em
ĠLong itudinal
Ġth yroid
Ġc ilia
ĠF ried
Ġdig its
Ġconc ordance
ĠM arch
re al
Ġm W
s ler
ink age
Ġprogester one
ĠImmun o
dep th
Ġlip oprotein
Ġretro spectively
ĠSyn drome
Ġtel encephalon
ĠX en
ocy t
Ġb orders
Ġnormal ize
Ġintr on
Ġdeple ted
N TR
sh ock
Ġchem otherapy
ĠC CA
Ġcongru ency
i tively
Le e
ĠN ov
Ġtan dem
Ġarc uate
b x
im als
ĠC erebral
Ġsn iff
Ġaccum ulating
Ġrel ied
Ġexc ited
ĠEV T
ĠOut come
um bers
Ġpolic y
r ated
qu an
Ġas certain
le p
ĠT m
Ġpoten cy
G NIF
Ġap nea
ĠP LA
GNIF ICA
Ġst yle
Ġatheros clerosis
Ġsp hing
ĠW I
Ġun supervised
Ġcortic ostriatal
ĠE LS
Ġcyt otoxic
Ġindex es
ĠnA ChRs
Ġd pf
o ic
S U
ĠB K
c ranial
Ġhyp oper
Ġtra ditionally
Ġrelap sing
vary ing
ĠPrevious ly
Ġr hesus
ĠControl s
PA C
Ġb uffered
Ġres ervation
ĠG LT
le ase
Ġcapac itance
S tr
Ġsp orts
ĠAD C
Ġcod on
Ġam mon
ĠM Y
Ġcom mit
Ġneuro endocrine
Ġmillisecond s
ec al
er ally
Ġasymmet ries
ĠPh il
Ġsatisf action
ag ree
Ġcal ibrated
A x
C X
Ġoccipit o
GNIFICA NCE
ĠN AC
Ġdef ense
Ġextrem ity
D B
Ġstruct urally
p olar
pos ing
Ġag reed
Ġrig idity
Ġalloc ated
Ġeuthan ized
Ġtri ed
13 4
Ġglyc ogen
ram er
Ġcommiss ure
Ġcomp ulsive
Ġprogramm ed
duc ts
g ment
Ġneuro behavioral
c her
Ġin adequ
ĠP t
Ġling ual
Ġy our
Ġirrevers ible
ĠSN CA
ĠIN TR
ur ious
Ġelectr ically
Ġn al
B r
Ġtag ged
A Q
tens in
orph ine
Ġcontras ted
Ġmigr ating
ac ob
ĠF o
V e
obi ographical
ĠW altham
ĠNA cc
b ac
ĠD MT
C at
te c
Ġmy ocardi
ĠSU MO
en chymal
ĠB eck
oc iceptive
ĠAd v
CS T
Ġillness es
Ġmem or
Ġconst antly
Ġl ot
c ale
Ġ3 50
Ġinv al
ĠT et
ĠMic roscop
Ġspro uting
ĠB E
mod ifying
ĠSw itzerland
id ase
Ġs ar
Ġrem embered
Ġresidual s
ĠRES U
Ġs keleton
Ġjud ged
Ġc ass
Ġregular ly
U SS
ĠF ull
d orsal
Ġmin ocycline
Ġconf usion
ven tional
ĠH SV
Ġintro ducing
D is
Ġcorrel ating
Ġar th
Ġonset s
Ġadvantage ous
ĠCh ar
Ġtib ial
Ġsp here
ĠE ight
Ġconsequ ent
UCT ION
) ],
> ,
Ġm er
Ġas terisks
Ġdefe at
min al
p res
M odel
M ental
Ġneuro blasts
ĠGen ome
Ġall osteric
Ġsuper vision
ĠAB R
B LA
T X
es la
ĠF ac
Ġaccompl ished
id ating
inter vention
Ġclin ician
Ġanti gens
il um
Ġinvestig ator
Ġimplic ation
abular y
Ġwhere in
Ġpan cre
ig ibility
ĠSe qu
ĠRESU LTS
Ap plied
Ġhind brain
Ġadren al
ĠTest ing
Ġindividual ized
Ġfib rin
Ġd anger
c ourse
pon ents
N on
ĠH am
enc oding
Ġgo ing
ob ank
ĠIm pro
Ġminim izing
H yp
Ġres et
ĠK olmogorov
Ġpenetr ation
R L
z ero
Ġth ym
ĠCon tr
Ġlamin in
Ġresearc her
ops ies
Ġdehydr ated
err or
Ġcomprom ise
Ġbiosyn thesis
Ġcapt uring
K im
ĠMeasure ment
Ġn itro
Ġconflic ts
Ġtime points
cin ate
sc an
Ġcyt ochrome
Ġs ay
Ġhyp erg
sec tions
Ġgen otyped
Ġexceed ing
iguing ly
ĠP opulation
Ġr pm
Ġcit rate
Ġup coming
Ġstud ent
ĠSc atter
grad ely
Ġfl an
Ġcommunic ate
OD UCTION
Q I
ĠL ateral
Ġmorph ometric
ĠAR C
Ġolig omeric
ys tal
ĠOb jective
ĠIncre asing
Ġtempor o
enhan ced
Ġmicrob ial
Ġlack s
h m
tr in
rist on
C am
Ġec ological
ĠR ew
ĠMP P
Ġbip hasic
U E
ad o
R B
s im
ĠÎ± Syn
le g
d y
Ġdisc ern
hydro x
ac ters
f action
Ġs ystolic
ĠI BA
Ġradi ological
Ġinc id
vi a
ent ary
Ġdef ines
ie u
Ġ201 1
Ġch oline
ar ma
Ġv aric
Ġspe aking
Ġasynchron ous
Ġadip ose
Ġglycop rotein
ĠINTR ODUCTION
ĠRepe ated
Ġinterle aved
Ġdef ensive
av irus
ar ate
en ters
More over
Ġcons tric
Ġpotenti ated
Ġch air
omic rograph
Ġlum en
Ġpac em
Ġdecl ar
Ġval pro
Ġintr am
G CT
Ġw ant
ĠEucl idean
ĠI M
ess el
16 0
Ġimmunolab eling
o ted
Ġsc ientists
estab il
Ġclar ity
Ġances try
ll ip
Ġreapp raisal
ĠFig s
Ġlab oratories
Ġgon ad
ar is
fr ame
projec ting
U s
ĠAn atomical
Ġs tent
Ġdr ink
Ġrup ture
e g
Ġparticip ates
7 00
in ase
Ġdens ely
Ġcut aneous
Ġfix ations
Ġneurobi ology
' -
v PPA
r il
ass ay
Ġep endym
Ġadapt or
am ond
ph yrin
Ġphys ician
ch a
Ġout patient
ĠI B
Ġstereot actic
ĠB ax
CC T
ĠD CN
ĠD J
ĠD rd
Ġrender ing
f ed
Ġstabil ized
Ġregression s
ĠProte ins
Ġend points
Ġunc overed
Ġp ial
Ġschem es
Ġinterpret ations
ĠElectr onic
Ġvac u
Ġmo bil
Ġprop ofol
Ġinterview s
Ġprof ession
ĠP LC
ĠR LS
st alk
Ġimplement ing
Ġsp iral
ech sler
Ġpeak ed
Ġbench mark
r ically
Ġshuff led
Ġqu ant
ĠST DP
ĠT al
uc ulline
st ates
ĠR as
Ġfound ation
A ge
S NA
Ġped un
aus al
ĠDISC USS
Ġthorough ly
ĠAD AM
tras ynaptic
ĠDetail ed
Ġery th
Ġinc on
R AGE
ĠSW S
Ġmusc imol
Ġperturb ed
Ġavoid ed
squ ared
Ġor ders
Ġaug ment
ĠAN COVA
Ġgener ic
ĠRCT s
Ġneuroblast oma
Ġs end
Ġa f
Ġ utero
ĠK e
Ġst ores
Ġcollec tively
ĠDISCUSS ION
s us
Ġimmun oprecipitation
Ġinterp olation
of en
ul ant
Ġsl ide
ĠN at
Ġpun cture
t w
Ġindic ations
s ue
l ocation
Ġconcurrent ly
âĢĻ -
I BM
Ġpsych ology
ĠMar tin
Ġpsych ophysical
p ired
3 50
Ġneuro sp
be havior
Ġm oney
ĠER N
Ġparenchym al
] ),
it he
uls ion
ĠE PSPs
Ġcon dens
Ġper mit
ch ronic
ĠFour th
Ġrespond s
l ast
Ġful f
Ġb esides
Ġhapl otype
K K
Ġens ured
Ġconcer ned
V ector
Ġr t
atic k
reg ulates
t urnal
ĠDec ember
Ġmen tion
Ġdeline ated
13 7
Ġleg al
Ġventil ation
ĠCa uc
Ġneighbor hood
Ġp iriform
ĠÂµ g
Ġtryp tophan
g ust
0 29
Ġinc ident
Ġhypot he
G ibco
is tering
Ġsug ar
en ger
ĠF rench
Ġmorph ologies
ĠSe ven
ĠTRP C
Ġnon parametric
Ġcomple ting
ber ger
o ked
Ġbeha ving
ĠG RN
s ampled
ĠAustr alia
ĠL PP
ĠC NT
spi king
med ial
Ġmicro dialysis
Ġhydroph obic
if ty
Ġmeth amphetamine
L L
Ġra ising
Ġhaben ula
p en
ĠCompar isons
Ġoccup ied
ĠMETH ODS
ĠGly R
Ġrecanal ization
ate ll
ĠG Î±
Ca MKII
work s
Ġmotoneur on
H igh
Ġthere after
h ospital
ĠC er
o ys
Ġf atal
ĠG BS
ĠH M
Ġcomplic ation
Ġsugges tion
ud es
Ġcom ing
t dTomato
orph in
Ġmaintain s
Ġneuron es
ĠM ag
Ġdip ole
Ġland scape
Ġmagn eto
Se e
Ġpiec e
b en
mit otic
Ġcont amin
Ġpent obarbital
uis ance
en ial
cen tered
Ġas k
pre c
Âµ l
ischem ic
gram s
Ġde acetyl
ĠM Cs
ĠC trl
Glu R
Ġe ase
Ġex agger
ĠY ang
Ġcontig uous
ĠCS VD
Ġglycer ol
Ġpartic le
Ġleg end
ĠPo isson
Ġarri val
Ġcentr ally
S ummary
Ġo sm
Ġdepolar ized
ur gical
Ġdisrup ting
Ġsh ut
Ġcolocal ized
ĠAS L
Ġendocannab inoid
n is
ĠAs ian
GS K
ĠN ikon
Ġaccept ance
Ġbenz odiazep
con t
Ġempir ically
Ġform ulation
Ġpariet o
pub lished
ĠSp inal
Ġal iqu
Ġpool ing
R EM
Ġb asket
Ġwe ar
Ġallevi ated
ech st
miss ions
ed s
truc tive
Ġeg ocentric
Ġin appropriate
05 0
ĠAS IC
tiv ation
ĠCor poration
D T
ĠMS C
d istance
f amily
Ġret ard
Ġs ati
und er
lys ine
Ġgra vity
Ġsubdivid ed
ĠI Cs
uch i
Ġpre treated
Ġtriplic ate
Ġdec oded
ĠD op
Ġchar acters
Ġsyr inge
Ġhanded ness
ĠR od
ĠC oh
cult ure
ĠA ctive
cit atory
ex per
Ġwash out
Ġhistopath ological
Ġex tern
Ġright ward
enstr ual
Ġspecial ization
ĠN atick
Ġgen ic
ĠK C
col or
ub er
ĠMT G
Multi ple
f eld
d im
Ġn ested
Ġd estabil
Ġfail ures
Ġb ab
Ġse ated
Ġcre ation
aminob utyric
t g
ĠRe elin
Ġstep wise
MAP K
Ġambig uity
quenc ing
ĠSN pc
yl amide
Ġrespond ents
ĠPark in
Ġoper ator
Ġundergo es
Ġneurofil ament
ĠO C
Ġit ch
F our
ĠS ensory
Ġshort ly
Ġeff ic
Ġimplic ating
Ġidentif iable
i ents
ĠCons ortium
Ġl ose
ĠSh anghai
Ġtor que
cal c
bin ase
ĠNT S
Ġclean ed
Ġat rial
Ġphosph atid
Ġsoci ety
Ġce iling
r ater
Ġpur ification
mod erate
ĠTM EM
C urrent
H PC
Ġautoan tibodies
k x
ĠP hen
Ġsub ser
k ins
Ġgest ures
ĠH ol
on ant
avor able
Ġlentiv irus
ĠS ha
Ġwork load
Ġdevelop ments
w MS
Ġun altered
Ġfil m
Ġb imodal
Ġste roids
arp ine
ins ically
NF L
ĠBro ca
Ġsed ation
Ġcertain ly
ĠDem entia
ĠD l
am eth
Ġconc rete
Ġstop ping
Ã¶ t
d ered
Ġper mission
Ġcontrol ler
Ġnic he
yst all
Ġstrengthen ing
T RP
Ġt PA
Ġob li
Ġup ward
Ġargum ent
Ġgu inea
a que
ĠH G
g in
Ġro botic
Ġelectro poration
0 20
O x
at tered
Ġinfiltr ating
ĠProced ures
Ġe llip
group s
ic ago
Ġtransc ribed
Ġregular ization
G r
Ġhyperpolar izing
ĠN PS
Ġcomb ines
Ġhypoper fusion
s ystem
R BD
Ġimag ined
ĠG li
id in
ĠBe havi
D ec
ĠP attern
Ġp ontine
yl azine
EM P
ĠQ oL
ell i
ĠB dnf
Ġmo v
Ġoverlap s
ĠDetail s
ĠC TA
ĠF c
ĠPercent age
17 5
Ġcomp elling
Ġaltern atives
Ġtr y
Ġinf arcts
ĠAs terisks
ĠM WM
ĠS AD
Ġsyn ta
ym b
b u
ĠP GE
Ġeccentric ity
aryn geal
ĠS ensitivity
Ċ ĠĊĠĠ
Ġan c
Ġintegr ates
Ġrib bon
ĠB erg
ĠSh apiro
ĠG ad
Ġconfound s
ch i
Ġt rough
ĠTool box
ĠP ST
Ġcon vers
ch rom
Ġcry ostat
Ġtimesc ale
Ġmicro state
ĠO V
ĠBi ological
) âĢĶ
ĠS y
Ġex trasynaptic
O FF
ĠN ic
Ġte ac
Sm ith
Ġine ffective
Ġhead ing
ĠĊĠĠĊĊĊĊ ĊĠ
D N
Ġquan tities
Ġtempor ary
Ġtop ographical
Ġse mic
por ts
Ġrele asing
Ġsequ el
ĠI NT
Ġtermin ated
Ġamb ient
Ġr ub
ĠH an
Ġunus ual
w al
10 2
Ġleft ward
ip p
Ġclos ure
Ġchick en
Ġconce iv
h ours
ig hed
Ġpen al
Ġl ic
ĠE RS
ce in
Ġob sc
Ġconting ency
ter ations
se izure
mod ulated
ls bad
Gl ut
fer ior
Ġhand le
Ġtrans ection
neur ons
ard less
ĠMS E
Ġfe at
Ġi TBS
as er
ĠIn di
ĠV Z
ĠW B
ĠEx posure
Ġintern ally
Ġovere stim
ĠMan ual
EP I
L GN
Ġtau opathy
ĠK al
ra il
itor ing
Ġpro poses
ĠSP ECT
Ġmultic enter
ĠPA R
T re
Ġstream lines
cription al
ĠVer bal
Ġalloc entric
Ġnan opartic
ĠF N
ĠDA N
G reen
m aps
ĠHealth y
Â° )
ĠD HA
Ġincre ments
Ġmut ually
Ġp c
Ġcre ates
Ġ( âī¥
Ġdistor tions
Ġcounter stained
ĠCompar ing
ĠSV s
Ġvic inity
Ġacknow led
S tim
oc arpine
ĠR SC
ET A
ĠG i
av entricular
le tion
de z
Âµ g
2 40
Ġaut obiographical
rel ative
onym ous
Ġirradi ation
Ġexacerb ate
ol ate
ĠO s
d ashed
Q uan
ĠB CA
i ans
oper idol
Ġhete rom
Wil k
Ġdirection ality
p p
Ġam acrine
Ġdisc om
F US
Ġex it
ĠE vent
pl antation
vi val
indow s
Ġmon tage
ir hinal
Ġcommerc ially
Ġglyc os
v ille
y a
sc hem
OR F
Ġubiquit ous
ĠS RT
ĠR oche
ĠD ist
ĠPre paration
ĠApp endix
ĠÏ ī
ĠDifferen tial
mit o
Ġtet ro
id ge
Ġcallos al
ĠL TM
Ġobs essive
Ġro tenone
Ġdich otom
Ġser ving
l atency
echan ical
Ġradi o
Ġseem ingly
Ġneigh bors
Ġrip ples
Ġimmunoglob ulin
Ġr ising
un ctive
Ġadd s
Ġg ently
ĠP al
gen es
op ed
Ġdele ted
ĠTSP O
Ġconfound ers
MS Ns
Ġremin is
Ġdo or
Ġins ensitive
ĠAr rows
ĠT ai
Ċ ĠĊ
Ġpneum onia
ĠLibr ary
Ġin her
ri er
ĠInter view
z ol
Ġh unting
Ġcoun try
Ġfail s
Ġvacc ination
ĠC t
Ġcent ury
Ġmening itis
Ġimmun ocytochemistry
Ġpro spectively
pro portion
ime ter
sm all
Ġble eding
ĠLD L
organ ized
Ġs uff
Ġcyt otoxicity
Ġubiquit ination
ĠTh y
ĠNo vel
Ġbout on
ĠF il
Ġlig ation
% âĢĵ
com plex
Neu N
Ġphe rom
h x
m atter
Ġexp end
up s
Ġelic iting
e ither
ĠF ollow
Ġmit ral
Ġnar rative
L H
Ġse voflurane
sh ot
AN K
Ġclar ified
ĠB S
Ġdi ameters
Ġm EPSC
ĠAb eta
ĠConsistent ly
illi ams
ĠGroup s
od il
itud inally
Ġinters ection
Ġspec ify
Ġp ink
Ġdec ide
ul ose
ĠPP N
Ġm ath
Ġproced ural
prin t
par ameter
macroph ages
> )
gen erative
Ġsat urated
ĠD RN
ĠRel ated
Ġtraff ic
p ressive
Ġm osa
12 6
Ġend ed
n it
Ġg ift
ĠRec ording
ĠPT Z
Ġgr ant
Ġprote ome
Ġfe et
Ġcapac ities
por ated
IR ES
V i
l ass
Ġc igare
Ġinner vating
h or
ĠS till
Ġextrac ting
ĠW S
Ġcut ting
Ġfibro blast
A lex
Ġd ere
ĠAp o
Ġprom pted
ĠG ro
Ġincre ment
pro b
Ġsyn ergy
ig mo
AB C
V M
d imer
Ġrod s
ĠM en
ĠO c
Ġcontradict ory
Ġbe aring
m A
ĠAp plication
Ġnoc turnal
pur ple
ch l
jamin i
te re
Ġsc anners
0 45
des cribed
Ġpoly Q
Ġelectroencephal ogram
v ard
Ġhab its
Ġarbor ization
Ġman age
ĠGS E
Ġco oling
Ġnoradren aline
Ġoccasion ally
Ġclaus trum
Ġrecogn izing
ĠKn ock
cephal us
Ġmm ol
Ġintrap arietal
ĠVal idation
ĠR at
ĠIn clusion
Ġhem if
be at
Ġtim eline
ĠN l
Ġpath ogen
Ġcle ared
Ġa v
Ġcros stalk
Ġele vations
ĠCD R
Ġion otropic
ĠTr k
or g
ol ith
en us
ĠB re
Ġmethod ologies
ass isted
ches tr
ach ine
Ġscar ce
Ġintegr in
Ġmalign ant
T N
c ut
Ġmo ves
Ġtre es
Ġlack ed
onstruc tion
Ġretin otopic
Ġign ored
ĠSp i
Ġstack s
Ġch ip
Ġintran asal
e ven
Ġe IF
id ium
apl an
Ġcomputer ized
rome ga
a rous
Ġpoly s
Ġb or
Ġadap ting
ĠN CT
Ġun ified
ĠF DA
ylin der
plic ations
Ġcre ative
x pression
Â° .
ank s
Ġlentiv iral
op arietal
Ġtri angles
ĠIntr iguingly
Ġmet ac
Ġcollec tive
oscop ic
S chem
ĠT i
Ġcl ips
ĠV ide
ĠP IP
G AD
ĠR ad
ĠB rown
Ġtime point
i ency
tiv ariate
as ian
âĢ ħ
et hing
Ġgamb ling
Ġdisapp ear
ac ious
ĠGP e
Ġsecret ory
C OVID
az ol
e le
Ġn uisance
Ġprogress es
N GF
m ode
ari ous
Ġun com
Ġuni versity
ĠPS EN
Ġpl aces
Ġend ophen
through put
Ġas terisk
ra b
ateg ory
ĠFP N
Ġs ure
Ġver tices
Ġdec onv
ch ain
ĠSN r
hal f
ĠL PC
Ġsup posed
ĠMI A
ĠC ity
ĠMit ochondrial
t ase
Ġenti ties
ĠRho A
0 48
Ġnon invasive
ur red
Ġlower ing
Ġra b
ti ary
ac cess
Ġgener ative
ĠIC U
G ly
ĠW elch
ĠSp ontaneous
Ġconstitu tively
ĠSub ject
Ġdiscom fort
om yelitis
Ġsim plicity
03 5
ĠInter action
Ġendothe lium
ec ting
Ġobjec tives
Ġopen ed
In f
Ġethnic ity
Ġimmun ological
Ġline ages
Ġsom ething
ĠEd U
ĠG ST
Ġcass ette
Ġver mis
con v
inte rest
Ġplant ar
M or
ĠDec reased
spl enial
Ġs itting
Ġmulti dimensional
Ġbreak s
ĠCh icago
ier ce
Ġvacc ine
ĠN et
Ġglomer ular
ĠAppro ximately
ĠHo echst
Ġlate st
ĠÎĶ F
Ġpermeabil ized
T wenty
Ġrecall ed
Ġtransl oc
ĠCD K
Ġran king
Ġintra operative
Ar g
ĠNI RS
ch ild
Ġresemb ling
2 10
Ġfo ve
ult y
medi ately
Ġthromb ectomy
Ġont ology
ĠN g
ĠW D
Ġex haus
Ġmix ing
Ġcoron ary
Ġdes irable
Ġthous ands
Ġpip elines
ĠT CA
Ġper sever
Ġstere otyped
ĠNO X
B G
Ġo mission
n em
Ġsearch ing
Ġprog ressed
Ġemotion ally
Ġmagne tization
Ġcorrobor ated
ir relevant
Ġ19 2
Ġreg ulations
row ing
Ġcre ativity
Ġden ervation
f s
op ia
Ġmet hanol
car riers
olip oprotein
Ġrest oring
Ġbright ness
Ġqu artile
Ġdis p
Ġcon jug
ici ally
BM I
ĠA EDs
Ġatten ding
Ġillumin ated
t ors
11 5
D AT
Ġharmon ic
G TP
an tic
ĠCh ange
R o
ab ric
Ġeffect ors
AD S
ĠR ich
AP s
Ġbic uculline
ĠOrgan ization
ter ans
Ġdens it
Ġgas tric
ĠF V
ĠB rodmann
och berg
Ġodor ants
Ġreg ressed
ĠTR PA
ĠMut ations
ĠT EA
Ġmeas urable
reg ions
im p
ĠMon te
Ġmini ature
ati o
void ance
ĠInte llig
Ġpreven tive
Ġinadequ ate
os tero
Ġuni versal
Ġtw ins
on uclear
as semb
ĠB u
SI GNIFICANCE
ple ments
Ġassess es
ĠI TI
Ġe osin
Ġsub m
irc ular
Ġsol ved
ia o
d iss
Ġto ld
Ġintr insically
ĠP d
ĠIn itial
Ġdi urnal
Ġanaly tic
ĠGen eration
Ġrot ating
mod ulin
Ġd rain
ĠS AS
Ġoper ated
Ġnecess ity
Ġdis hes
ĠR IP
ĠM ap
Ġcover t
> &#
C ognitive
ĠG ab
Ġreprogramm ing
Ġh ors
kine tic
Ġmethyl ated
Ġresemb les
ĠN J
ĠH V
Ġun trained
ĠAb normal
Ġwr ong
ĠÎ º
Ġinten tions
Ã Ł
P CC
ĠPro gram
ĠBe ijing
Ġrot ational
g lycer
Ġor chestr
ider mal
Ġp ause
Ġconceptual ization
ĠK EGG
PK C
ĠAT G
Ġm agenta
is itions
G LM
Ġ3 000
ĠL arge
ĠIm pair
Ġepit ope
ĠReg ional
Ġswit ches
Ġby pass
2 20
D MS
ti tial
Ġden at
res tricted
Ġar bors
or th
Ġbl unted
Ġlong est
Ġdark ness
Ġprofession als
Ġenroll ment
Ġcal oric
et om
ym met
Ġminor ity
Ġarchitect ures
ĠRS Ns
I ba
Ġmic rom
trocy te
oti ent
oph ysiological
ĠSN I
iazep am
ĠE GF
G B
f lex
Ġdiscrim inant
ĠK l
Ġend o
sp eed
ĠA ction
i ogenic
ĠE q
Ġpers ists
Ġrecip ient
Ġsymmet rical
acet am
on us
Ġre ver
Ġsil ico
ĠNAD PH
Ġreminis cent
Ġmicro injection
ĠH ill
Ġanten nal
ĠQ C
Ġdefin itive
sc reen
ĠXen opus
ĠA W
ĠNormal ized
ĠP air
z i
Ġf ission
Ġrip ple
Ġhypothe tical
A H
ĠC RS
ra vel
Ġoxygen ated
azep ine
as one
Ġmental izing
Ġduplic ation
ĠV D
ĠCom mon
Ġw iring
Ġv owel
ĠSte re
ack er
ĠIFN Î³
Ġhed onic
c KO
Ġpredict ability
Ġsn ap
Ġpri ors
min ute
per me
te br
Ġtri angular
Ġassemb led
ĠT br
ĠV a
Ġfin ite
ĠComb ined
il aterally
25 1
Ġacknow ledge
Ġdro ple
Ġhepar in
onv uls
10 3
ĠMP H
Ġnoc iception
Ġannot ations
d oc
Ġres er
Ġforget ting
Ġown ership
Ġc TBS
ĠM er
Ġaut onomous
ost on
sh am
ĠCB T
Ġconver ging
s ingle
Ġrel ational
Ġdraf ting
ĠU PR
Ġb ud
ĠP Y
Ġlong itudinally
ren gth
ĠH omer
Ġanomal ies
ĠProb es
I ll
ĠI HCs
Ġdis traction
Ġsegment ations
f ast
Ġ ip
ĠA ChR
S al
ot r
Ġwill ing
Ġimmun otherapy
Ġfair ly
K Y
s ies
Ġsomat ostatin
Ġsaliv a
ameth asone
h ous
Ġel igibility
Ex tended
Ġlymph ocyte
os ities
hen yl
Ġbl ink
ĠMS T
ĠEle vated
re habilitation
Ġmen inge
ĠN estin
Ġreinfor ced
Ġreinfor cing
ĠPre processing
19 2
ĠCor p
p ix
ol one
c erebellar
Ġfo rest
sol id
ow ski
s al
Ġregular ity
M ann
ĠH es
m RNA
ĠElectr on
Ġan ore
Ġre traction
ĠT at
ĠReg ression
ĠSwed en
S w
Ġnocice ptors
Ġmembers hip
P PI
f ish
Ġt rophic
ph ones
ĠRS FC
Ġt ips
stud y
ĠC W
Ġimmun omod
ĠPr incip
ĠS i
Ġinvol untary
d uration
Ġcore g
Ġcl ip
Ġmulti plied
Ġretard ation
Ġl am
Ġrep ression
10 7
Ġclass ifying
vi er
Ġk ynure
di ameter
ĠSY BR
; ,
ĠCor tex
ĠCalc ium
ob acter
Ġo phthal
hom ogene
Ġper irhinal
Ġneurolog ist
Ġmeninge al
Ġdi e
Ġgraph ical
Ġrelap ses
Ġshor tened
duc ible
eed ing
N B
Ġtheore tically
Ġun imodal
Ġrecipro c
Ġemb ol
ĠCar lsbad
Ġpar aventricular
opi oid
w ater
yp t
F As
min utes
Ġd MRI
Ġb red
Ġsepar ating
Ġfor aging
Ġexagger ated
Ġk illed
ox P
Ġengine ered
ol f
G I
v olume
ĠE Cs
ĠIn jury
ophil ic
Ġpreced e
g one
Ġwe bs
ĠC CD
ST G
comp ulsive
ĠS ession
Ġcross es
Ġguid ing
Ġamnes ia
E lectro
K A
Ġsur ge
Ġre lying
Ġinten tional
Ġal arm
Ġf ever
Ġvas odil
Ġc ited
Ġtau opathies
ĠMeasure ments
ĠCor onal
pt a
Ġneuro ticism
L V
ĠG CS
Ġhypomet abolism
qu in
C t
ĠCd k
re perfusion
Ġneurom orphic
Ġaltern atively
ĠBi obank
Ġencour age
S PSS
el iness
X R
x d
03 6
Ġcy an
Ġhead aches
Ġdown ward
ĠFR ET
ĠRever se
Ġt ric
ath rin
Ġinser t
Ġextern ally
ig m
Ġrec onstruct
ct in
O B
+ /-
SP M
Glu N
Ġsc attered
ĠCN Vs
acl ofen
st re
tif y
Ġc ylinder
igen ic
cin ergic
Ġperox idation
Ġa rom
Ġcycl ase
Â ·
F WE
ĠC HD
Ġcounter act
Ġcont rain
Ġenhan cers
Ġunf avorable
Ġdesign ing
Ġn est
Ġdeath s
PT SD
Ġinvari ant
keep ing
; )
Ġappro ached
S pec
ilit ary
Ġdesynchron ization
am i
rew s
Ġsequel ae
ĠReg ion
Be fore
l if
p ituitary
Ġflex or
Ġst aging
ĠS idak
Ġbin aural
Ġprote omics
le m
plan ar
x n
Ġver bs
it ching
Ġhyper phosphorylation
Ġper oxide
pl atin
Un der
vin ar
Ġhere in
Ġneuro trophin
Ġappe tite
Ġim itation
Ġsp ite
ph y
M ac
Ġsp urious
ĠM CC
m p
ĠO Ls
Ġple i
Ġrig orous
A X
k etamine
ĠN CS
ach ial
12 3
Ġacqu isitions
ĠHe La
appro ximately
ĠC MS
Ġbi opsies
mod ified
cri ptive
Ġhep atic
Ġd mPFC
Ġiter ation
ĠF ran
ie zo
Th r
IK V
Ġad ver
Ġbeg un
te es
Ġlys ine
Ġg rap
Ġver ification
ĠAr ch
Ġdig ested
ĠImmun ostaining
SY N
asp inal
Ġpig s
J ackson
e ach
ĠR est
Ġbackground s
Ġiden tities
Ġmigr atory
Ġpar ti
ĠK o
ĠR MT
ĠHe bb
Ġbelong s
ari an
Ġmet aph
Ġbre eding
ĠDO C
Ġpath ogens
Ġshe et
g reg
ad ish
Ġpre y
T B
ab ase
Ġantic o
ĠW echsler
T F
Ġd s
Ġab rupt
Ġcontrol l
Ġobstac le
Ġbifurc ation
ĠH om
ĠS LF
Ġen dings
Ġl amp
intens ities
M od
Ġ .,
Ġter tiary
Ġincub ator
Ġmyocardi al
Ġrepro duction
Ġimm ersed
ĠH and
Ġass istance
There fore
Ġexpl ants
Ġsm art
Ġduplic ate
Ġuseful ness
Ġpen umb
Be havioral
Ġgenic ulate
E ffects
Ġ200 9
ĠE GFR
till ed
Ġpos e
anc ies
C JD
S ignificant
Ġpul s
Ġretro splenial
in iti
ĠPA RP
- /
Ġn as
Ġcur ation
Ġ< .
ob ser
Ġorgan ic
re ens
ĠG H
ĠPro f
Ġbrady kinesia
ĠP en
er adish
V an
Ġfer roptosis
ĠS EP
Ġmes olimbic
NS Cs
bac co
P F
Ġep id
m ulti
in ite
ĠK ar
Ġa qu
E ar
Ġdys phagia
r ide
sh own
ĠHD L
ne utral
lap se
ochem istry
ĠMic ros
ĠPro tocol
res tin
Ġren dered
armaceu tical
Ġcharacter ised
Ġobvious ly
di rection
ĠV oxel
Ġproteo lytic
ĠOn t
Ġin ges
03 3
ĠMC H
erge tic
IF N
oplas tic
Ġe ph
ĠB eta
Ġ5 94
Ġb it
ĠSt age
ĠO H
Ġclass ifications
acc ades
Ġthre atening
Ġdis agree
me ga
Ġretro gradely
Ġmir r
orient ation
ĠL PA
Ġfurther more
ĠD opamine
Ġfood s
- )
it ure
Ġharbor ing
AN D
ĠL ID
por ter
Ġun ravel
val ent
ĠG RI
Ġdetermin istic
Ġhom ogenous
Ġs igmo
au er
Ġsuppor tive
Ġsup plied
as tically
ys mal
Ġcal bindin
Ġg ab
Ġ] ),
our ces
Ġmac roscopic
ili ated
label ing
Ġpreser ving
Ġhal operidol
ĠS SV
Ġexp anding
s ized
Ġm ist
Ġdisent angle
ĠS or
Ġdisadvant age
clos ure
Ġexcit ing
cor tic
Ġoptogene tics
ain ed
reg istration
Ġremain der
Ġmicrograph s
Ġhe red
Ġconting encies
Ġcons ol
Ġcollab oration
Ġtail ored
ro le
u vant
on ine
P an
Ġwe igh
Ġal ar
Ġ2 20
ĠPh ysical
Ġnutri tional
ĠR iver
ĠS us
ut ation
Ġwhen ever
Ġinjec ting
Ġgener ators
Ġrecapit ulate
n et
Ġunder gone
ĠT om
Ġcommiss ural
11 1
admin istered
Ġhemif ield
ĠM ich
ĠB AC
Ġw ent
ĠA ug
trans genic
cep tions
ES S
Ġmes enchymal
ĠAmeric a
Ġhydro cephalus
Ġpip ettes
ĠA BI
Ġengine ering
Ġautocor relation
s leep
u el
Ġm ast
Ġmorphological ly
w an
ar ity
Ġimmun ization
Ġeven ly
F e
E E
Ï ĥ
Ġsept al
form in
K S
Ġtoler ated
ĠB et
Ġh on
Ġnons pecific
ĠR aw
ĠR am
ĠEn g
f eedback
ĠF rey
Ġour s
Ġwe ighed
Ġimp ression
Ġend osomal
ĠP z
Ġadmin istr
Ġsemic ircular
gl utamate
Ġfore arm
prom oting
Ġaper ture
Ġinhal ation
M MP
Ġtri angle
Ġat om
AK T
0 43
S B
Ġf idelity
ĠSe lection
Ġhabitu ated
ĠCh rom
ĠM AD
Ġcr ystal
Ġth umb
B onferroni
V L
s ampling
Ġsc RNA
Ġminim ized
nat ally
Ġredund ant
Ġr ational
ĠAuth ors
Ġarg inine
E BP
enc l
Ġpuber ty
p ressing
Ġt al
Ġcue ing
Ġsynerg ies
ĠOS Ns
Ġsm ell
Ġstring ent
ix ation
ati l
Ġepilep sies
w hen
Ġconfound ed
Ġmov ies
Ġmaxim ally
ĠN i
Ġtim ed
ll ate
ne ural
1 12
Ġt il
ambig uous
ĠV ersion
ĠPD GF
ĠSpan ish
ĠW HO
MS C
Ġbroad band
Ġco operative
ĠPR C
agg reg
Ġt ect
oc ris
ps is
11 6
In dividual
m agn
f emale
Ġcle ft
Ġprepar atory
Ġsup ine
Ġexcit otoxic
Com pared
Ġalert ness
Ġcollap sed
Ġde oxy
Ġj oints
Ġdisconnec tion
ĠIntellig ence
Ġre act
ĠFI TC
ĠInvestig ation
Ġshr inkage
c aus
Ġg ust
Ġgener ations
ĠM ur
ĠO vere
Ġa Syn
Ġeffic acious
s ame
ent ation
ol ol
Ġex isted
ĠH U
n ar
s imilar
ĠWe b
SN R
ps in
ul ses
mo tional
Ġocc lud
CT T
Ġstrengthen ed
Ġdog s
ĠSc n
Ad ditionally
Ġattract or
Ġconstric tion
Ġto bacco
ĠS a
Ġvoc abulary
I G
Ġsc aven
Ġocc luded
Ġinsec ts
i rel
Ġsex ually
Ġful filled
ĠOr ig
Ġbi oinformatic
ock et
Ġx en
w ing
igh ter
Ġmagn et
im on
CM V
Ġim plied
ĠW ar
b red
re ase
ak ed
Ġcompe tence
b one
ĠW ater
ĠLik ert
w t
ĠE CS
ĠG AL
Ġcollec ting
ordin ate
Ġcollab or
ĠS MI
og aster
Ġsch izophren
s u
cl ose
op ress
SV Z
ĠI PSC
se y
ĠS CS
ĠI TD
ast atin
Ġrepl ace
ĠI O
io tensin
Ġw in
ĠS BP
ĠF WHM
Prim ary
ĠT er
ĠF as
Ġantib iotic
Ġshor tening
ĠV N
Â° ;
ĠT Fs
Ġarrow head
Wh at
ĠD utch
Ġco arse
Ġsub clinical
ĠAl ong
Ġhomogen ate
e al
ines terase
Ġan tin
Ġstate ments
emb ed
pta vidin
ed ge
ĠA ver
Ġansw ered
domain s
Ġsub class
Ġinnov ative
Ġsal iency
ĠPsych iatric
ĠD ashed
ĠE very
P FA
Ġp ic
ot hesis
Ġloc k
Ġt g
ang li
Ġorth ographic
ĠM ax
P rior
Ġencephal omyelitis
acr ylamide
Ġdi visions
ĠG ap
ĠLes ion
Ġrad ical
03 8
ĠSO A
O lympus
Ġpsych omotor
Ġpre pulse
Ġloud ness
Ġk appa
BS S
ĠAd d
V isual
Ġnorm s
M at
linear ity
Ġviol ations
actor ial
ot ine
Ġdis gust
erebro ventricular
Ġcar box
Ġmicro electrode
mo unt
idem ia
ĠRT T
ĠVari ous
LS M
Ġphot os
ĠCP T
Ġextens or
Ġloc ate
Ġsulc i
Ġst ably
ĠM CT
T x
ĠN umerous
m TBI
ĠO t
Ġcons ervation
Ġhyper phosphorylated
Ġco ils
12 2
Ġd iazepam
Ġpharmacological ly
ĠS SD
Ġrecons tit
Experim ental
Ġ9 00
10 8
Ġaw aken
Ġdiscontin uation
i ries
ile y
Ġloc ked
ĠPath way
S n
in ducing
Ġpass ively
he red
ĠD MD
03 1
Ġmosa ic
Ġm ock
ause a
Ġgest ure
ĠM ix
ind icated
Ġ ic
Ġsyn uclein
Ġnutri ent
Ġeti ologies
s aline
Ġ ly
Ġinters titial
ĠF rontal
yr amidal
Ġtet ra
a R
Ġb rom
ĠC ur
electro des
ĠCoh ort
her n
ĠRe porting
Ġchem ogenetic
Ġpack ages
ep ithe
com b
Schem atic
Ġpil ocarpine
Ġresil ient
f oc
ĠM ad
Ġevid ences
hemisp here
om ark
stain ing
Ġassoci ates
Ġdiagn ose
Ġrestric tions
Ġoccup ational
Ġmelan ogaster
Ġ10 5
Ġiter ative
requ ent
Ġcompact a
S W
Ġ13 5
EA E
ĠF emale
ĠRes onance
omicrograph s
Ġmes ial
ĠP f
Ġres ist
Ġn od
ĠNMJ s
V P
Ġtr is
ĠBl ot
ĠD u
ĠO xy
Ġslow ed
adren ergic
Ġfibrill ation
Ġf illing
ĠI BS
Ġtim ely
Ġ5 000
ĠTh r
Ġpseud ow
Ġrepe ating
oles cent
retin in
Ġr uled
Ġse psis
Ġ5 12
uss ed
ĠNF T
Ġprep are
Ġin acc
Ġinter cellular
ĠU L
king ly
Ġcortic ostero
Ġdeb ated
Ġexplo ited
Ġvibr atome
F LAIR
ĠN ET
ory lation
Ġmy osin
ar ting
Ġi od
Ġenter ic
g g
ĠA IC
ĠVi ew
ay lor
ĠCri tically
ĠLO AD
Ġ2 93
Ġl id
Ġpred ator
03 2
et hanol
ĠD AB
ores t
im m
ol is
ĠSp e
ĠEr bB
ip ine
ro red
ĠSC H
Ġli ves
' ,
Ġfil opod
Ġload ings
Ġviol ence
Ġjoint ly
Ġh oles
Ġradi atum
Ġprec lud
elf are
Ġaccess ed
estib ular
ĠMod ified
l av
v ates
ĠA MD
ĠL ayer
ĠF actors
ard s
it t
Ġmim icking
c adherin
Ġf err
Ġem itted
Ġchron ological
d on
s tero
Ġrecruit ing
Ġass isted
ĠAl d
o ot
ĠF MR
ĠCA T
ar ter
Ġpre optic
ĠSymptom s
B aseline
Ġreli ance
A AG
E ffect
J NK
Ġdis k
ĠV PS
Ġdiet s
D ue
d ural
Ġmon omeric
Ġapplic ability
Ġsc op
Ġantic onvuls
Ġconto urs
Ġlig ase
ĠO cc
03 7
Ġcomputation ally
ĠCU MS
i ves
ĠC ry
Ġhand led
13 5
Ġa ura
Ġc ys
ĠCon ceptual
ĠWork ing
A E
de ple
ĠEn han
S o
ĠY ork
Ġspars ity
ĠCauc asian
Ġen tity
Ġstri a
Ġr aters
Ġcomprehens ively
Ġmess enger
Ġsim ulator
mut ation
ĠB B
E YFP
Tr kB
Ġsed entary
Ġtransduc er
Ġlob ules
âĪĴ /âĪĴ
a uditory
Ġphysi ologic
Ġkain ate
ast olic
Ġinqu iries
ĠH IP
- /-
Ġe CB
ath reshold
ĠFor ty
Ġgel atin
ĠCol lection
ian o
An imals
Ġpropag ate
D D
ordin ates
ĠG G
03 9
ĠR GS
Ġdam aging
ĠCon tinuous
Ġampl ify
N H
ov irus
Ġmorph ogenesis
Ġpul led
agen esis
ic les
ĠA ch
ĠW ave
In c
ĠRI PA
es tic
ĠAcc uracy
Ġintest ine
Ġhered itary
Ġg p
Ġdown loaded
Ġperce ptions
ĠGTP ase
Ġhot sp
g rained
ĠS k
trac ts
03 4
ID S
ĠBiosc ience
Ġneuro typical
Ġide ation
aff inity
Ġfold s
ders on
s ynap
Ġsh ares
âĢĿ ;
ĠRe action
ĠGen erally
ĠM Z
ĠCa M
cell ulose
ĠSwed ish
Ġt rop
pec t
ĠH SD
val idated
L o
Ġrepos itory
ill ance
sp inal
s ensitivity
ĠW ell
Ġcorrel ational
Ġprim ed
Ġin activated
se man
TP J
acc adic
abe tic
ĠM PFC
ERP s
ph yl
Ġch arged
Ġaccess ory
lock ing
Ġo ocytes
im age
range ments
) ),
Ġdeliver ing
E m
Ġins ect
000 3
Ġhyper intensities
in os
Ġco ol
Ġnecess it
Ġmagneto encephalography
ic ations
kin ase
Ġinherent ly
Ġintu itive
d opamine
riz one
Ġorigin ated
ĠL anguage
IN E
ĠL OC
air ach
RNA i
R ab
Ċ Ċ
Im age
Ġchaper one
Ġmaxim a
ĠLab s
Rel ated
Ġprogen y
ĠF rank
ĠPh armacological
Ġnm ol
h ist
ĠV ir
he im
Ġl at
ĠAD OS
19 5
micro glia
Ġpre requ
Ġdes truction
ĠGu ide
Ġopin ion
com pared
Ġadv ancing
e vent
affec tive
ĠS un
ĠP CS
ex cept
Ġgly cinergic
com pe
Ġprec ipit
Ġadd ictive
ATP ase
ĠCriter ia
ĠDat aset
Ġmicro RNA
ĠMicroscop y
ĠSup plemental
part um
Ġrib osomal
Ġpl ac
ang en
Ġcardi omy
Ġdock ing
Ġt ro
Ġf rail
e ter
Ġposition al
Ġdiscrimin ated
ĠS LE
ĠD LS
Ġz o
F B
ĠG er
Ġpreced es
rele asing
Ġlnc RNA
ij i
ĠDevelop mental
Ġconceiv able
ĠG AB
ĠL u
h M
ol imod
Ġcry oprote
is ser
Ch o
ĠB oston
Ġobjec tively
ĠPD GFR
ĠK Y
Ġro ots
Â° /
TA C
ĠT ri
Ġcal pain
Ġsimpl er
Ġdeclar ative
ĠBen jamini
ly l
ĠT EM
Ġencoun ter
Ġsing ing
Ġ6 47
Ġlog ic
Ġsil ver
st on
Ġsynap sin
dep ri
Ġglucocortic oids
Ġdep artment
Ġens ures
Ġpig ment
ĠMedi an
cer ning
st ra
Ġintr act
Ġconnec ts
ĠCT E
oxy genase
ĠD am
Ġfol lic
el ow
Ġlys osome
F luor
v iral
Ġar rhyth
Ġpen et
Ġbe es
Ġres in
ind ole
Ġf ALFF
ĠCI s
ĠMicro glial
Ġexplo it
Ġp aternal
Ġcr ush
Ġbo ost
Ġcorrobor ate
ilit ating
oc ult
ĠAd j
Ġtoler ability
ĠSc ores
ĠLD H
ts burgh
Ġrecom binase
Ġes cal
Ġs EMG
Ġp aus
ĠMedi um
Ġsc reens
ĠRece ptor
P atient
Ġfo ots
ĠEx per
16 3
Ġpul vinar
ĠAT L
ĠSU VR
Ġdepos ited
is per
Ġf ired
Ġultras tructural
Ġb imanual
B er
Ġs onic
Ġf iss
Q oL
Ġswe et
d il
w indow
Wh ole
Ġbed ding
Ġsick ness
ĠDisc overy
Ġneurolog y
Ġwa iting
Ġmultif actorial
ĠV GAT
ĠG las
Ġpre conditioning
Ġj ob
ĠCA C
r g
Ġover load
With in
Ġfri ends
Ġd ict
t one
Ã ±
Ġf EPSP
Ġemphas izes
Ġs ac
Ġoper c
vari ant
Ġme ant
per iod
Ġ1 01
con c
M it
Ġam ph
ĠV H
all er
Ġpre limbic
cy an
atell ite
Ġsp heres
ĠB MD
ĠUp per
emb ran
U I
Ġt ent
E ST
ĠN umbers
Ġtempor oparietal
ĠMill er
ow s
Ġlocal izer
th rom
Ġrestric t
Ġt ables
Ġchem ilum
ĠH il
10 9
Ġgu an
ĠAr row
mut ant
ĠPA M
health y
Ġapproach ing
ĠPG RN
b enz
Ġr AAV
Ġmultiv ariable
ri ate
ĠHigh lights
Ġmon otherapy
alth ough
Ġparen ting
es te
Ġm enstrual
Ġtang ential
Ġattit udes
Ġphot ographs
ĠOut comes
plate let
Ġrad icals
ĠN ano
Os m
ri an
Ġer rone
Z eiss
o ke
Ġinter medi
so ft
Ġinstit utions
ĠCor responding
ECT S
ĠAD P
miss ive
c hers
Ġr ho
CI s
Ġgo es
F GF
amin ar
Ġevol ving
ĠRank in
Ġw oman
Ġnon human
ger ies
ĠD ES
ar ct
Ġinher itance
hen g
Ġtr uly
Ġquad rants
Ġpericy te
Ġsing ular
se ven
ĠF MRI
ĠSc reen
Ġcycl o
lip idemia
on omy
h ar
Ġb rown
ĠSt atus
sh ift
ĠAn tibodies
Ġn ausea
Ġreal ized
Ġshock s
ati g
TR EM
cy t
Sp earman
l ag
w in
Ġpur ity
SD S
Ġnormal izing
Ġdefici encies
M MN
ĠW IN
t ures
Ġvi olet
Ġeven ing
ever ity
ox ed
h ow
Ġm nem
il ibrium
ores cein
ĠI tem
ĠF amily
Ġk b
j al
Ġclin ics
it tle
onal d
educ tal
ĠEx traction
ĠPar ameters
No te
Ġt wenty
ifi able
ĠDat abase
ol amine
ĠV C
ĠâĪ Ī
Ġoverl ay
Ġcomp ares
kn ock
Ġhapp ens
Ġcoron avirus
atil ity
ag land
Ġlater ally
Ġexpend iture
E PSPs
Ġcoup le
ĠPan x
ep is
ĠPC P
l ia
ĠGl ut
ĠP MA
adren al
Ġben ign
Ġretrie ve
Ġverteb ral
ĠH um
ĠU P
Ġge phyrin
ĠMV PA
e in
Ġoscill ators
Ġur g
er ies
Ġsub ventricular
ra xia
ĠâĪ Ĩ
ĠP MC
ĠL ine
Ġcomb in
Ï Ħ
ub in
ap or
26 8
Ġdis tilled
ĠcG MP
Ġl ane
Ġde void
Ġlob ar
ĠR IM
se min
ĠS irt
ĠM aster
ĠR an
h ock
ĠN LR
gen otype
tens ity
Ġe lastic
ĠDis rup
Ġsitu ated
Ġ) -
ĠIn t
Ġimmun oprec
Ġsol ub
Ġgust atory
per formance
Ġpair ings
ĠZ IKV
un its
ten ess
the rap
activ ate
ĠSH ANK
Ġintract able
Ġcl athrin
Ġpr in
Ġimag ine
ti r
Ġop ens
ĠE OG
ĠElec troph
Ġhe ard
v ector
Ġpromo tion
Ġconcaten ated
ĠM un
ĠW indows
Ġine vit
Ġredund ancy
Ġreg istry
15 8
bo hydr
Ġlearn ers
tect able
ĠM EA
Ġorgan otypic
ĠB AP
LD H
Ġbo os
d rop
th is
ĠPD D
Ġdys trophy
Ġcarri es
ĠL ater
ĠJ une
Ġblind ness
ĠT ests
Ġtend encies
Ġpracti tion
aph rag
Ġnotice able
ĠA k
ĠB ank
ĠV F
d c
Ġreferen ced
Ġin vi
es tim
ĠF er
Ġresc ues
Ġdisord ered
irel ess
Ġsh aking
ill ar
B en
I CC
Ġtect um
Ġco ex
Ġmicro tome
ĠCult ure
Ġhum id
ĠL eu
Ġadj uvant
Ġhel ix
i odic
Cons istent
os yn
Ġem pathic
L B
Ġdis proportion
ins u
Ġper ia
Ġprior ity
Ġpromin ently
cephal y
om n
Ġsecre te
ĠP SA
ĠPar ticularly
Ġmon ocular
ĠStri kingly
at z
Ġconceptual ized
Ġsupr athreshold
ĠC lear
Ġsub optimal
pro ducing
ĠSignific antly
Ġcre atine
04 6
ĠSF G
Ġcomfort able
na Ã¯ve
ym ia
S anta
ition al
sh ort
in in
Ġtermin ate
ime tic
Ġperfect ly
cy te
c olum
Ġload s
9 00
ain t
olip id
Ġstrateg ic
Ġtopograph ies
t ude
Ġdeaf ness
el en
ĠR ole
ĠN kx
ĠM DA
13 8
Ġmal treatment
ĠT aking
Ġpacem aker
ĠA NS
ar r
Ġsoci ability
Ġlon eliness
âĢ² ;
ĠJohn son
ĠCar lo
PP V
ĠH op
Ġsus pended
SV M
Ġcytoarchite ct
P rotein
i ter
ĠO HCs
Ġf abric
ĠNe urom
analy tic
ĠIn trac
ĠE N
Ġ200 8
hous ed
y al
Ġon c
ĠG ood
Ġcompart mental
Ġis ometric
Ġbro ken
> .
M otor
cor responding
Ġref erring
ĠS taining
ĠG RP
ĠDig it
Ġin homogene
Ġskill ed
Ġcis platin
inf rared
ĠM PR
11 7
ĠC ys
ĠD AP
Ġun injured
wo od
Ġdete cts
qu eductal
Ġacqu iring
Ġsil ence
Ġabsorb ance
ĠSN N
ba um
Ġthromb osis
ĠK OR
Ġwork ers
ĠB X
ib us
Ġtop ics
Ġoptim ally
G a
ar ized
Ġg am
ĠC ac
D r
ĠAl cohol
in ct
ST N
ĠPe ople
es pecially
ochond ria
Ġaff ord
Ġbuffer ing
Ġphosphory l
ĠTR N
m ixed
Ġo li
ĠHR F
Ġcard inal
Ġd est
out come
ĠG ranger
Ġpercenti les
Ġnom inal
and ering
s upplementary
f all
Ġconvey ed
ag le
Ġover w
G Cs
ĠA i
ul ting
ĠSp ain
Ad ult
ĠR os
pl asia
ator ial
ber ts
otrop in
Ġshe ep
ĠU F
f luor
Ġle thal
Ġextr ast
B O
Ġres ide
12 7
Ġtel omere
ĠD TT
ĠR Fs
referen tial
ag ram
ĠN ogo
Ġins pired
Ġto t
vol tage
Ġneuroph ysiology
l anguage
Ġaccum ulates
y an
ĠS AP
Ġinv est
ĠSe g
Ġb olus
ox one
read ing
M Ns
co lep
lim ited
hion ine
retin al
Ġdec ode
Ġc atch
Ġd ance
Ġreason ed
mat ching
Ġlymph atic
ĠWil son
ĠĠĠĠĠĠĠĠ ĠĠĠĠĠĠĠĠ
Ġvi vid
Ġsubcutaneous ly
ĠUSV s
st ation
sc ored
ĠImmuno Research
iz able
ĠAn k
Ġproprio ception
Ġstabil izing
ĠL BD
Ġfibrill ar
ĠD yn
ats u
Ġdev ast
g ression
in ducible
er as
ĠE I
11 4
Ġhi PSC
ĠNeuropsych ological
Ġvaric osities
ĠDep ending
atal og
Ġpro phyl
ĠWith out
Ġacknowled ged
Ġm EPSCs
ĠR ate
ĠG J
Ġsil icon
Ġevo kes
opress in
ver at
ĠN ine
ĠM IP
ĠSI CI
Ġattain ment
ts hip
ĠAp ril
ĠGl uc
Ġc ope
ĠD on
SN P
ĠOvere xpression
oc ysteine
mid t
ĠBo NT
target ing
Ġfor th
ĠI X
ace tic
Ġreal ignment
2 80
ĠER G
Ġdex amethasone
Ġmnem onic
0 30
Ġg ated
if teen
- -
Ġinter individual
Ġdep ths
Ġdise ased
Ġreflec tive
Ġm ater
arg er
B rdU
Ġconting ent
ĠACT H
> <
Ġconsid ers
selec ted
cy cle
Ġtransform ing
ĠGl utamate
m RS
ĠT ST
ob ject
Ġs igma
Le ft
verat rol
Ġw rap
Ġchemical s
so ver
Ġrhythmic ity
im es
ph atic
Ġpres cription
Ġdivid e
ĠOx ford
Ġst ands
ud er
val ence
com par
Ġinver tebr
S iemens
Ġpar ac
Ġencour aged
ĠMus cle
ĠW as
14 5
Ġwebs ite
Ġc f
am en
Ġun ambiguous
Ġfir m
Ġaven ues
ĠT ypically
ce ived
Ġnanopartic les
c at
w as
Ġips i
ĠHb O
Ġelong ated
o up
Ġschem a
aps ed
aem ia
Ġfrag mented
f olding
âĢ² )
orb ent
Ġrepl acing
Micro glia
Ġexplan atory
D iff
AL B
Ġvol tages
Ġgran ul
B ur
h ard
O p
Ġgra ft
Ġprof iciency
Ġc row
Ġ lying
e fficient
pl us
Ġinter acted
f ron
ĠE ff
Ġam in
ill s
Ġsub tests
jec tives
11 8
Ġp uff
Ġp aretic
Ġpolar ized
Ġe QTL
ĠSim ultaneous
f lo
âĢĻ ).
Ġh im
ĠTGF Î²
Ġmechan ically
ur tosis
Ġ1 15
CA GG
Ġmicrocirc uit
at tended
ĠH ox
Ġinflu ential
Ġri val
out hern
G WAS
M H
ĠMethod ology
ad em
Ġprote cting
04 7
Ġperm its
Ġth ings
ĠD ice
ĠAP C
Ġmon onuclear
Im portantly
K B
Ġb us
CN N
n ew
Ġexp ensive
ĠL et
Ġhydro chloride
Ġsugges tions
G TT
ot ulin
Ġet hyl
Ġpredis position
os mia
Ġmir rored
l uc
ĠPL X
Ġdissimilar ity
L ight
Ġloc king
d m
ĠN SP
Ġpl ans
lab elled
Ġattenu ating
Ġwors ened
ĠL IF
Ġiniti ates
be fore
ĠMg SO
Ġpuber tal
V er
Ġunexpl ored
ĠP OD
ĠContr ary
Ġquantif ies
ref erence
E RS
R et
anz apine
om orphic
ĠNK CC
N ational
Ġquar tiles
or ig
Ġ1 16
ĠA Es
ch art
ĠCA R
c els
Ġd b
Ġnig ral
P romega
f iber
s low
Thermo Fisher
ĠAT XN
Ġelu ted
ĠPer iod
seman tic
D RG
Ġneur oradi
D q
un ger
Ġdevast ating
H RP
Ġres ampled
Ġcup rizone
ĠE s
f acts
Ġmon ol
Ġscaff olding
th ing
l angen
th alam
ĠDRE ADD
Ġa eti
Ġsubdi vision
ĠL hx
Ġretic ul
Ġoptim izing
Ġrect angular
Ġhap tic
Ġpenumb ra
Ġpro v
Ġâī Ī
otulin um
ĠF ear
ĠMS N
isc her
Ġevol ve
ĠRew ard
ne x
Ġspe ak
ĠB ec
Ġen ding
to h
ĠHP LC
Ġdeb ilitating
oe lec
st op
ĠMon key
H G
X A
Ġcirc RNAs
Ġfresh ly
ĠEx tracellular
am ely
Ġi i
N f
ĠA PA
Ġ3 60
Ġseman tically
Ġwar rant
ĠGL UT
Ġle th
Ġarth ritis
ĠAl tered
ĠAcc um
ĠW ild
ĠPer haps
um ping
Ġpro vo
04 9
ĠB uffer
Ġ15 00
SP Ns
ĠHu ang
tit ude
Ã¡ n
Ġmicro RNAs
Ġgu ess
ĠÂµ l
ĠEv ans
Ġhunting tin
Ġexp ose
in dex
isper idone
ĠR SA
tem ber
Ġat tracted
ĠR ock
Ġdevi ants
ĠCR MP
Ġmess age
Ġfl ag
ĠSSV EP
ĠSD s
v able
ra i
Ġcan cers
n als
Ġcl ues
Ġtr ying
ĠSP G
Ġmetall oprotein
Ġdi astolic
Ġhel ping
Ġencour aging
Ġwat ching
al one
Ġo smo
oc erebellar
Ġdisab ling
Ġin patient
00 001
if ts
od em
Ġeluc idating
; .
Ġachie vement
d b
Ġc uneus
ĠB W
Ġmening es
ĠL AS
ĠHe tero
Ġemploy ment
ĠSW A
ĠPc dh
adap ted
od omain
ĠD ual
ĠFlu orescent
Ġpolymer ization
t ons
A ut
Ġ( %)
ĠE gr
ats on
comp are
D IV
Ġsp astic
pl er
ĠU s
Glu A
ĠCoch rane
Ġobli que
Ġhors eradish
Ġun controlled
ĠVM H
Ġbl inks
Ġhyperg lycemia
P Cs
Ġhist orical
ĠAdv anced
stre ptomycin
Com p
Ġplex iform
ĠB regma
MS A
Ġfundam entally
Ġt ur
ĠCSD S
Ġdis mut
ran ging
Ġlog ical
immun oprecipitation
ĠC RT
off s
occ urrence
struct ured
Ġb up
alle l
ĠMD MA
U p
ĠPH F
Ġskew ed
ĠI NS
Ġlink er
000 4
OR ETA
cha emic
ĠAld rich
I PS
Ġcollap se
Ġsleep ing
Ġfund ed
vi al
Ġoper ates
CP P
Ġs ort
Ġmild ly
os ia
WM H
Ġfibr il
ip r
o king
y i
Ġh ams
Ġex chang
In duced
ĠĠĊ ĠĠĊĊ
Ġaff ine
Ġherit able
Cons idering
d f
ĠT an
ĠS everity
Ear ly
Ġpsych otropic
PK A
+ )-
Ġdecl ared
od endritic
Ġcontin uing
Ġhyper tensive
Ġanticip ate
ĠF ES
ĠN OD
2 05
e ye
tic als
Ġparalle led
Ġb aro
Ġbilingual s
ov ic
Ġdex tran
S Cs
sur face
flu id
Ġdr astically
Ch ronic
HI T
af ety
ro tic
ag on
Ġexperiment ation
ĠM EM
Ġpros ody
F c
04 4
I GF
Ġcaus ally
E Vs
T ag
Ġst rand
Ġve ins
14 7
ĠMy o
P sych
Ġan te
ĠC umulative
Ġred is
is er
ĠVide o
Ġunw anted
Ġaf tere
0 42
Ġa ux
Ġim ported
Cor relation
Ġ: :
ĠHor izontal
ĠMaxim um
ĠA UT
Ġep ic
Ġexceed s
trans criptional
Ġirrit ability
Ġsub test
Ġact or
f p
Ne ural
ĠElectr ical
ĠK S
Ġoscill ator
3 000
ĠAg ilent
Ġvalu ation
Ġhy dr
Ġoutper formed
Ġw inning
duc tor
Ġpsych ostim
ict ure
Ġst ranger
ĠAD L
Ġprote ases
Ġdevelopment ally
Ġgent le
Ġpar kin
ĠL AMP
to xic
Ġair way
ĠRy R
Co A
ĠSUD EP
ub e
Ġimmun ofluorescent
ĠT esla
IP L
Ġn estin
im pan
Ġsubnetwork s
ul bec
ĠG amma
ĠSt ock
lo insu
ĠOb ject
3 20
Ġp s
Ġpan ic
impan ze
Ġto uc
ĠE g
Ch aracter
ĠPS G
Ġpseud or
ĠT AS
SN Ps
Ġarte facts
Ã ¨
ĠMark ov
p resent
ĠR un
ne al
r b
st atic
Ġevolution arily
s ulf
ĠK IF
can onical
m phatic
S ix
ud a
Ġmon omers
Ġthalam o
Ġoperc ulum
ĠC aspase
ĠW ord
Ġno tes
ugh ter
Ġot olith
Ġa lex
ear chers
com part
Ġsection ing
D API
ĠF ace
Ġdis semin
m orbid
Ġmulti disciplinary
Ġcont usion
Ġ) âĢĶ
Ġbulb ar
ĠS mo
Ġmanif old
Ġdis eng
Ġun conditioned
ĠSe quencing
Ġure th
an tile
Ġju xt
ĠTr p
rep resentation
ĠA SS
ĠM GE
ĠÎ¼ s
ĠS earch
uc ially
jec tions
Ġm ilitary
Ġprob ing
ĠDe termin
ĠDRG s
ĠT CS
met hods
ĠHebb ian
T est
ob ase
ĠOp tical
Ġdim ethyl
ĠStr ong
ĠAl terations
Ġwor st
ĠSW I
U L
yl es
ĠUn it
Ġstain less
Ġclear ing
Ġresemb led
Ġmimic ked
ulbec co
ĠElectro de
ĠP RI
Ġmarg in
rag ranular
of ect
T LR
Ġsul cal
Ġupd ates
Ġquies cent
Ġbin omial
Ġencompass es
Ġj aw
Ġelabor ate
or ial
Ġk its
Ġign ore
tim ulation
Ġinternal izing
ĠW ood
bl ink
ĠCTR L
Ġdismut ase
ĠU PS
Ġglomer ulus
Stud y
t uned
Ġs aved
ĠPD Z
del ta
ĠSP Ns
Ġgly mphatic
prim ary
Ġmem antine
ĠIm mediately
Wil coxon
ĠChem ical
at urated
ĠMT T
Ġvic tim
in ferior
Ġhyper active
Ġgrid s
Ġamnes tic
U A
st ressed
ear t
Ġmac ular
M ap
on it
m embrane
ĠJ acob
ĠCh ang
ĠMo tion
Ġ1 70
diagn osed
ĠPit tsburgh
c ast
r ally
Ġpre vail
SA T
ĠR AB
Ġste llate
Ġas leep
B ra
7 50
Ġs ut
Ġsurve illance
Ï ģ
am ber
MT G
39 4
Ġexec ute
diagn ostic
ĠT rio
od erm
Ġcros sover
Ġstar vation
A Ch
athe red
Ġmil der
ĠS clerosis
Ġman aged
ĠCl inic
Ġover lo
ĠF RN
Ġplate lets
Ġcompar atively
Ġelectro porated
ĠIS H
Ġcour tship
Ġperia queductal
i tivities
ĠH ep
18 6
ĠC US
ĠDen mark
cep s
Ġsur geries
Ġax otomy
L in
ĠB H
Ġw ireless
def icit
F low
an es
g ow
Ġmod erated
Ġhe ar
Ġal kal
Ġmal formations
L ike
Ġo v
ut z
ĠI U
Ġnucle otides
Ġanaly se
Ġbas ilar
Ġneurosp heres
O NS
l ined
Ġag itation
RP P
ĠFe ature
ĠBur ling
ĠR FP
04 1
Ġmarmos et
ĠImmun oblot
cult ures
Ġfoots hock
Ġneur itis
ĠSign als
B Ã¶t
m ice
ĠA LE
ĠM erck
ĠN p
Ġfactor ial
Ġmit ogen
Ġchrom osomes
Ġaven ue
W D
ĠUn ified
Ġgran ts
Ġincorpor ates
Ġround s
ĠS qu
ĠIn d
Ġdec arbox
ĠReg ardless
Ġsad ness
ati zed
Ġover fitting
Î¼ V
ĠAm yloid
Ġfilopod ia
T op
v irus
Ġg ad
Ġunit ary
Ġemphas izing
Ġprerequ isite
ĠF SI
Ġelimin ating
ĠVe h
d in
Ġinstit ution
ĠISI s
Ġ= .
Ġbin ned
ĠNI BS
Ġcovers lip
Ġweaken ed
Ġor ally
ĠE duc
E v
Ġsupp ressive
Ġn l
Ġm d
Ġependym al
ĠS rc
B rown
Ġaden o
ess els
ĠK Cs
Ġsaliv ary
Ġplug in
Ġantib iotics
te cted
E lec
H EK
b ott
prop ag
aten tor
Ġschizophren ic
ĠE ss
Ġbiom ed
h ome
a voidance
ĠC amp
ĠD IC
ome ters
Ġtub er
Ġepit opes
Ġoffer ing
Ġdimin ish
ulos keletal
Ġ(* **
ĠConceptual ization
comp uter
le gia
ĠF ar
Ġterr itories
ĠImpair ment
tr onic
Ġinte restingly
Ġlike wise
ĠImmunohistochem ical
l PAG
ĠE CL
Ġhyper intensity
Ġve get
Ġelectromy ography
p attern
pl ant
un iform
Ġmet formin
ob le
Ġcry o
Sub jects
Ġincid ental
Ġend ocytic
ĠSep tember
P y
Ġstriking ly
Ġdeconv olution
Ġmagn ocellular
spe ech
R ob
ĠH el
Ġste el
Ġpsychiat ry
ĠIniti ative
Ġtrig lycer
raz ole
Ġmon omer
sh RNA
Ġneur itic
ocy tin
Ġhor se
aminob enz
7 20
Ġeng ulf
ĠAg RP
Ġconnect omes
Ġp ione
Ġe min
Ġcon tempor
ond ro
tes ted
V EMP
ac ity
Ġg athered
Ġnitro cellulose
Ġhemat oxylin
ĠT V
ĠPer ipheral
W ay
X FAD
ĠNM R
Ġrect angle
ĠT ex
Ġdepend encies
ĠP IC
ĠJ ose
ect om
Ġparox ysmal
Ġ) ],
sub unit
Ġge omet
Ġsp aring
val b
Ġmore over
rec ogn
tiv ated
Ġpar ag
Ġclass ically
ĠMT s
aff er
Ġ(* *
Ġparadox ical
13 9
Am eric
Ġrs fMRI
Ġjour nals
icro toxin
Ġgi ant
or ically
ĠP ED
Ġdispl ace
ĠTal airach
embran es
r m
in tense
Ġplot ting
Ġincom p
Ġep idermal
b ro
Ġb owel
mo lec
Ġsniff ing
O l
g ranular
Ġform ally
Ġgover ning
ĠDrug s
am oto
ĠIniti ally
t rials
Ġdrop s
Ġcustom ized
ĠST R
T u
Ġorgan oid
el ess
Ġorigin ates
sk a
atentor ial
Ġp it
Ġmit otic
Ġord inal
ĠA v
ĠÎ¼ A
rog ated
uk i
Ġoverw hel
M OG
Ġc au
ĠR AS
Ġlamin ae
Ġhapp en
Ġf ecal
ĠH a
ysi ologic
ĠH ard
que ous
Ġaddress es
M ale
Ġpos es
ĠJ AK
obl ots
occ urring
ĠAssoci ations
m el
Ġgen omes
Ġcontribut ors
Ġas king
ĠSl ides
Ġferr itin
Ġextra vas
Ġpedun cle
ĠST IM
ĠGen omics
ĠMa jor
Ġwavelength s
Ġcl ub
in y
am ygdala
d opa
h igher
ie tic
Ġlarv a
Ġaccess ion
F G
Ġ) )
an xiety
ĠTh reshold
ĠVisual ization
Ġpredomin ance
ĠS ET
Ġen rich
im uth
enhan cing
ofect amine
ĠM ig
Ġol faction
Ġviol ation
Ġimpair ing
Ġcr ystall
ĠF AD
ĠPA NSS
de mented
Ġemerg ent
ser um
reg ression
ĠPar ametric
anc he
Ġhor iz
Ġple asure
on z
ĠC ha
Ch anges
ĠNat ural
Ġdec apit
Ġfl anker
Ġconv olved
Ġtherap ist
acc uracy
Ġdraw back
Ġconstitu ent
ĠF iji
Ġmanif ests
de oxy
Ġastro glia
Ġstimul ant
E RI
uc rose
Ġpup illary
Ġ utter
le ted
2 30
V AS
Ġsh ar
reg ulatory
Ġapproxim ated
yr ate
Ġlit ters
ĠCom ponent
ĠE ast
201 8
ĠNetwork s
a a
Ne asy
ĠEm x
ĠHar vard
ud in
Ġmobil ization
ess ions
Ġun published
IS I
Ġcounter part
Ġdrain age
NP Cs
Ġexpans ions
ĠThere after
ĠDis ability
Ġcont acted
ĠConnec tome
e e
w en
ĠĊĠĠĊ ĠĠ
aten t
Ġnar colep
oler ance
ĠPhil ips
Ġrec re
Ġspec imen
ĠA TR
v itro
ĠPar ticipant
ĠA part
inter val
pos ite
con cept
go at
Ġtechn ological
Ag ilent
NP H
Ġto day
ĠD iss
Ġup regulate
ĠAN N
al anine
oc onstr
ĠP MS
Ġrespond er
odem ographic
Ġdecapit ated
spec ies
Ġneurosc ientific
sub cortical
ĠOV X
ĠV GluT
ap orin
to ber
Ġaccommod ate
amp s
Ġcar bohydr
Ġhapp iness
Ġembod ied
F OV
as ting
Ġex osome
ĠNA WM
Ġaccel erating
S idak
bi otin
ĠGPCR s
Ġb ird
Ġp ace
ĠT yr
Ġneuropath ies
Ġmix tures
Ġlay out
Ġchrom osomal
Ġr aster
ore ceptors
Ġap olipoprotein
G MA
ĠF yn
ĠB or
Ġsim ulating
uk ary
Ġsheath s
on o
tok ine
ĠNF L
Ġvo ices
as ts
n ucleotide
Ġrecru its
es ium
Ġconstit uted
Ġvalpro ate
Ġver tically
Ġprofound ly
inn ed
k it
ĠE U
cr t
0 40
H E
og a
Ġdetect ors
Ġcoinc ident
V ision
rim ination
u tively
ĠK aplan
CA N
Ġastrocy t
Ġgu ardi
ĠR ib
Ġ10 2
Ġex ome
ch ool
Î ¸
Ġdi amond
25 76
Ġexp ressive
ĠICA M
ow ered
Ġr isperidone
ill er
Ġdiagram s
Ġoper cular
ĠSK F
schem ic
LE X
Ġsp ort
ĠE motional
Ġexc ite
C er
b earing
ĠSt op
lateral ized
activ ations
arc hes
ach id
Ġback bone
B SA
Ġsp as
hem e
Ġt ics
ĠM ind
Ġball oon
Ġc yst
Ġf oster
ĠM AS
ĠAp plied
ĠDN ase
ĠUni vers
ĠPh ysiological
Ġsatis factory
com ponent
ĠCT L
ve t
ĠS st
Ġfiss ure
Ġb ank
Ġpro spec
ĠO Rs
TC H
Ġhumid ified
Ġ) ).
R ats
ĠS anger
NA T
arth ria
ĠF ew
CA AG
ĠC BS
ĠST Z
ĠGu id
Ġbig ger
ĠY u
ĠSA M
Ġexp orted
13 6
ĠDNA m
ĠActiv ated
Ġfing olimod
ĠFried man
yl ind
Me ier
ĠMul tivariate
Ġinval id
Ġcl oud
tis sue
el er
tr us
Ġqual ified
Ġlag s
ĠNucle i
ĠIg M
Pr P
H ochberg
ĠT sc
val e
Ġhyper cap
Ġcontin uity
ĠRN ase
ĠC ellular
Ġmedi ans
ĠComput ational
it ative
Ġle ucine
HT TL
iz ers
ĠCa jal
ĠSequ ence
Ġrub ber
ĠD iet
vo ir
Ġheat map
armaceu ticals
ran olol
d n
ĠImp act
t ant
Ġ1 12
ĠA RT
ens es
Ġconduc tivity
Ġf atig
ĠAB CD
ĠR a
end el
em ales
ĠCI DP
ĠN MS
ĠN Ps
ĠV olume
Ġimmunomod ulatory
Ġr d
ĠStr ateg
Ġpost partum
Ġmagn ified
ĠEr langen
embed ded
HTTL PR
/ (
c AMP
Ġhol istic
K n
ron bach
Ġflan king
ĠTherap y
w ere
Ġrec al
11 3
Ġpur inergic
Ġlit ter
ĠSG Z
ab out
Ġol anzapine
AD L
K R
Ġfrag ile
Ġb aclofen
ĠK en
ax onal
ĠMechan isms
ĠK a
pre ferred
ac yl
Ġbi variate
cons cious
ĠOX TR
Ġhyperpolar ized
ĠN OR
Ġsec ure
ĠCon c
Ġpsych ophysiological
Ġprost agland
Ġrecon c
Ġinv ent
M ouse
oc omp
ĠS MG
ĠR en
Ġsec ured
Ġfib rosis
Alex a
Ġcent roid
urren ces
bo ok
ĠV PM
syn chron
S leep
Ġmyelin ating
ival ent
au x
Ġintrac erebroventricular
phen idate
Ġdisc ip
B esides
ĠF CS
ari o
Ġfirst ly
Ġstere oc
troph ot
amb da
Ġcal yx
ĠRec ognition
b ic
Ġch impanze
ĠS lit
ron ectin
Ġins piratory
ĠMPR AGE
y o
Ġa ids
Ġat traction
ĠZ O
ĠReg ulation
Ġti ters
Ġgood ness
us ory
N CT
t uning
ane ur
Ġwork ed
Ġthin ner
Ġaux iliary
Ġser a
ĠC asp
ĠSpec ial
rof acial
maxim al
depri ved
20 20
Ġeph rin
Ġc otrans
Ġcertain ty
ĠM embrane
ĠATP ase
ĠB IS
Ġund es
Ġhomo zygotes
Ġcommunic ative
ĠKCN Q
gene tic
Ġflic ker
Ġop sin
Ġgra des
the ta
ĠEngl and
Ġrelax ed
Ġmy opathy
Ġdiss ect
ĠPT X
olin ium
a el
urb an
Ġconsum ing
Ġp ocket
os tr
ĠC FC
ĠP enn
Ġdes ire
ĠAt ten
othe lial
Ġpharmac ology
deple ted
Ġas cribed
ĠC SA
Ġneuro epithe
ĠDig ital
Ġrab ies
ĠPrincip al
S cript
par ticipant
Ġterminal is
Ġk urtosis
Ġnumer osity
re mitting
ĠR adi
Ġfac ed
ĠMV C
ipr amine
Ġconf ron
drom ic
c is
r pm
Ġg angli
Ġnum b
ĠIL F
Ġsol vent
ĠAp paratus
Ġun resolved
Ġ12 00
Ġcomb at
Ġhap loinsu
; <
Ġtempor arily
al in
Ġun cinate
Ġconv inc
Ġmedull ary
L ys
en ia
il ic
Ġanesthe tics
ĠModel ing
Ġhe ur
Ġcal retinin
Ġanten na
ĠH ome
Ġfl av
Ġper mitted
E th
Ġover weight
ĠP ros
Ġur gent
K M
Ġpsych o
ĠPN Ns
Ġmod elled
dependent ly
Ġmom ents
Ġnormal ised
Ġoxid ized
Ġcombin atorial
il us
Ġneuromod ulators
Ġcoron a
id ative
HP G
m es
ĠF ed
ĠINT ER
f n
dic ations
ĠF U
tiv iral
23 3
ĠSur face
o o
un ct
ĠN ove
pan y
ĠM em
Cre ER
P i
Ġdyslex ic
Ġbiomed ical
Ġde vo
j oy
Ġpathological ly
Cor tical
Ġoligomer ization
ĠElectroph ysiology
Ġpseudor andom
ĠP RE
ĠB art
ati zation
EG FR
Ġper ip
Ġse arches
14 4
cop e
bor ns
ĠAb out
cons uming
Ġl ighting
ĠG el
ĠA CA
Ġpar ap
comp atible
ĠDel ta
Î »
AB P
ĠNE UR
Ġle aves
tig raph
W here
ĠI G
ĠV it
Ġqu asi
Ġhospital ized
ĠF rag
ĠA ED
Ġsp elling
Ġmy of
arrow heads
Ġacc ent
ĠPrec ision
l arge
Ġdeploy ment
H is
ĠT J
ĠX u
Ġincon clusive
I CD
T yr
op aminergic
Ġextrem ities
Ġsh allow
ont ally
PR E
Ġnons ignificant
F E
mon k
Ġframework s
Ġout flow
of lav
ĠPV H
rie val
Ġide ally
pix el
ĠA AL
ĠP iezo
Ġexam ines
ĠS truct
Ġexternal izing
ro st
Ġh amp
oth ing
ĠSP N
ap olis
ĠPe ters
Ġst ran
cl onic
ĠBe yond
opo ietic
Q C
Ġexp ense
Ġgraf ts
omp son
g p
m erc
Ġt ors
en ilin
Ġcur c
ĠSSRI s
Ġimmunosup pressive
Ġn ano
Ġutil izes
Ġt ic
ĠC GG
ĠD ulbecco
ĠSch izophrenia
Ġadhes ive
Ġunde tectable
Ġde valuation
E qu
ĠF EP
Ġprote as
ĠĠ ĠĊĊ
Ġat m
ĠV II
Ġfrail ty
is en
Ġe ch
Ġun impaired
Ġartif icially
cn em
Ġti ter
Ġfor ceps
Ġco agulation
Ġfac ilities
Cell s
ĠKn ow
ven ously
ah r
Ġdiscontin ued
hyl ation
it ness
? âĢĿ
Ġman eu
ĠPBS T
Ġkern els
ĠQ SM
Ġresto res
Ġpractic ed
Ġqu otient
cri tical
ĠHF O
ĠT oll
Ġpoly n
B ro
ast hen
Ġh inder
ĠB ac
statis tic
ĠR SN
Ġanticonvuls ant
Ġb are
ici ted
Ġadren ergic
ĠThe ory
ĠF ron
Ġno uns
g angl
ĠIn put
pos itions
ĠVer tical
Ġcurc umin
L ow
ĠP FF
Ġhypo tension
Ġinvi ted
Ġbetween ness
NT B
ĠCH R
ĠComp eting
Ġbr ack
Ġpos tin
201 6
stud ied
ond er
ĠCT B
inv as
re tro
amma tical
ĠVe hicle
Ġdy es
ĠTr ust
ĠIV T
ĠPl ot
cult ured
connec ted
ĠBut ter
in tr
Ġhyper trophy
ĠS PS
ĠM es
par ameters
ĠM embranes
Ġk ines
Ġ( +)
Ġret urning
28 8
Ġovari an
Ġweigh ing
s n
Ġh uge
m ond
um e
ĠN ur
Ġmicrogl iosis
Ġexpon ent
Ġrem apping
Ġd well
ass oci
19 9
ĠCr ucially
Ġc d
ĠIn jection
ph armacological
referen ced
ĠI so
aut onomous
ran uclear
Ġmulti tude
coup ling
ĠK L
C x
e YFP
ĠP atch
Ġosmo tic
ĠSch affer
ĠTBS T
Ġpolic ies
Ġram ified
T ak
an ed
Ġmo tions
Ġstandard ization
is ch
ĠComb ining
v asive
Ġp ressed
Ġpar cels
ĠV EP
Ġb rus
Ġdis pens
Ġreg imes
ĠD avis
sens ing
Ġartic ulation
Similar ly
ve tir
Ġintr al
erebell um
Ġscop olamine
S G
Ġst om
ĠM and
ĠOc tober
aminobenz idine
p es
20 7
Ġwa it
g rey
ĠDN MT
Ġphonem e
j i
Ġpar an
05 9
ierarch ical
Ġthre ats
Ġst air
ot actic
Ġav at
Ġse as
ĠE agle
ĠZ eb
ĠOver view
ĠPBM Cs
Ġform ulated
ĠPl an
ĠMod ulation
L G
or se
Ġimmunos orbent
oll a
Ġlogarith mic
Ġdiscrimin ability
g ap
Ġw et
Ġd FC
ĠUl timately
d ynamic
im um
cnem ius
vetir acetam
Ġsub dural
Ġphon emic
Ġfav oring
B u
Ġth read
Ġimp ulses
ĠOl der
Ġrevers als
ĠZ hou
troph ins
p all
heric ity
ĠSur gery
ati tis
15 3
m t
Ġper taining
Ġsome one
orph ism
Ġreser voir
ĠL EV
Ġwe aring
ĠAff iliated
p lying
Ġmut agenesis
ĠRap id
ĠCM Bs
ylin ositol
t ured
ti er
Ġdiscover ies
ĠR DM
Ġsens itivities
Ġrequ ested
Ġb ist
ap es
DM EM
ĠOpt ogenetic
r t
Ad d
Ġadver tise
Ġconf ers
sequenc ing
ĠEP O
C e
Ġwear able
M i
s ome
Ġultras onic
ec utively
st ri
Ġhouse keeping
Ġton otopic
ĠA ust
pl as
olog ous
nec ess
ĠMc G
M BP
Ġreg ister
utri tion
ĠROC K
Ġm and
spec ially
Ġdistinguish able
qu ilibrium
B a
H ist
Ġa queous
Ġchem osensory
Ġeng ages
. âĢĻ
ĠT IM
Ġasymmet rical
Ġe ukary
Ġv ocalization
Ġsegment al
On ly
Ġgerm line
Ġw ing
Ġpotenti ate
Ġmusc uloskeletal
t rain
ĠT TC
23 1
Ġ( %
Ġv or
ĠP EG
Ġinconsisten cy
ĠL IP
se en
CT A
ĠPro ducts
h Syn
Ġinter stimulus
ĠRec overy
AS E
ens ation
Ġphen yl
Ġkind ling
ĠF eb
ĠR BC
Ġpancre atic
e ffective
ĠMRI s
Ġinterp olated
ĠT ak
ĠG rand
12 00
ict or
ĠPred iction
Ġme al
Ġmis folding
Ġmil ieu
F WHM
all osal
Ġintra venously
ĠHF Os
Ġattempt ing
Ġap raxia
Ġparcell ations
ĠKore a
G old
eren tial
Ġdissoci ate
ĠVol tage
Ġ( &
' t
Ġh ilus
Ġintro duces
En d
ĠD ex
ĠB inding
Ġfo am
Ġcharacter izes
Ġunc aging
Ġoccas ional
Ġhoriz ontally
C CI
R GC
ĠTr act
DMS O
ro x
ici ous
ĠPM d
Ġr umination
Ġhe ated
inter pre
Ġc able
ĠC ognition
ĠTrans cription
Ġpal mito
C ON
Ġcom ment
Ġpleasant ness
m ber
Ġc ylind
am ate
Ġform aldehyde
ry lic
Ġkey words
Ġs APP
Ġdyn amin
yr idine
Ġconstruc ting
Ġconven ient
bre ak
ĠTo ols
perme able
T em
tim ing
iti zing
Ġvas oconstr
re ctive
ro gen
ĠCon centr
Ġconven tion
MA N
Ġbootstrap ping
he ne
2 16
Ġextens ions
Ġtravel ing
ĠFox p
Ġstre ptavidin
tip ation
Ġchimer ic
ol ving
Ġmicro ble
Ġfix ative
ĠPar tial
Ġimper ative
Ġantagon istic
ĠGlas gow
ĠA HP
Ġis chaemic
Ġ10 8
Ġuns uccessful
ĠTaq Man
Ġbe ad
Ġaut oradi
14 8
ĠTC F
BÃ¶t C
r k
ĠT MD
Ġcl ot
Ġun in
ĠDi rection
graph ic
Ġo rofacial
n an
ach y
lys osomal
Ġp us
ac ency
rele ase
Ġexp ort
Ġdispl aced
Ġleg ends
Ġp ec
ĠF riston
al d
Ġbl inding
ĠCor tic
ĠLab eling
Ġcoinc ides
ĠNo Go
Ġ200 7
Ġneuroan atomy
if ted
th rop
Ġb its
ĠF ormal
ĠL ep
ĠJ uly
Ġdrop out
ĠHere in
Ġkey board
Ġincub ating
cler otic
di rectional
oton in
immun ity
ĠR osa
Ġapp raisal
Ġnew borns
Ġaz imuth
IR K
ĠBi omed
201 7
Ġperson nel
Ġde aling
om ide
Ġimp uted
ac in
ĠN SS
enc oded
ĠS SC
15 1
ĠSh own
C ap
op ausal
ĠR AGE
Ġasym pt
Ġexacerb ation
PA S
Ġh pf
ode oxy
g ically
ĠThe ta
ay ers
Ġneuro surgical
Ġanti platelet
Ġol ive
14 3
del ay
Ã³ n
ĠP CL
tin ent
Ġ10 4
ĠHist ological
Ġsp end
ĠV W
) âĢĵ
ith ymia
ĠW illiams
Ġplas min
Ġcolle ge
ÂłÂł ÂłÂł
ĠTreg s
ĠO ri
end ed
ĠEx cel
ĠSpec trum
macroph age
un i
Ġsc rat
Ġatm osp
str act
Ġinternal ized
ĠNF Ts
Ġsched uled
ul ants
onal ity
ine al
pred icted
Ġl ux
Ġcannab inoids
Ġdispers ed
Ġam en
Ġintram uscular
Ġc iliary
arous al
T ech
ĠB ilateral
Ġimp utation
Ġ7 50
pre hens
P Ns
Ġb a
els on
Ġamb ulatory
Ġnutri tion
conv ulsive
ang i
Ġflo ating
Vi ew
ĠD IP
D ay
Ġacc id
Ġsee ing
ĠCN P
Ġpunct ate
Ġdecarbox ylase
F RS
Ġin er
Ġnal oxone
T GG
Ġnot hing
Ġflex ibly
aly zed
Neur ons
ĠT AT
ad ow
Ġcar cin
Ġparag raph
ĠD OR
ĠY e
Ġsatisf ied
ĠS Q
Ġun folded
Ġsch iz
M ul
ni k
Ġli ability
Ġn c
ast in
H y
an imal
Ġun ilaterally
ĠN ow
Ġestim ations
ing en
ĠTNF R
Ġman ia
ĠP EA
Ġp M
od ec
Ġcomp an
Ġimp acting
Ġcry os
W u
ĠE motion
ĠL ac
ĠCom pany
ĠCar di
c itation
Ġnon verbal
Ġcircum ference
ĠDiff erence
Ġcon versely
ar ine
Ġpeak ing
ĠD ire
ĠN uclear
ge vity
con ver
Ġfri end
T O
ĠP aren
Ġtele phone
ĠC rus
Ġachie ves
Ġautophag osome
Ġtrans genes
Ġve terans
lim iting
ot ag
Ġconc ordant
I NS
Ġdispar ate
Ġnon etheless
Ġdil utions
Ġrout ines
Ġchaper ones
ĠD CD
d ue
Ġcons ecutively
ĠPi B
ineur in
Ġdys arthria
Ġdel ib
Ġill usory
Ġmac ros
Ġeg g
ful l
rim son
mm ol
ru ary
Ġce ment
Ġpaw s
ug al
ĠCP G
A U
ĠE sc
Ġprovid ers
ĠAn alog
Ġche st
Ġfract ure
Ġcor neal
Neur onal
Ġen ters
Ġpl acent
meas ure
ĠA EA
Ġinf antile
tribu ted
oph ores
Ġchemilum inescence
ĠB PPV
Ġthrom bin
por ns
Ġuni vers
L ast
Y ang
ĠN erve
az z
ĠAr monk
ĠAF NI
S ingle
Ġbo ok
Ġmarmos ets
Ġc ad
oc t
Ġvas opressin
ĠHal f
p aced
ĠH s
ep ez
Ġdys trophic
cor tex
Ġphot on
Ġul timate
201 3
diagn osis
iti ze
ĠRe agent
n p
Ġp icrotoxin
Ġprob and
ĠIm paired
enter ic
SN E
Ġscatter ing
E RT
Ġr im
Ġsuc ceed
Ġmechan os
000 6
MA L
Ġfore ign
ĠDise ases
E Z
Ġno un
Cl ass
ĠSe lective
epez il
s lice
Ġtwo fold
Ġconver ting
Ġd LGN
op ically
ĠN GS
Ġdeline ation
ah n
B ackground
aff eren
ĠGl x
f ly
ĠST M
R a
Ġconcer t
ĠMAT ERI
Ġenc aps
Ġunm yelinated
ĠP valb
gen ual
AQ P
Ġdi aphrag
Ġgra ding
ĠRe ading
Ġpri vate
g ro
ĠP ossible
ĠM AC
Ġchar ts
Ġpro tracted
ent in
Ġrevers es
le in
Ġstre ptomycin
incub ated
Ġas cer
Ġang iotensin
ethyl ation
Ġnarcolep sy
Ġbe ats
Ġinf ras
orb ital
Ġbeh ave
Im aging
Sc ale
ĠFlu o
fe et
ĠH eart
Ġle an
ĠN orm
Ġt ec
ĠE specially
ĠK cn
Ġsepar able
Ġs ine
Ġres ampling
ĠMU A
ĠFK BP
ag onal
ĠL act
tal k
Ġadj unctive
Ġspars ely
Ġunequ al
C hem
Ġch ondro
bon ate
ĠNr g
Ġinconsisten cies
Ġin attention
Ġse aled
ĠH Cl
ĠBCI s
Ġinterrup ted
ĠV SD
Ġconf ident
Ġprost hesis
19 0
D onald
Ġt ank
ĠY AP
Ġsati ety
f eeding
ĠT TR
ich i
ĠE st
Ġpred e
ĠAc adem
Ġvoxel wise
oxy cy
ver sy
Ġhard ly
R MS
ĠF LAG
Ġpropag ated
3 60
og old
Ġmac romo
ĠSystem atic
ĠÃ ħ
v astatin
20 4
Ġsil enced
Ġtr it
Ġcr us
Ġgover ned
Ġarteri oles
6 47
Ġlab or
ov entral
Ġp p
Ġh unger
Ġscal ar
ĠJ oh
Ġcam eras
ectom ized
Ġspas ms
ur in
she et
J ohn
w aves
ĠR W
RI B
CR F
Ġparallel s
Ġdissoci able
Ġvalid ating
ĠAre as
el eration
Ġreg imens
ĠL ar
de generative
ĠTrans f
Ġintellig ibility
ĠWMH s
Ġincre mental
for ce
Ġsynapt osomes
Ġj itter
Ġdistor ted
ĠMicros ystems
Ġdec oup
Ġc ris
ĠE dition
Ġwithdraw n
differen t
Americ an
ĠC CT
ĠR AN
ĠW NT
Ġms ec
ĠI E
ĠP CD
ĠRes ources
Ġ12 6
sh ifting
Ġbi ocytin
Ġx ylazine
M ut
ĠCV R
quan titative
v ens
ĠSS RT
ĠJ ones
Ġintr onic
Ġ200 6
ĠOR Ns
re ceptors
Ġcom a
Ġdis close
ID s
Ġadv oc
ĠDiagn ostics
Ġteac hers
hol l
ĠSup port
Ġerrone ous
Ġa esthetic
Ġhind paw
oxycy cline
Ġpl ating
lic k
14 2
Ġpress ures
ĠBlock ing
oc retin
Ġac up
ter ity
cl one
Ġdiagn osing
im ate
ĠH en
ĠCN QX
ĠCI S
Ġsynthes ize
R od
v y
Ġnot ch
Ġfulf ill
âĢ ³
ĠF ab
ine ering
Ġevalu ates
path ological
Ġestro us
Ġcoversl ipped
pro duction
ĠV G
NT S
ĠCp Gs
Ġaspir in
ĠU B
valu ed
ĠSim on
T ogether
2 25
el icited
res yl
Ġlock down
ans en
in amide
al igned
Ġfe b
RP E
ĠButter worth
ĠPV S
Ġnutri ents
âĪĴ .
Ġpal atable
ĠAut omated
ĠM aking
Ġinterfere s
Ġcub ic
en a
ĠC ode
Ġwe aning
ĠG ross
Ġh sa
Ġhe aling
Ġte aching
Ġharmon ics
Ġs ighted
Ġm Osm
otrans duction
Ġview point
Ġpenetr ating
c p
p el
ĠD omain
J ones
Math Works
Ġt ack
ĠH ab
mn ibus
s amples
ĠS hen
Hu ang
Ġs atellite
Ġin g
Ġreview ing
Ġwarran ts
Ġin equ
ĠI TC
no te
Ġsup ranuclear
Ġhyper activation
Ġbio en
Ġhep at
Ġpractition ers
P RS
ĠM ED
yl vian
GA AG
Ġinterven tional
C K
is tive
lec ting
d ise
op ause
ĠEn viron
Ġpy roptosis
V BM
ĠSim ple
ĠBi omark
abe tes
ĠPub lic
Ġextrast riate
Ġperce pts
ĠFe atures
Ġac ous
ym pan
der gic
Ġimmun opositive
Ġjour nal
eff icacy
Ġfeb rile
V T
Ġdyn ein
Ġgastro cnemius
ĠGa it
z il
li ved
ĠC EN
ĠI H
com plete
Ġ12 4
16 5
he x
Ġcontrain dications
lec ules
Ġorder ing
Ġaspir ation
%) ;
Ġophthal m
Ġt ell
ĠT ypical
Ġg lu
ĠR h
R ight
ĠÎ± S
ĠS MC
Ġpost ulate
ĠTai wan
ĠF W
Ġman ic
Ġsynchron ize
c tal
et ti
kin in
A i
f ect
Ġe yel
Ġpro vision
Ġins ets
Ġre ared
ĠZ hao
oflav in
ĠR ot
Ġabs tracts
Ġpow ered
assess ed
Ġinf requent
mm l
Ġnur sing
Ġextravas ation
ĠI OP
Ġres veratrol
Ġ4 80
Ġana esthetized
- [
he tic
ĠG abor
mo lecular
Ġsplen ium
Ġtot ally
ĠNF ÎºB
ĠSpe ech
pt ing
ĠV iral
Ġedi tion
C trl
17 2
Col or
S ocial
us ers
Ġman aging
ĠĊĠĠĠĠĊ Ċ
Ġpherom one
a ft
w elling
is o
ow els
ad ata
gl i
log ical
Ġmyocl onus
ĠTrk A
ĠP PS
ĠD endritic
ers on
ĠÂµ L
Ġrefer ral
Ġlisten er
ex pl
Ġreason ably
Ġr acial
Ġadv is
Ġswe eps
P ower
Ġimp rin
18 4
ĠCV D
N r
ther n
Ġinf l
ĠCR Y
Ġoligodendro glial
Ġrival ry
f iring
od one
dep ression
Ġtem po
Ġpattern ed
ĠTex as
Ġp ush
Ġfl ask
Ġrecogn izes
ĠS ing
ĠC ov
ĠF p
iat ry
i ers
ĠAs h
ĠA SP
Ġrib osome
ĠD orsal
Ġimmobil ized
us is
os keleton
ĠP ass
12 1
Ġ1 19
Ġs and
Ġh ES
Ġprob ands
ĠCL N
on ucleotide
ĠBT BR
Ġa rose
ĠJ C
ent anyl
tic le
ĠSP W
Ġalle lic
Ġcompe te
ĠN W
Ġwe alth
caus ing
C ox
Ġc ogn
Ġsubs ample
Ġc rim
Ġp umps
Ġto d
Ġke ys
Ġadop ting
Res p
glycer ol
ĠAug ust
Ġun specific
Ġimplic ates
Ġfore paw
HR V
Ġcolon ies
function ing
inter action
assemb ly
nex pected
ur fer
Ġcatechol amine
endel ian
Ġ urban
Ġconstitu ents
he ld
Ġin ject
ĠEn richment
Ġeffort ful
Ġfl oxed
27 0
Ġshe ar
Ġarg ues
r ating
Ġtranspl ant
ĠHist ogram
inc reased
ĠAcadem y
ĠG f
po tent
ĠDi I
encl ature
c s
tr ation
Ġpres ymptomatic
Ġcoinc idence
Ġbenzodiazep ines
Ġac rylic
u i
Ġp uzz
and a
tra uma
Ġunderestim ated
t ypically
ĠC ue
ine ural
ĠK re
Ġrespons ivity
ĠAn terior
ĠMT LE
repe at
Ġst rom
Ġbel t
Ġdise quilibrium
Ġfluctu ating
Ġsurve ys
R Î±
Ġst at
Ġmes encephalic
N ET
el ly
adap tation
Ġderiv ation
ĠUl tra
Ġproceed ed
ĠCO NF
Ġex ceptions
Me yer
Ġcat as
Ġinvari ance
Ġincomp atible
ĠH all
Ġend urance
18 2
Ġsched ules
d ase
stack s
G CA
Ġw ires
Ġpost ures
ĠAt g
H PA
um ar
ym et
Ġfetus es
ĠP PR
put ation
atom otor
s ign
ĠA mb
Ġsub lim
CA R
H er
Ġs ized
Ġbring s
ĠâĢ¦ ,
Ġdy ads
ĠJ H
Ġanch or
Ġregen erating
Ġdecom posed
ĠFeb ruary
D WI
ĠH VC
Ġpres chool
ĠPL V
V ersion
M ark
ĠC le
ĠH TR
em an
ĠSA L
iment in
ĠNove mber
Ġsh ading
b ase
ĠB Z
Ġmuc osa
Ġbond s
ĠT W
ol k
to f
ĠK r
ĠM TR
pre ced
27 6
Ġobs tructive
Ġpoly neuro
ĠDiagn osis
f ts
op ride
S MD
ĠM MD
ĠH ippocampus
inf arct
Ġfluorescent ly
P ur
ĠM ild
Ġes ter
Ġevent ual
j a
ut tering
ĠB ad
Ġsens es
ĠMB ON
Ġmism at
ĠRef erence
Ġo mega
ĠD BA
Car l
nucle us
Ġplac ental
Ġmechan osensory
Ġprop ranolol
Ġcontro versy
Ġmod ifies
Ch ild
ĠS ymb
are r
ĠSE EG
/- )
Ġglyco lytic
p et
âĪĴ )
Ġanx iogenic
Ġacceler ates
ĠT f
ĠS en
Ġdec ep
ĠPar ad
Ġimmo bile
Ġincorrect ly
ĠEduc ation
Ġac ted
Ġdegen erating
Ġstream line
ĠTre m
random ized
um ented
Ġwar ning
Ġphospholip ase
ĠO per
ĠMG B
ĠMath Works
e valu
ĠB AT
01 26
ĠST X
Ġradi ata
exp ress
Sc an
oling ual
M il
ĠM as
ĠD ra
Ġpain ting
ĠRec all
ah l
ĠF H
ĠB rief
ĠS low
Ġen orm
arc ia
Ġfavo red
invas ively
le ading
Differen t
ĠAmeric ans
Ġdevo ted
ĠE MD
ĠRe ad
or tic
Ġop ponent
Ġneuro immune
Ġsyn the
Ġadap ter
ĠAB CA
M in
V EGF
Ġv ib
L ORETA
ĠJ our
Ġanalog ue
Ġtend on
Ġphyl ogenetic
E Cs
il ine
od ds
per cent
Ġcereb rum
ect ors
ĠReg istration
t umor
âĪ Ĩ
con text
Ġlon gevity
Ġureth ane
Ġcr ude
ĠIs olation
Ġple th
ĠDE X
15 7
Ġguaran tee
reward ed
ĠOnt ology
L og
ĠIn tracellular
tis tic
2 11
re ferred
Ġphen otyping
Ġel apsed
Ġhetero log
Ġren ders
G i
Ġsynaptic ally
Ġoutl ines
Ġr ural
Ġnavig ate
Ġargum ents
Ġobstac les
ĠP SC
cl ock
opath ological
ĠSpec tral
control s
Ġsomat odendritic
CP T
Ġdec ap
com mun
ascul ature
ĠDa vid
R NS
spec ified
specific ity
Ġmono aminergic
w ild
Ġst ories
se par
Ġpyr amid
m GluR
Ġmo unt
ĠBar nes
g ender
ĠVE H
ĠH ay
ĠV ision
super ior
Ġdoub t
ĠThrough out
ĠGre ater
Ġuncom mon
Ġa val
Ġd ying
ĠF AS
art z
T a
T ask
ĠWh ilst
Ġnumer ically
Ġmaxim izing
Ġcolumn ar
ĠF iring
ĠSt rength
Ġprim es
Ġeigen values
atten uated
Ġadop tion
n ell
isp ens
recogn ized
ĠA toh
ĠCA D
Ġimplement ations
methyl ation
ĠMATERI ALS
Ġreal igned
ĠTra il
Ġ1 18
Ġun necess
O ut
NI P
M ur
ĠP in
Ġswe ep
Ġanalog s
Ġne ure
Ġper tinent
ĠL IN
iss a
Ġadj acency
Ġ2 30
ĠY ellow
ĠCar l
circ uit
ĠLip ofectamine
ov erex
ĠC erebellar
Ġcigare tte
c one
ĠL DA
icep s
Ġrestric ting
Ġcall ing
rec ts
E ven
Ġpost traumatic
Ġestim ator
Ġdehydr ation
s ymptomatic
ĠH Y
Ġrank s
Ġwors en
Ġinoc ulation
Ġdis trac
ub ation
MT S
et in
ĠS tein
ĠUn paired
R Y
d ip
erc ul
ĠK iss
Ġr hodopsin
Ġelectrom agnetic
ĠSol id
ĠOff ice
L Y
Ġs ap
Ġe at
n or
47 3
Ġaccompl ish
Ġc ocult
yot o
ph an
diff erence
este em
p ressed
ĠIR F
Ġsonic ated
Ġflu ids
ĠRet inal
Ġadmin istering
isp anic
Ġspec trophot
b et
Ġmark ing
rec orded
Ġbioinformatic s
O CT
âĢ ĺ
ĠG pr
Ġinter trial
Ġform ic
Ġsignal ed
ores piratory
Ġelectroencephal ographic
O Ns
ĠB on
Ġen joy
Ġun attended
Ġ10 6
Ġautophag osomes
ĠF ib
Ġvol itional
ĠIs ra
ĠA SI
ĠE LA
ĠL LC
Ġag on
ĠSur gical
2 14
A IS
b ons
re activity
di b
ĠB est
Ġcons tipation
Ġple ase
Ġwhisk ing
ĠRes earchers
A utism
Ġneg lected
ĠPPAR Î³
r hodopsin
ĠClus ters
ĠC ard
epis ode
x ication
ĠD ensity
Ġexperim enters
b ra
Ġeryth ro
ĠL EC
Ġend ow
Ġnons ense
Ġcathe psin
ter dam
Ġorganization al
Ġauthor ized
initi ated
ĠB is
az one
Ex pression
Ġpossess es
H SP
ĠV CP
Ġcoordin ating
onit rile
Ġtable t
ĠS tructure
ĠL aser
ace ted
ĠRob o
ĠB ALB
Ġcross ings
acti ce
Ġsh ield
ĠB attery
Ġfac ts
ĠAc b
lin king
ĠTBS S
Ġg ather
ĠPP T
Ġdisplace ments
bl ood
Ġwor ry
ĠC MA
P ND
Ġat tained
ĠW atson
Ġattribu tion
T w
J C
ic its
ĠJ W
Ġflas hes
ĠScreen ing
Ġp auc
ic z
Ġb ill
ĠB asal
ĠCon t
Ġsix th
ac id
AC UC
Ġcost ly
umm y
Ġdegra de
C RP
Ġamygdal ar
ĠSH R
Ġoverlo oked
Ġqu ery
ĠS holl
p al
Ġch ol
Ġco res
ĠFr action
Ġrecon fig
Ġl osing
Ġsymb olic
ĠEnhan ced
ĠW KY
Ġdes cent
ruit ment
Ġc rop
ĠO SN
rin king
tr ical
N V
r ather
Ġw rite
ĠC FS
Ġnas cent
ot ten
Ġgain ing
Rep e
Ġp STS
ĠSt an
Ġtermin us
ĠChe ck
Ã ħ
ĠL ate
CL U
Ġauto immunity
Ġdim ers
Ġbootstrap ped
C OR
m C
ĠVa D
Ġplei otropic
Ġre habilit
ĠO CR
ĠR ay
Ġro ad
Ġhem ich
Re vised
Ġlid ocaine
hib ition
Ġquant al
Ġmetac ognitive
Ġphone tic
K o
ĠHA MD
Ġure a
st ad
ĠÏ ķ
Ġget ting
al tern
rees urfer
col ored
Ġfluor ophore
Ġdam ages
Ġsuperf amily
Ġfract al
Ġhaploinsu fficiency
Ġlogarith m
ĠI EDs
M EM
Ġto xins
T ype
ic her
uls ions
Ġdisp arities
H Y
os ides
Ġ200 5
Ġfa ith
Cl amp
Ġneurosc ientists
Ġmyocl onic
o is
in ating
ĠL ittle
uss ions
Ġcycl in
on ed
Ġconsum e
ĠPI T
Ġstereoc ilia
Ġt alk
Ġinterrup tion
F er
el ong
Ġmicro pip
Ġglycos ylation
Ġcor n
Ġpsych otherapy
ĠDop pler
par ticularly
ĠRNA seq
ĠPo ten
Ġmiti gated
Ġf un
Ġine fficient
Ill umina
SA S
Ġme ter
Ġcla udin
Ġclon ing
Ġamen able
ĠM EK
ĠGraph s
ĠVL PFC
ann on
ĠMa ze
Ġign oring
Ġdeploy ed
Ġpolyn omial
Ġs aving
ĠD er
Ġ2 80
201 5
n l
en zyme
Ġab lated
Ġun re
Ġspec ulative
Ġtag ging
dec ision
ĠI SC
17 6
ĠSim ulation
Ġrepl en
ĠF GFR
ĠJ S
Ġgyr ification
Ġbal ancing
p ink
unt arily
Ag Cl
p ark
Ġ10 3
O ff
ar aldehyde
et an
ĠV glut
Ġdiagn ostics
Ġhydro lysis
Ġmonth ly
ymet rix
* -
F ree
F LAG
p rone
ĠB N
Ġdes tro
ĠY am
ĠCA S
irm ed
Ġbe ar
Ġactiv ators
ĠCom plete
Ġperipher ally
ĠReg istry
ĠIS O
S troke
V F
Ġpers isting
azol am
med icated
ĠT AR
Ġben e
Ġde phosphorylation
ĠF MA
os il
Ġcomp atibility
Ġ19 90
ophosph ate
otag min
ĠEx ecutive
Ġdex terity
hyper activity
bu ilt
ĠR oss
sy ched
ĠCH O
e ties
ĠI PA
RI S
Ġre ject
Ġmet adata
Ġconnec tive
Ġsur gically
xim ab
Ġfacilit atory
Ġcontamin ated
ĠP TA
Ġexpos ing
ĠCAC NA
syched el
M edi
Ġr hom
Ġphot omicrographs
ĠA ud
Ch AT
chol inesterase
MF G
flo ating
Ġa ce
Ġs it
Ġperce iving
Nf L
Ġvis ited
ifferen tiated
Ġantioxid ants
Ġsubm erged
ĠP SI
Ġstem s
Ġspecial ist
ĠD CS
Ġvis ibility
Ġentail s
Ġkynure nine
es tro
uc ker
ĠAx on
Ġsupr aspinal
M us
ell o
Ġdis position
Ġresid ents
Mar tin
S il
ĠD Z
Ġgeneraliz able
cl ip
ind ic
Ġmedi olateral
uz ole
Ġamelior ates
oc ul
Ġimag ination
cell ation
ĠCM V
ĠSY N
Ġpenet rance
Ġs s
Ġbut tons
Ġsuppress or
ĠW ill
Ġamyloid osis
Ġmultif aceted
ot ti
Ġeti ological
amid ino
ĠChar les
thalam o
Ġun ve
Ġubiquit ously
ĠAmpl itude
Ġprote oglyc
rup ted
Ġc Fos
ĠL PFC
Ġdecre ment
Ġmis class
cardi a
ĠCult ures
Ġpec uli
Ġsp anned
GAP DH
N ikon
l ishes
Ġin tent
ĠS AT
ĠR RP
ĠW t
Ġascer tained
ĠT ocris
Ġmicro electrodes
Ġexc ised
t man
ll i
LI CT
Ġabund antly
Ġreturn s
ĠMit o
ĠM AB
pir ation
ĠIden tifying
E LISA
et ts
Ġ12 3
Ġunf air
ĠBra zil
Ġv owels
ĠM iss
Ġep if
Ġknock ed
eb oid
ĠNO TCH
unn el
Ġcis tern
signal ing
bal ance
mi RNA
Ġh os
od ers
ĠD SI
ke phal
ĠCon text
hip s
d otted
Ġto e
Ġ3 20
Ġradi olig
Ġpropag ating
Ġlum inal
etom idine
ĠCONF LICT
Ġt ied
Ġmethyl phenidate
x f
Ġal anine
ĠF ifty
Ġins ignificant
ĠMin istry
ic ke
am azepine
Ġch loro
rod otoxin
ĠBAP TA
F ox
ĠT aylor
ĠU TR
ĠD SS
ĠV irus
k el
ĠO HC
Ġ4 000
ĠSer ial
thre atening
ĠF Cs
Ġprot otype
Ġover dose
ĠPl ace
201 4
Ġc rest
str ong
Ġd F
ĠAss ociated
ĠL ist
Ġmat urity
Ġmetast asis
Ġcontempor ary
ĠP ut
ĠCO P
Ġqu alities
pair s
Ġrelated ness
ĠSU V
Ġgraf ted
ĠU A
ĠT CR
ang an
rel iminary
per ature
Ġsus taining
rel iable
h annel
ĠR Neasy
standard ized
ĠCons ider
ĠGen otype
ĠOther s
y to
re asing
Ġ20 22
ĠRe le
alle le
ĠMy c
Ġgl ands
Ġquestion ed
ĠBehavi oural
w ritten
ĠS at
Ġp ERK
ĠG lial
enz a
Uni versity
Ġinges tion
ren ewal
spec trum
ĠPV DF
Ġpseudow ords
3 14
itu ximab
Ġtum ours
press ure
Ġrostro caudal
ĠGRI N
ĠTR D
Ġneutral izing
Ġs uture
Ġrecommend ation
f a
Ġd odec
ĠI PD
Ġpul sed
Ġfat her
Ġn ights
19 7
ĠSw iss
D SM
ĠD U
pro be
v l
ĠCO M
lik elihood
Ġb urn
om iting
op rop
Ġper vasive
squ ares
Ġencoun ters
g end
Ġa SAH
Ġread y
ĠGene tics
Ġalar ms
B NST
Ġpsych opathy
Ġbran ched
Ġmicroble eds
Ġscrat ching
ĠI ÎºB
2 60
B N
Ġsub plate
Ġsumm ing
y ama
ĠM EF
ĠASD s
Ġdraw ings
ĠAx io
s oluble
Ġcol onic
Ġi EEG
ĠSG Ns
Ġind ispens
Ġag ar
enti as
Ġregular ities
Ġdim orphic
Ġtel encephalic
oun ted
ĠPN N
oe hn
phenyl indole
B eck
Ġre ally
ĠF alse
Ġend uring
Ve h
T AS
Ġas partate
Ġsu ite
Ge isser
p ad
am er
ĠST D
Ġarous ing
ĠDo es
Ġ( =
us ter
ill o
ĠFMRI B
D PA
Ġr CBF
de termined
ĠON L
f alse
or tin
Ġun correlated
Ġsole us
Ġh am
ore tical
oid in
b eck
ĠE NS
ĠL ess
ĠO PA
Ġph aryngeal
Ġmening i
Ġper imeter
h off
ar tis
Ġpass es
ĠTrans fer
Ġatheros clerotic
Ġpauc ity
ore tic
Ġmin eral
ĠDl x
Ġdrople ts
doc umented
D n
ĠGen omic
Ġmelan opsin
P al
ĠO FT
Ġclos ing
ĠR atio
29 0
Ġdeno ising
Ġw ood
00 00
ĠK an
aw areness
mark ed
Ġrev ising
ul li
omer ular
T K
ĠL and
ĠNl gn
ĠAver aged
Ġprin ted
il ized
Ġtw elve
ĠME CP
E vidence
u a
Ġb ra
Ġbiom echanical
D ef
T LE
Ġpro toc
Ġmod ifiable
ot opy
ir teen
ace ae
RT T
Wh ite
Ġtrim ester
C U
Ġsp hericity
SC N
Ġcoinc ide
Ġcollab orative
Ġpenal ty
ĠS MR
ĠO z
Ġchem otaxis
Ġborder line
ot rig
ore n
Ġdel usions
Ġj ump
3 30
Ġper missive
Ġle vetiracetam
Ġorgan elle
of unction
itor ial
ĠGen otyping
Mo CA
reduc ed
ĠL atency
h ippocampus
ig er
ĠT AM
Ġnec rotic
inter acting
ĠSyn thesis
Ġprotr usions
Ġneuro trophins
l ink
hes es
Ġcoun s
form er
Â° ).
Ġinto xication
Ġagg ress
appro ved
Ġc osine
inf ection
ophil in
Ġpel vic
Gen eral
Ġautore gulation
g ain
Ġdys tonic
ĠMR C
Ġneigh bour
bb its
Ġcomp ressed
Ġthrough put
ĠReduc tion
l aw
res id
ou x
Ġbio a
il uzole
Ġch ore
Ġpres timulus
RT s
Ġaberr ations
ĠG il
Ġmon olingual
Ġsynta x
m ild
sc ope
osh op
ĠP yr
Ġpost mitotic
Ġpc DNA
f inding
ol t
ĠP SS
ch t
Th ird
Ġtit ration
Ġan ion
ĠIn formed
Ġmet hionine
ĠEx ercise
Ġtouch ing
p n
Ġrele ases
Ġju ice
Ġord inary
ĠJour nal
Ġsystem ically
m ig
an us
iz ures
ĠmGlu Rs
he a
os er
Ġcan cel
cri pts
ĠÏ Ģ
Ġstret ching
il os
ĠS ize
pro duced
50 6
ĠX L
Ġschool s
Ġne mat
Ġens uing
olip ids
ĠEd in
istic ally
h ot
ĠB IC
Ġglut araldehyde
f light
hod amine
ĠIll ustration
ĠS ec
ĠP ress
lit azone
ĠSt re
22 4
ĠSe izure
Ġstere otyp
tid ine
mus icians
Ap pro
ĠAut o
Ġ1 11
ĠPD F
ĠEEG s
Ġsol itary
cont act
C an
T e
Ġun labeled
Ġtun nel
ĠFl ag
Ġelectro cardi
des igned
18 9
Ġattit ude
S a
Ġch lor
ĠU be
An alyses
gal act
Ġan tim
ne ider
ĠPair wise
' .
+ +
G H
ĠA ST
AMPA Rs
Ġd oxycycline
Ġpolyneuro pathy
Ġp ineal
ĠC ER
ĠL AT
Ġneuro rehabilitation
Ġhom ocysteine
ĠPO CD
F r
ac a
ĠM ixed
Ġsh aft
15 00
os an
ĠS II
ys cale
Ġcom mitted
lym er
Ġp oli
ĠF reesurfer
ĠDa ily
Ġdem arc
Ġneuropl astic
Ġb ub
ag onist
ĠH ET
Ġ= âĪĴ
ĠDG Cs
Im ages
Ġduplic ates
c aspase
Ġra bbits
ĠFr ame
Stud ent
ĠHy brid
foc used
Ġredis tribution
Ġdors oventral
Ġintr icate
dig it
at an
ĠS TP
ĠU BE
Ġcur ved
Rep resentative
ĠU SP
oles cents
Ġepig en
Ġrecapit ulated
ĠS MD
ĠV B
17 7
Ġnom ogram
Ġ }
sw itching
ophys ics
ĠS LI
Ġposts troke
ĠInhib itory
c age
Ġs un
DA S
Ġacetyl ated
ĠHI E
oprote ins
Ġ umb
ĠHist ology
Ġphr ase
C p
ĠIn tensity
ers onal
L u
ur ational
ĠN SA
ple tion
ĠGreen house
Ġdistinction s
Ġuna ware
d endritic
Ġs ends
ĠCP M
Ġput atively
osc ale
Ġnonlinear ity
nexpected ly
vin yl
Ġneuro stero
OD E
U K
ĠS aline
ĠL aw
Ġsoci odemographic
Ġbis ection
onucle otides
Ġsti g
Ġsen ile
ĠPM L
ĠCharacter ization
Ġj it
ĠAN T
Ġ14 4
ĠAc cess
Ġappreci ated
ul as
um ed
og rap
Ġstrip es
Ġhypercap nia
och lear
Ġhetero dimer
N Ps
ĠM endelian
ch annels
ĠTrans cranial
ĠCaMKII Î±
phosph o
ĠGlu K
ĠFluor o
ĠTw elve
p ool
ĠPh arma
Ġson ication
Ġth aw
Ġco expression
sw itch
Experim ents
ĠĠ ĠĠĠ
F BS
Ġcer amide
des ign
Ġgr ammatical
Ġalex ithymia
Ġbox ed
Ġped ig
o encephal
Ġpoly peptide
ĠUn c
Ġrepress or
sc anner
Ġpharmac otherapy
Ġanalog y
prin ts
Ġpaus es
vi ties
Ġcons ortium
mo unted
plic it
Ġinvestig ates
16 2
magn ification
osil icate
Ġcon centric
rain s
ĠIn ternal
Ġaffili ation
Ġincomplete ly
Ġindispens able
on to
Ġo s
ĠNB QX
Ġpic ked
Ġdi encephalon
ĠGen omes
Ġta urine
Ġph armaceutical
Ġprog ressing
ĠMc C
Ġrespons ibility
ĠP ort
ĠL BP
AT G
ĠP resentation
ub iculum
Ġimplicit ly
re tion
ĠH tt
ĠCan adian
S an
d ate
str anded
Ġsteep er
incub ation
Ġb iceps
ĠT K
ĠM achine
Ġradi otr
Ġut ric
otrig ine
b ed
Ġoptim um
Ġunnecess ary
Ġas cor
Ġunexpected ly
con tinuous
Ġgad olinium
Ġwid ths
ĠBer lin
g ly
Ġmicro cephaly
rop ine
Ġexacerb ates
Ġ2 10
Ġmicro fluid
Ġsuperior ity
Ġtransl ating
ĠLG I
I B
ogen y
Ġneurolog ically
Ġemin ence
af il
Ġsh o
Ġse minal
Ġsec tor
Ġmulti plic
ĠDel ay
Ġhouse hold
Ġhon or
Ġst yles
Ġmid point
ĠAfter wards
Ġsearch light
T ek
ĠA u
ĠAs cl
ias matic
z el
ach us
pi role
Ġcoinc ided
ĠV AMP
Ġspectro gram
Ġantico ag
ĠGluc ose
Ġnucle ic
Ġtherap ists
E d
in ition
ĠL ang
Ġc ure
Differen ces
Ġfav ors
erg ence
ĠAn gel
ĠF oc
vent y
ĠIm plications
Ġrevers ing
pop ulation
ĠPU FA
uf ted
Ġp m
ul ing
Ġv apor
ĠS CC
op f
Ġsom atomotor
Ġreflex ive
60 9
ĠCP Z
Ġmach ines
ĠEmb ry
Ġ4 05
T CA
Ġreinfor cer
Ġboard s
ĠPro v
Not ably
Ġconve x
2 17
Ġelectro chemical
CI I
las h
ĠPro per
ĠSP MS
mi RNAs
Ġassign ing
Ġre taining
Ġde afferen
Ġcardi orespiratory
Ġembol ization
Ġfin er
Ġmulti plication
AS H
ĠComp ound
Ġunders core
ĠEdin burgh
um ann
Ġdecap itation
18 5
Ġmapping s
otherap eutic
K ir
c z
Ġres ected
Ġdem entias
der mal
ĠSc he
Ġseman tics
car b
Ġcons onant
ĠER Î±
Ġbene ath
ĠDr p
Ġpolys omn
Ġinacc urate
e q
ĠF DI
our ses
ĠPh armac
ĠFox P
Ġl ute
22 65
Ġ17 6
Ġpack ed
Ġresol ving
Ġcave at
Ġdisappear ance
Ġdec ipher
M AT
n itro
ĠS porns
Ġhyp oin
Ġace tic
E le
Ġs TREM
An imal
ĠIncre ases
estr ation
ac oustic
Ġcardi o
Ġmultif ocal
Ġhemat opoietic
5 50
Ġcan als
ĠCI E
g ers
Ġ uro
Ġ( âĢĵ
Ġst ayed
Ġen ergetic
y k
ĠG CA
Ġmy asthen
Ġand rogen
all oidin
99 9
lec ortin
mm Hg
S pecific
ĠFT Y
Ġn ond
ĠD uration
Ġdiscuss ing
att ached
n utrition
s ha
ax ial
Ġrig or
ĠBel ow
e v
ĠG all
ĠAd obe
sh ape
ĠHS F
experim ent
f rozen
ĠG rowth
test ing
ĠDi agram
DC X
Ġshuff ling
Ġsigmo id
Ġhotsp ot
16 6
Ġinsu fficiency
ĠPhot oshop
G aussian
ur idine
Ġcalc arine
ĠNeuro basal
Ġte ams
Inc reased
Ġimmunoprec ipitated
Ġâ Ħ
Ġnavig ational
ĠHyp othesis
Ġ 000
Ġd u
Ġinser ts
Ġintern et
Ġmicrov essels
Ġproteas omal
Ġn ap
ptom ening
NS C
Ġaccompan y
ĠE CD
Ġconnec tivities
ĠSD H
orrh age
imon ious
ĠV ery
AD P
erc ules
Ġben ding
Ġorth ostatic
yal gia
uc ed
ad d
ure tte
ĠInf lammatory
Ġcomp iled
Ġdiscuss es
g ut
gen erating
Ġpars imonious
Ġshar ply
in variant
ĠI ED
ĠR b
P ath
ĠP lease
ĠM ir
Ġu ter
SV D
I TI
os idase
Ġsimpl est
ĠSc ales
Ġfraction ation
d uring
ĠS PA
Ġch a
Ġhemodynamic s
ĠFR DA
ĠD W
iss ions
Ġdip oles
Ġanore xia
Ġm ag
Ġestab lishes
Ġdisch arged
ĠM NTB
ĠTrans genic
ĠAust ria
Ġa kin
Ġfeed er
achus etts
P las
ĠL apl
Ġhel per
Ġfamiliar ization
Ġpar ab
ĠEEG LAB
Ġallevi ating
X X
Ġop aque
fil tered
i ance
Ġw itness
ĠI TG
Ġthromb us
acet ate
ĠF ischer
de tection
Ġphot ometry
ĠV III
Ġimmunolab eled
Ġdocument ation
methyl ated
er ator
St ate
Ġevo king
t ur
Ġm HTT
Ġpharmac ologic
Ġfas ted
Ġperox is
20 3
ĠCS s
P red
S ynaptic
f ear
ric s
Ġh in
ĠCl in
Ġh oney
ore ceptor
Ġstr ugg
ĠCh annel
Ġpreclud e
Ġun preced
ĠNo ise
ĠNov artis
re m
on asal
Ġlar yn
O nce
ar b
Ġal er
ir cles
ĠD Cs
itu ation
Ġsong s
A po
GC G
Ġsar cop
of us
Sup plemental
Ġaeti ology
Ġtrans it
34 4
ĠS J
rom yalgia
ĠJ iang
Ġdon epezil
Ġinvent ory
m c
AD C
H aving
Ġch un
Ġpsych oactive
Ġnom enclature
Ġpres urgical
Ġren ewal
Ġchec king
r ons
Ġas th
Ġcomp any
Ġbelong ed
dl ers
en berg
ĠC cl
Ġ2 70
Ġthick er
ĠHar ris
Ġket ogenic
ĠP ERK
ĠB asic
Ġdigit ally
+ ),
Ġr Tg
ĠV el
f ixation
Ġill usions
Ġunequ iv
ĠItem s
b io
v ine
ob asal
ĠMy D
fil in
ĠF O
Ġ5 68
Ġbase ment
R RID
ub es
AV LT
ar restin
ĠM SD
Ġdisrup tive
ĠCR PS
repe tition
Ġproteo lysis
ĠPh armaceuticals
ĠFC z
Ġcommunic ating
ĠClear ly
C GG
Ġdys plasia
af e
Ġunpreced ented
ogenic ity
rag matic
Ġlen gthen
f en
od or
ĠM uch
Ġremo ves
Ġclean ing
O lig
f NIRS
15 6
Ġc italopram
is ox
ĠLew is
Ġc ity
if luor
Ġfor g
iz yg
Ġoccas ions
Ġgonad al
ĠG VS
Ġrec tified
ĠTh or
Ġ10 9
Ġany thing
13 1
Ġstere ological
Ġenorm ous
j unction
Ġprincip ally
Ġhamp ered
Ġinter sp
Ġdep art
16 8
Ġfail ing
ĠPA E
Ġconcomit antly
ĠAMP H
in ucleotide
atten tive
to on
Ġlocal izes
ĠPlex ig
tingu ished
Ġa head
ĠO M
olar ity
ĠGTP ases
Ġa a
en ergy
ĠB RA
Ġvisual izing
27 5
ĠInter vention
Ġpall ium
Ġconvers ation
ĠBurling ame
Ab s
ĠAS R
Ġsplic ed
id ian
um at
ĠG rant
ĠAn tibody
Ġcent res
at on
Ġn ick
Ġch ord
Ġi NPH
ignific antly
ĠINTER EST
Ġm ent
ĠP ten
Ġleth ality
ĠR NFL
Ġdur al
Ġinf lated
Ġendophen otypes
19 8
Ġ1 17
ĠO scill
c rib
Ġsl ip
Ġclaim ed
ĠIntern et
Ġepid ural
Ġ15 2
Ġorgan ize
Ġganglion ic
C FS
ĠM aternal
isk er
phen otype
un corrected
ph on
ral imbic
Ġmas toid
Ġcorticostero ids
od a
Ġrelie ve
Ġtransform s
Ġdep ress
ĠAn derson
ĠInf lu
P ierce
on atal
Ġm DA
Ġviol ated
di amidino
elec tric
om ent
Ġcap ital
NI GMA
IC U
Ġreplic ating
Ġleg is
dib ular
Ġle af
NA A
Ġtranscriptom es
tigraph y
22 9
26 1
Ġpersistent ly
ri ad
Ġdisadvant ages
ĠD ick
fib ers
ac ross
ig an
Ġche l
Ġdepolar izations
Ġrein ner
t tes
z h
Ġm ann
Ġsh unt
Ġremember ing
ĠRes ource
ĠOther wise
conf idence
Ġunm ask
Ġstom ach
Ġcon clusive
Ġhyp ofunction
ĠMat rix
ĠEstim ation
ĠT SS
Ġeye blink
ris ts
Ġp sychedel
ĠU MAP
fact ors
S elf
Ċ ĠĠĠĠĠĠĠĠĠĠĠĠĠĠĠĠ
Ac ute
Ġmicrocirc uits
O CD
Ġperiodic ity
NIH SS
T CT
Ġen closed
orb et
Ġ+ /âĪĴ
Ġdeflection s
op ontine
Ġsp ans
Character istics
oc re
ĠS ig
Ġad vent
ĠCor ti
bach ol
ĠMA M
Ġexcit able
ulf ide
Ġkines in
ĠN U
hol m
Ġconform ations
od d
ĠO ld
ĠPr L
med icine
Ġt ether
T AT
Ġpharmac okinetic
E U
Ġr ater
ĠCP AP
Ġantero posterior
Ġances tral
id ality
Ġpro voked
diff usion
Ġp RF
ĠP rom
ĠG IRK
ans on
201 0
nucle i
nA ChR
gangl ionic
Ġconfirm atory
Ġsublim inal
Ġund ifferentiated
ust rative
Ġsg RNA
Ġmulti plying
ĠSystem ic
ĠCd c
D ys
Ġcomple mented
Ġmon oton
Ġsummar izing
Ġwilling ness
Ġ( âī¤
ĠN N
19 3
Ġcent ro
oxid ant
ĠEp idemi
rep resent
ischem ia
Ġout break
Ġstabil izes
Ġrecip ients
Ġcris is
3 75
si RNA
% -
Ġin ositol
as so
Ġbound s
ens en
per ception
Ġdimin ishes
ĠNew man
am atsu
ĠH BSS
Ġmed ically
thes es
Ġcytoarchite cture
c ost
Ġ2 60
Ġdors o
ĠSynap t
assess ment
s hip
Ġf entanyl
ĠA ON
Ġpar cel
Ch ar
pan el
Ġsupplement al
ĠFOX P
Ġbrack ets
L eu
ch arge
40 4
Ġdiscuss ions
ĠPS QI
Ġplacent a
ĠU T
row ser
24 2
Ġcath ode
Ġtibial is
re z
Ġsp he
ĠDA ergic
Ġperfor ant
Ġfibrin ogen
Ġt ut
ĠS z
Ġ14 5
ĠAV H
v ig
knock out
Ġdi recting
Ġatmosp here
U G
Ġp a
Ġ10 7
FC S
ocytochem ical
Ġv omiting
amm alian
gl obal
Ġarri ve
ĠO h
Ġbi of
Ġhead phones
Ġquant um
Ġdeacetyl ase
C erebral
Th irty
Ġamyloid ogenic
Ġmigr ated
ĠMMP s
Ġconspecific s
Ġp ick
Ġf os
ms ec
Ġobsc ure
ĠP w
Ġpres enilin
spec ifically
ars al
Ġbott le
ĠGuid elines
ĠCA PS
otherap ies
ĠKnock down
c ode
g ulatory
Ġat ropine
E O
Ġfe es
Ġantin ociceptive
ver tical
ell ar
ob lasts
Ġimmun oblots
ĠSc hed
com ponents
Ġiter atively
ĠT ME
Ġ3 33
ĠX Y
Ġadv ice
Ġdodec yl
Ġdistinct ly
ĠMass achusetts
b is
Ġin bred
Ġbrid ging
Ġpresent ly
Ġtag s
Ġleak y
Ġcryoprote cted
Ġf ont
ĠP ip
ĠF FT
ĠF eedback
ĠD ens
Ġform ats
A AT
Ġob lig
inf usion
atin um
Ġcommit ment
ĠH N
Ġmil est
A CSF
ord ered
Ġwell being
Ġfree ze
Current ly
therap y
Ġre he
RP s
Ġtet rodotoxin
ter y
equ ivalent
Ġdiaphrag m
I HC
L uc
it ual
Ġ10 24
Ġhetero zyg
ern icke
Ġexpon entially
azep am
Ġphr ases
y ch
Ġ1 13
ĠFA M
Ġtra vers
Ġanti social
hing ton
c ued
im etric
ĠS SA
Ġfac ets
molec ule
on ing
ĠInf lammation
Ġphosphatid ylinositol
AP B
Ġhyper intense
Ġdecl ining
Ġcategor ize
Ġzeb ra
Ġg ets
ip razole
och rom
bi osis
Ġport able
Ġawaken ing
tre x
Ġbul bs
ĠIsra el
ĠB ol
ĠL ind
Ġmyel itis
SI L
Ġgenu ine
ĠHil bert
C he
ir atory
ĠMechan ical
H FS
ĠM ND
Ġdil ated
Ġkain ic
ĠBiomed ical
N one
Ġregion ally
Ġhem e
ĠD KO
Ġr RNA
Ġsup plements
[...]
